{
  "version": "1.0",
  "truncation": null,
  "padding": null,
  "added_tokens": [
    {
      "id": 0,
      "content": "[PAD]",
      "single_word": false,
      "lstrip": false,
      "rstrip": false,
      "normalized": false,
      "special": true
    },
    {
      "id": 1,
      "content": "[UNK]",
      "single_word": false,
      "lstrip": false,
      "rstrip": false,
      "normalized": false,
      "special": true
    },
    {
      "id": 2,
      "content": "[CLS]",
      "single_word": false,
      "lstrip": false,
      "rstrip": false,
      "normalized": false,
      "special": true
    },
    {
      "id": 3,
      "content": "[SEP]",
      "single_word": false,
      "lstrip": false,
      "rstrip": false,
      "normalized": false,
      "special": true
    },
    {
      "id": 4,
      "content": "[MASK]",
      "single_word": false,
      "lstrip": false,
      "rstrip": false,
      "normalized": false,
      "special": true
    }
  ],
  "normalizer": null,
  "pre_tokenizer": {
    "type": "Whitespace"
  },
  "post_processor": null,
  "decoder": null,
  "model": {
    "type": "BPE",
    "dropout": null,
    "unk_token": "[UNK]",
    "continuing_subword_prefix": null,
    "end_of_word_suffix": null,
    "fuse_unk": false,
    "byte_fallback": false,
    "ignore_merges": false,
    "vocab": {
      "[PAD]": 0,
      "[UNK]": 1,
      "[CLS]": 2,
      "[SEP]": 3,
      "[MASK]": 4,
      "!": 5,
      "\"": 6,
      "#": 7,
      "$": 8,
      "%": 9,
      "&": 10,
      "'": 11,
      "(": 12,
      ")": 13,
      "*": 14,
      "+": 15,
      ",": 16,
      "-": 17,
      ".": 18,
      "/": 19,
      "0": 20,
      "1": 21,
      "2": 22,
      "3": 23,
      "4": 24,
      "5": 25,
      "6": 26,
      "7": 27,
      "8": 28,
      "9": 29,
      ":": 30,
      ";": 31,
      "<": 32,
      "=": 33,
      ">": 34,
      "?": 35,
      "@": 36,
      "A": 37,
      "B": 38,
      "C": 39,
      "D": 40,
      "E": 41,
      "F": 42,
      "G": 43,
      "H": 44,
      "I": 45,
      "J": 46,
      "K": 47,
      "L": 48,
      "M": 49,
      "N": 50,
      "O": 51,
      "P": 52,
      "Q": 53,
      "R": 54,
      "S": 55,
      "T": 56,
      "U": 57,
      "V": 58,
      "W": 59,
      "X": 60,
      "Y": 61,
      "Z": 62,
      "[": 63,
      "\\": 64,
      "]": 65,
      "^": 66,
      "_": 67,
      "`": 68,
      "a": 69,
      "b": 70,
      "c": 71,
      "d": 72,
      "e": 73,
      "f": 74,
      "g": 75,
      "h": 76,
      "i": 77,
      "j": 78,
      "k": 79,
      "l": 80,
      "m": 81,
      "n": 82,
      "o": 83,
      "p": 84,
      "q": 85,
      "r": 86,
      "s": 87,
      "t": 88,
      "u": 89,
      "v": 90,
      "w": 91,
      "x": 92,
      "y": 93,
      "z": 94,
      "{": 95,
      "}": 96,
      "~": 97,
      "": 98,
      "": 99,
      "¡": 100,
      "¢": 101,
      "£": 102,
      "¤": 103,
      "¥": 104,
      "¦": 105,
      "§": 106,
      "¨": 107,
      "©": 108,
      "«": 109,
      "¬": 110,
      "­": 111,
      "®": 112,
      "¯": 113,
      "°": 114,
      "±": 115,
      "²": 116,
      "³": 117,
      "´": 118,
      "µ": 119,
      "¶": 120,
      "·": 121,
      "¸": 122,
      "¹": 123,
      "º": 124,
      "»": 125,
      "¼": 126,
      "½": 127,
      "¾": 128,
      "¿": 129,
      "À": 130,
      "Á": 131,
      "Â": 132,
      "Ã": 133,
      "Ä": 134,
      "Å": 135,
      "Æ": 136,
      "Ç": 137,
      "È": 138,
      "É": 139,
      "Ê": 140,
      "Ë": 141,
      "Ì": 142,
      "Í": 143,
      "Î": 144,
      "Ï": 145,
      "Ð": 146,
      "Ñ": 147,
      "Ò": 148,
      "Ó": 149,
      "Ô": 150,
      "Õ": 151,
      "Ö": 152,
      "×": 153,
      "Ø": 154,
      "Ù": 155,
      "Ú": 156,
      "Û": 157,
      "Ý": 158,
      "Þ": 159,
      "ß": 160,
      "à": 161,
      "á": 162,
      "â": 163,
      "ã": 164,
      "ä": 165,
      "å": 166,
      "æ": 167,
      "ç": 168,
      "è": 169,
      "é": 170,
      "ê": 171,
      "ë": 172,
      "ì": 173,
      "í": 174,
      "î": 175,
      "ï": 176,
      "ð": 177,
      "ñ": 178,
      "ò": 179,
      "ó": 180,
      "ô": 181,
      "õ": 182,
      "ö": 183,
      "÷": 184,
      "ø": 185,
      "ù": 186,
      "ú": 187,
      "û": 188,
      "ü": 189,
      "ý": 190,
      "þ": 191,
      "ÿ": 192,
      "Ā": 193,
      "ā": 194,
      "Ă": 195,
      "ă": 196,
      "Č": 197,
      "č": 198,
      "ē": 199,
      "ė": 200,
      "ę": 201,
      "ě": 202,
      "ğ": 203,
      "ī": 204,
      "ĭ": 205,
      "İ": 206,
      "ı": 207,
      "ļ": 208,
      "Ł": 209,
      "ł": 210,
      "ń": 211,
      "ň": 212,
      "ŏ": 213,
      "ő": 214,
      "œ": 215,
      "Ś": 216,
      "Ş": 217,
      "ş": 218,
      "Š": 219,
      "š": 220,
      "ţ": 221,
      "ū": 222,
      "ŭ": 223,
      "ź": 224,
      "Ž": 225,
      "ž": 226,
      "θ": 227,
      "‐": 228,
      "–": 229,
      "—": 230,
      "‘": 231,
      "’": 232,
      "“": 233,
      "”": 234,
      "„": 235,
      "‟": 236,
      "†": 237,
      "‡": 238,
      "•": 239,
      "…": 240,
      "‰": 241,
      "⁄": 242,
      "⁻": 243,
      "₣": 244,
      "₪": 245,
      "₫": 246,
      "€": 247,
      "™": 248,
      "→": 249,
      "♪": 250,
      "ﬂ": 251,
      "﻿": 252,
      "th": 253,
      "the": 254,
      "in": 255,
      "an": 256,
      "re": 257,
      "ou": 258,
      "er": 259,
      "is": 260,
      "ll": 261,
      "on": 262,
      "en": 263,
      "or": 264,
      "at": 265,
      "and": 266,
      "ed": 267,
      "to": 268,
      "es": 269,
      "you": 270,
      "of": 271,
      "wh": 272,
      "be": 273,
      "ar": 274,
      "ing": 275,
      "se": 276,
      "ha": 277,
      "it": 278,
      "ve": 279,
      "he": 280,
      "om": 281,
      "no": 282,
      "le": 283,
      "wi": 284,
      "st": 285,
      "ay": 286,
      "li": 287,
      "for": 288,
      "de": 289,
      "they": 290,
      "them": 291,
      "as": 292,
      "ver": 293,
      "ion": 294,
      "not": 295,
      "All": 296,
      "ah": 297,
      "nd": 298,
      "that": 299,
      "ch": 300,
      "ent": 301,
      "im": 302,
      "will": 303,
      "id": 304,
      "ce": 305,
      "ow": 306,
      "al": 307,
      "who": 308,
      "ly": 309,
      "ir": 310,
      "Allah": 311,
      "are": 312,
      "od": 313,
      "gh": 314,
      "ur": 315,
      "He": 316,
      "ut": 317,
      "ct": 318,
      "ld": 319,
      "we": 320,
      "We": 321,
      "am": 322,
      "And": 323,
      "fr": 324,
      "have": 325,
      "un": 326,
      "with": 327,
      "ght": 328,
      "all": 329,
      "ose": 330,
      "The": 331,
      "ord": 332,
      "do": 333,
      "ri": 334,
      "ro": 335,
      "ad": 336,
      "ess": 337,
      "your": 338,
      "their": 339,
      "ever": 340,
      "ge": 341,
      "from": 342,
      "pe": 343,
      "if": 344,
      "Th": 345,
      "us": 346,
      "ter": 347,
      "ab": 348,
      "il": 349,
      "com": 350,
      "beli": 351,
      "ke": 352,
      "ain": 353,
      "ther": 354,
      "sa": 355,
      "those": 356,
      "op": 357,
      "su": 358,
      "God": 359,
      "me": 360,
      "ck": 361,
      "Lord": 362,
      "fo": 363,
      "now": 364,
      "one": 365,
      "so": 366,
      "what": 367,
      "ear": 368,
      "ul": 369,
      "ation": 370,
      "ex": 371,
      "ra": 372,
      "sha": 373,
      "him": 374,
      "ma": 375,
      "ould": 376,
      "ven": 377,
      "sh": 378,
      "ard": 379,
      "Wh": 380,
      "ers": 381,
      "whi": 382,
      "..": 383,
      "but": 384,
      "est": 385,
      "gi": 386,
      "fa": 387,
      "go": 388,
      "up": 389,
      "dis": 390,
      "ment": 391,
      "there": 392,
      "ong": 393,
      "this": 394,
      "lo": 395,
      "con": 396,
      "know": 397,
      "shall": 398,
      "when": 399,
      "our": 400,
      "mo": 401,
      "has": 402,
      "belie": 403,
      "out": 404,
      "tr": 405,
      "fi": 406,
      "ind": 407,
      "said": 408,
      "ts": 409,
      "ate": 410,
      "ne": 411,
      "pro": 412,
      "fe": 413,
      "res": 414,
      "which": 415,
      "deed": 416,
      "ople": 417,
      "pt": 418,
      "la": 419,
      "urn": 420,
      "et": 421,
      "po": 422,
      "people": 423,
      "by": 424,
      "his": 425,
      "gu": 426,
      "say": 427,
      "si": 428,
      "then": 429,
      "cre": 430,
      "own": 431,
      "end": 432,
      "thing": 433,
      "ame": 434,
      "fore": 435,
      "wor": 436,
      "man": 437,
      "ca": 438,
      "ves": 439,
      "ta": 440,
      "ight": 441,
      "You": 442,
      "pr": 443,
      "ag": 444,
      "ish": 445,
      "was": 446,
      "ok": 447,
      "were": 448,
      "ust": 449,
      "te": 450,
      "af": 451,
      "His": 452,
      "In": 453,
      "way": 454,
      "ise": 455,
      "They": 456,
      "my": 457,
      "ome": 458,
      "turn": 459,
      "ic": 460,
      "other": 461,
      "ant": 462,
      "gn": 463,
      ".\"": 464,
      "red": 465,
      "ous": 466,
      "qu": 467,
      "believe": 468,
      "any": 469,
      "can": 470,
      "art": 471,
      "come": 472,
      "ol": 473,
      "ful": 474,
      "Him": 475,
      "sel": 476,
      "per": 477,
      "Mo": 478,
      "ye": 479,
      "ure": 480,
      "nt": 481,
      "ity": 482,
      "see": 483,
      "use": 484,
      "right": 485,
      "mb": 486,
      "earth": 487,
      "tru": 488,
      "gr": 489,
      "vi": 490,
      "evers": 491,
      "may": 492,
      "pl": 493,
      "had": 494,
      "So": 495,
      "...": 496,
      "able": 497,
      "ction": 498,
      "ance": 499,
      "been": 500,
      "But": 501,
      "br": 502,
      "good": 503,
      "No": 504,
      "ac": 505,
      "age": 506,
      "before": 507,
      "upon": 508,
      "ave": 509,
      "ast": 510,
      "would": 511,
      "believers": 512,
      "ho": 513,
      "di": 514,
      "ated": 515,
      "after": 516,
      "day": 517,
      "ill": 518,
      "eng": 519,
      "ort": 520,
      "over": 521,
      "ip": 522,
      "down": 523,
      "thou": 524,
      "only": 525,
      "ack": 526,
      "ev": 527,
      "It": 528,
      "ving": 529,
      "some": 530,
      "ap": 531,
      "This": 532,
      "ans": 533,
      "whom": 534,
      "den": 535,
      "its": 536,
      "ath": 537,
      "cept": 538,
      "ser": 539,
      "ved": 540,
      "sent": 541,
      "ound": 542,
      "If": 543,
      "sure": 544,
      "Re": 545,
      "esseng": 546,
      "ook": 547,
      "did": 548,
      "Do": 549,
      "Our": 550,
      "among": 551,
      "),": 552,
      "made": 553,
      "ily": 554,
      "wr": 555,
      "ward": 556,
      "ist": 557,
      "hear": 558,
      "erc": 559,
      "give": 560,
      "Day": 561,
      "hea": 562,
      "sp": 563,
      ").": 564,
      "again": 565,
      "bet": 566,
      "tain": 567,
      "Then": 568,
      "sign": 569,
      "like": 570,
      "ness": 571,
      "indeed": 572,
      "unto": 573,
      "ci": 574,
      "comm": 575,
      "than": 576,
      "Say": 577,
      "ple": 578,
      "ach": 579,
      "ect": 580,
      "nor": 581,
      "ings": 582,
      "heaven": 583,
      "whe": 584,
      "ted": 585,
      "men": 586,
      "cer": 587,
      "given": 588,
      "led": 589,
      "ship": 590,
      "how": 591,
      "selves": 592,
      "llow": 593,
      "des": 594,
      "fear": 595,
      "cause": 596,
      "ses": 597,
      "unish": 598,
      "ham": 599,
      "should": 600,
      "ase": 601,
      "just": 602,
      "truth": 603,
      "back": 604,
      "ject": 605,
      "bo": 606,
      "reat": 607,
      "surely": 608,
      "punish": 609,
      "ies": 610,
      "ime": 611,
      "em": 612,
      "bl": 613,
      "pre": 614,
      "call": 615,
      "ount": 616,
      "ble": 617,
      "about": 618,
      "Who": 619,
      "ine": 620,
      "ext": 621,
      "ire": 622,
      "fu": 623,
      "cl": 624,
      "ith": 625,
      "ide": 626,
      "lect": 627,
      "ink": 628,
      "ange": 629,
      "port": 630,
      "make": 631,
      "every": 632,
      "away": 633,
      "What": 634,
      "ty": 635,
      "wo": 636,
      "ren": 637,
      "reve": 638,
      "Pro": 639,
      "str": 640,
      "ob": 641,
      "ls": 642,
      "guid": 643,
      "ud": 644,
      "against": 645,
      "ak": 646,
      "ive": 647,
      "mber": 648,
      "ress": 649,
      "co": 650,
      "ass": 651,
      "For": 652,
      "spe": 653,
      "My": 654,
      "follow": 655,
      "ite": 656,
      "Se": 657,
      "ask": 658,
      "um": 659,
      "Book": 660,
      "Messeng": 661,
      "except": 662,
      "When": 663,
      "und": 664,
      "into": 665,
      "evil": 666,
      "form": 667,
      "used": 668,
      "read": 669,
      "comp": 670,
      "ning": 671,
      "au": 672,
      "ue": 673,
      "ry": 674,
      "cle": 675,
      "where": 676,
      "set": 677,
      "heavens": 678,
      "came": 679,
      "here": 680,
      "time": 681,
      "her": 682,
      "There": 683,
      "cri": 684,
      "life": 685,
      "does": 686,
      ".”": 687,
      "ations": 688,
      "ep": 689,
      "return": 690,
      "wrong": 691,
      "punishment": 692,
      "created": 693,
      "That": 694,
      "Indeed": 695,
      "ew": 696,
      "pla": 697,
      "Is": 698,
      "el": 699,
      "file": 700,
      "urre": 701,
      "IN": 702,
      "sin": 703,
      "take": 704,
      "get": 705,
      "put": 706,
      "most": 707,
      "ree": 708,
      "things": 709,
      "let": 710,
      "war": 711,
      "Lo": 712,
      "hel": 713,
      "well": 714,
      "Un": 715,
      "hearts": 716,
      "part": 717,
      "want": 718,
      "ens": 719,
      "act": 720,
      "int": 721,
      "two": 722,
      "kind": 723,
      "har": 724,
      "cess": 725,
      "ence": 726,
      "new": 727,
      "mis": 728,
      "iz": 729,
      "world": 730,
      "phe": 731,
      "worship": 732,
      "faith": 733,
      "ions": 734,
      "hand": 735,
      "tri": 736,
      "ef": 737,
      "command": 738,
      "deeds": 739,
      "pos": 740,
      "hamm": 741,
      "might": 742,
      "merc": 743,
      "thee": 744,
      "signs": 745,
      "ces": 746,
      "ween": 747,
      "while": 748,
      "ally": 749,
      "Those": 750,
      "certain": 751,
      "To": 752,
      "king": 753,
      "less": 754,
      "Ver": 755,
      "between": 756,
      "ild": 757,
      "ory": 758,
      "fir": 759,
      "mat": 760,
      "bes": 761,
      "great": 762,
      "Messenger": 763,
      "pp": 764,
      "Be": 765,
      "clear": 766,
      "long": 767,
      "could": 768,
      "Con": 769,
      "themselves": 770,
      "self": 771,
      "ace": 772,
      "wom": 773,
      "under": 774,
      "Mu": 775,
      "stand": 776,
      "help": 777,
      "prom": 778,
      "more": 779,
      "iful": 780,
      "off": 781,
      "ought": 782,
      "ks": 783,
      "land": 784,
      "ror": 785,
      "pray": 786,
      "thy": 787,
      "ledge": 788,
      "hast": 789,
      "ang": 790,
      "Moses": 791,
      "even": 792,
      "reward": 793,
      "place": 794,
      "ary": 795,
      "ants": 796,
      "De": 797,
      "Ad": 798,
      "fil": 799,
      "ied": 800,
      "ru": 801,
      "ower": 802,
      "wit": 803,
      "ult": 804,
      "rep": 805,
      "find": 806,
      "hammad": 807,
      "because": 808,
      "Muhammad": 809,
      "bring": 810,
      "lic": 811,
      "knowledge": 812,
      "va": 813,
      "--": 814,
      "ors": 815,
      "Al": 816,
      "ot": 817,
      "ph": 818,
      "Ex": 819,
      "reveal": 820,
      "another": 821,
      "ised": 822,
      "wat": 823,
      "ft": 824,
      "never": 825,
      "En": 826,
      "dest": 827,
      "Ch": 828,
      "ond": 829,
      "eous": 830,
      "hath": 831,
      "knows": 832,
      "As": 833,
      "aw": 834,
      "reme": 835,
      "son": 836,
      "night": 837,
      "full": 838,
      "On": 839,
      "word": 840,
      "light": 841,
      "unt": 842,
      "itt": 843,
      "soever": 844,
      "urely": 845,
      "she": 846,
      "tra": 847,
      "rec": 848,
      "ray": 849,
      "phet": 850,
      "jo": 851,
      "name": 852,
      "hold": 853,
      "bey": 854,
      "pi": 855,
      "ste": 856,
      "mercy": 857,
      "Verily": 858,
      "believed": 859,
      "vers": 860,
      "play": 861,
      "Surely": 862,
      "disc": 863,
      "certainly": 864,
      "rem": 865,
      "ING": 866,
      "righteous": 867,
      "list": 868,
      "ced": 869,
      "les": 870,
      "forth": 871,
      "ither": 872,
      "ough": 873,
      "verily": 874,
      "gra": 875,
      "sou": 876,
      "ati": 877,
      "?\"": 878,
      "god": 879,
      "ign": 880,
      "vis": 881,
      "Merc": 882,
      "better": 883,
      "these": 884,
      "00": 885,
      "sub": 886,
      "ones": 887,
      "got": 888,
      "cur": 889,
      "tor": 890,
      "tow": 891,
      "therein": 892,
      "giving": 893,
      "father": 894,
      "Res": 895,
      "move": 896,
      "How": 897,
      "pass": 898,
      "inter": 899,
      "ition": 900,
      "ile": 901,
      "ken": 902,
      "send": 903,
      "until": 904,
      "gard": 905,
      "thr": 906,
      "col": 907,
      "indow": 908,
      "old": 909,
      "bro": 910,
      "women": 911,
      "ms": 912,
      "che": 913,
      "acc": 914,
      "mar": 915,
      "others": 916,
      "revealed": 917,
      "uch": 918,
      "igh": 919,
      "guidance": 920,
      "ify": 921,
      "cont": 922,
      "Here": 923,
      "such": 924,
      "show": 925,
      "Prophet": 926,
      "mon": 927,
      "cr": 928,
      "Most": 929,
      "enter": 930,
      "Qur": 931,
      "ice": 932,
      "hu": 933,
      "low": 934,
      "Your": 935,
      "na": 936,
      "witness": 937,
      "post": 938,
      "brought": 939,
      "Know": 940,
      "warn": 941,
      "gave": 942,
      "think": 943,
      "val": 944,
      "each": 945,
      "St": 946,
      "ub": 947,
      "Us": 948,
      "Fire": 949,
      "par": 950,
      "true": 951,
      "add": 952,
      "ey": 953,
      "umber": 954,
      "cal": 955,
      "cript": 956,
      "ides": 957,
      "fer": 958,
      "gin": 959,
      "found": 960,
      "dr": 961,
      "need": 962,
      "Ma": 963,
      "top": 964,
      "look": 965,
      "ates": 966,
      "angels": 967,
      "Com": 968,
      "deny": 969,
      "ont": 970,
      "best": 971,
      "obey": 972,
      "gl": 973,
      "don": 974,
      "):": 975,
      "path": 976,
      "pres": 977,
      "open": 978,
      "Me": 979,
      "fav": 980,
      "power": 981,
      "torment": 982,
      "select": 983,
      "ildren": 984,
      "Or": 985,
      "leave": 986,
      ".'": 987,
      "cor": 988,
      "inv": 989,
      "Show": 990,
      "many": 991,
      "though": 992,
      "ene": 993,
      "Select": 994,
      "bu": 995,
      "mit": 996,
      "Merciful": 997,
      "save": 998,
      "disbelieve": 999,
      "messeng": 1000,
      "doers": 1001,
      "abo": 1002,
      "Dis": 1003,
      "error": 1004,
      "lease": 1005,
      "Ab": 1006,
      "disbelievers": 1007,
      "Go": 1008,
      "lig": 1009,
      "toward": 1010,
      "files": 1011,
      "nothing": 1012,
      "very": 1013,
      "none": 1014,
      "bar": 1015,
      "ting": 1016,
      "astray": 1017,
      "whose": 1018,
      "ener": 1019,
      "ents": 1020,
      "water": 1021,
      "jud": 1022,
      "roy": 1023,
      "whatever": 1024,
      "pleas": 1025,
      "live": 1026,
      "mankind": 1027,
      "bre": 1028,
      "without": 1029,
      "cannot": 1030,
      "wa": 1031,
      "work": 1032,
      "DE": 1033,
      "oh": 1034,
      "order": 1035,
      "Hell": 1036,
      "pare": 1037,
      "essage": 1038,
      "sk": 1039,
      "tell": 1040,
      "AN": 1041,
      "dou": 1042,
      "fire": 1043,
      "destroy": 1044,
      "urrent": 1045,
      "remember": 1046,
      "ready": 1047,
      "keep": 1048,
      "Have": 1049,
      "],": 1050,
      "dom": 1051,
      "ages": 1052,
      "serv": 1053,
      "tion": 1054,
      "Please": 1055,
      "revel": 1056,
      "belong": 1057,
      "unbelievers": 1058,
      "suf": 1059,
      "rect": 1060,
      "left": 1061,
      "appo": 1062,
      "saying": 1063,
      "chast": 1064,
      "side": 1065,
      "wish": 1066,
      "ouse": 1067,
      "Pe": 1068,
      "become": 1069,
      "brother": 1070,
      "An": 1071,
      "pati": 1072,
      "turned": 1073,
      "being": 1074,
      "sing": 1075,
      "death": 1076,
      "urrection": 1077,
      "oun": 1078,
      ".’": 1079,
      "Mus": 1080,
      "whoever": 1081,
      "pen": 1082,
      "vid": 1083,
      "kill": 1084,
      "lay": 1085,
      "cho": 1086,
      "trans": 1087,
      "ified": 1088,
      "tect": 1089,
      "Hereafter": 1090,
      "fall": 1091,
      "text": 1092,
      "OU": 1093,
      "min": 1094,
      "Br": 1095,
      "understand": 1096,
      "equ": 1097,
      "sy": 1098,
      "suc": 1099,
      "quest": 1100,
      "image": 1101,
      "dev": 1102,
      "bit": 1103,
      "stri": 1104,
      "try": 1105,
      "seen": 1106,
      "idden": 1107,
      "ton": 1108,
      "raise": 1109,
      "Set": 1110,
      "char": 1111,
      "soci": 1112,
      "dif": 1113,
      "last": 1114,
      "oup": 1115,
      "promise": 1116,
      "edi": 1117,
      "soul": 1118,
      "yourselves": 1119,
      "hands": 1120,
      "ese": 1121,
      "bless": 1122,
      "ense": 1123,
      "guide": 1124,
      "aught": 1125,
      "cu": 1126,
      "kes": 1127,
      "pur": 1128,
      "guided": 1129,
      "first": 1130,
      "yet": 1131,
      "ters": 1132,
      "also": 1133,
      "bear": 1134,
      "vel": 1135,
      "neither": 1136,
      "rece": 1137,
      "ific": 1138,
      "comes": 1139,
      "reject": 1140,
      "fri": 1141,
      "cond": 1142,
      "ating": 1143,
      "ze": 1144,
      "Col": 1145,
      "seek": 1146,
      "Ar": 1147,
      "gon": 1148,
      "Phar": 1149,
      "number": 1150,
      "key": 1151,
      "vice": 1152,
      "firm": 1153,
      "Phara": 1154,
      "aid": 1155,
      "speak": 1156,
      "ious": 1157,
      "pers": 1158,
      "Pharaoh": 1159,
      "los": 1160,
      "hind": 1161,
      "gg": 1162,
      "iled": 1163,
      "lot": 1164,
      "inform": 1165,
      "Par": 1166,
      "forgiven": 1167,
      "test": 1168,
      "cking": 1169,
      "Resurrection": 1170,
      "burn": 1171,
      "cli": 1172,
      "cut": 1173,
      "ash": 1174,
      "als": 1175,
      "Add": 1176,
      "load": 1177,
      "ains": 1178,
      "reach": 1179,
      "associ": 1180,
      "through": 1181,
      "pri": 1182,
      "start": 1183,
      "TH": 1184,
      "fault": 1185,
      "cked": 1186,
      "New": 1187,
      "car": 1188,
      "doub": 1189,
      "One": 1190,
      "SA": 1191,
      "Ye": 1192,
      "done": 1193,
      "ark": 1194,
      "doing": 1195,
      "ligion": 1196,
      "resp": 1197,
      "pain": 1198,
      "Why": 1199,
      "love": 1200,
      "prayer": 1201,
      "fold": 1202,
      "both": 1203,
      "ali": 1204,
      "guard": 1205,
      "ears": 1206,
      "\"%": 1207,
      "sess": 1208,
      "miss": 1209,
      "mor": 1210,
      "alse": 1211,
      "inted": 1212,
      "ited": 1213,
      "going": 1214,
      "concer": 1215,
      "lie": 1216,
      "ittle": 1217,
      "Tru": 1218,
      "trust": 1219,
      "CD": 1220,
      "anything": 1221,
      "ian": 1222,
      "gether": 1223,
      "ata": 1224,
      "window": 1225,
      "dri": 1226,
      "Not": 1227,
      "atan": 1228,
      "dead": 1229,
      "ie": 1230,
      "lt": 1231,
      "run": 1232,
      "together": 1233,
      "ava": 1234,
      "friend": 1235,
      "towards": 1236,
      "much": 1237,
      "Are": 1238,
      "too": 1239,
      "religion": 1240,
      "gress": 1241,
      "Wise": 1242,
      "line": 1243,
      "ched": 1244,
      "chastise": 1245,
      "gri": 1246,
      "ars": 1247,
      "forgiveness": 1248,
      "ig": 1249,
      "sor": 1250,
      "Move": 1251,
      "everything": 1252,
      "ON": 1253,
      "ished": 1254,
      "behind": 1255,
      "Thus": 1256,
      "head": 1257,
      "sup": 1258,
      "wise": 1259,
      "inn": 1260,
      "already": 1261,
      "forb": 1262,
      "raw": 1263,
      "mount": 1264,
      "current": 1265,
      "fair": 1266,
      "fight": 1267,
      "besides": 1268,
      "hard": 1269,
      "!\"": 1270,
      "known": 1271,
      "appointed": 1272,
      "Abra": 1273,
      "Abraham": 1274,
      "little": 1275,
      "These": 1276,
      "alth": 1277,
      "false": 1278,
      "att": 1279,
      "unjust": 1280,
      "ments": 1281,
      "eyes": 1282,
      "enc": 1283,
      "law": 1284,
      "accept": 1285,
      "app": 1286,
      "opy": 1287,
      "cent": 1288,
      "File": 1289,
      "change": 1290,
      "stem": 1291,
      "ined": 1292,
      "hell": 1293,
      "cted": 1294,
      "selected": 1295,
      "ual": 1296,
      "revelations": 1297,
      "press": 1298,
      "odu": 1299,
      "above": 1300,
      "apost": 1301,
      "lead": 1302,
      "AR": 1303,
      "rest": 1304,
      "mighty": 1305,
      "Quran": 1306,
      "dwell": 1307,
      "row": 1308,
      "iting": 1309,
      "ners": 1310,
      "tal": 1311,
      "gonna": 1312,
      "ER": 1313,
      "Pr": 1314,
      "Tr": 1315,
      "lled": 1316,
      "peace": 1317,
      "concerning": 1318,
      "must": 1319,
      "KDE": 1320,
      "something": 1321,
      "servants": 1322,
      "Au": 1323,
      "By": 1324,
      "forgive": 1325,
      "fathers": 1326,
      "chastisement": 1327,
      "bur": 1328,
      "therefore": 1329,
      "ures": 1330,
      "repent": 1331,
      "hon": 1332,
      "Forgiving": 1333,
      "children": 1334,
      "ize": 1335,
      "fun": 1336,
      "gre": 1337,
      "die": 1338,
      "wealth": 1339,
      "enjo": 1340,
      "ained": 1341,
      "belief": 1342,
      "spec": 1343,
      "Satan": 1344,
      "thor": 1345,
      "took": 1346,
      "fast": 1347,
      "lies": 1348,
      "stead": 1349,
      "ned": 1350,
      "protect": 1351,
      "pay": 1352,
      "lid": 1353,
      "judge": 1354,
      "success": 1355,
      "vision": 1356,
      "Thou": 1357,
      "gener": 1358,
      "vere": 1359,
      "].": 1360,
      "adise": 1361,
      "harm": 1362,
      "ists": 1363,
      "fully": 1364,
      "belongs": 1365,
      "oc": 1366,
      "near": 1367,
      "chang": 1368,
      "sky": 1369,
      "returns": 1370,
      "wills": 1371,
      "drink": 1372,
      "eat": 1373,
      "fli": 1374,
      "pa": 1375,
      "called": 1376,
      "Messengers": 1377,
      "doubt": 1378,
      "lam": 1379,
      "Will": 1380,
      "gives": 1381,
      "Now": 1382,
      "Gard": 1383,
      "support": 1384,
      "Ed": 1385,
      "ils": 1386,
      "ga": 1387,
      "ways": 1388,
      "hap": 1389,
      "raised": 1390,
      "Can": 1391,
      "abl": 1392,
      "painful": 1393,
      "believing": 1394,
      "destroyed": 1395,
      "tribut": 1396,
      "SAW": 1397,
      "mind": 1398,
      "group": 1399,
      "color": 1400,
      "flow": 1401,
      "sc": 1402,
      "ites": 1403,
      "Well": 1404,
      "stru": 1405,
      "bestow": 1406,
      "Let": 1407,
      "taken": 1408,
      "DV": 1409,
      "ware": 1410,
      "view": 1411,
      "ired": 1412,
      "Fa": 1413,
      "Fil": 1414,
      "sins": 1415,
      "ner": 1416,
      "vide": 1417,
      "matter": 1418,
      "tem": 1419,
      "avail": 1420,
      "ick": 1421,
      "happ": 1422,
      "alone": 1423,
      "DVD": 1424,
      "Script": 1425,
      "message": 1426,
      "patient": 1427,
      "ank": 1428,
      "told": 1429,
      "etc": 1430,
      "value": 1431,
      "allow": 1432,
      "oud": 1433,
      "town": 1434,
      "promised": 1435,
      "rel": 1436,
      "means": 1437,
      "eth": 1438,
      "grace": 1439,
      "aware": 1440,
      "She": 1441,
      "button": 1442,
      "prostr": 1443,
      "cast": 1444,
      "cks": 1445,
      "Sh": 1446,
      "ten": 1447,
      "recomp": 1448,
      "ins": 1449,
      "Paradise": 1450,
      "face": 1451,
      "Sha": 1452,
      "Che": 1453,
      "tern": 1454,
      "Remove": 1455,
      "transgress": 1456,
      "Did": 1457,
      "ifest": 1458,
      ".)": 1459,
      "Des": 1460,
      "favour": 1461,
      "sto": 1462,
      "spend": 1463,
      "ened": 1464,
      "free": 1465,
      "folder": 1466,
      "ouch": 1467,
      "grant": 1468,
      "high": 1469,
      "ities": 1470,
      "mother": 1471,
      "dec": 1472,
      "\".": 1473,
      "Fr": 1474,
      "mission": 1475,
      "fru": 1476,
      "establ": 1477,
      "Unto": 1478,
      "Ta": 1479,
      "really": 1480,
      "Sign": 1481,
      "create": 1482,
      "ME": 1483,
      "sla": 1484,
      "nam": 1485,
      "sun": 1486,
      "Open": 1487,
      "dist": 1488,
      "creation": 1489,
      "Enter": 1490,
      "?”": 1491,
      "direct": 1492,
      "Where": 1493,
      "whosoever": 1494,
      "far": 1495,
      "account": 1496,
      "fin": 1497,
      "gment": 1498,
      "Man": 1499,
      "lu": 1500,
      "Truth": 1501,
      "fam": 1502,
      "vided": 1503,
      "still": 1504,
      "cient": 1505,
      "human": 1506,
      "Knowing": 1507,
      "vo": 1508,
      "incre": 1509,
      "project": 1510,
      "manifest": 1511,
      "IS": 1512,
      "messengers": 1513,
      "tid": 1514,
      "Might": 1515,
      "Nor": 1516,
      "hy": 1517,
      "option": 1518,
      "possess": 1519,
      "tic": 1520,
      "Co": 1521,
      "ktop": 1522,
      "og": 1523,
      "grate": 1524,
      "days": 1525,
      "uration": 1526,
      "Whe": 1527,
      "que": 1528,
      "person": 1529,
      "pty": 1530,
      "sol": 1531,
      "diffe": 1532,
      "proof": 1533,
      "cla": 1534,
      "Nay": 1535,
      "requ": 1536,
      "author": 1537,
      "function": 1538,
      ",\"": 1539,
      "Save": 1540,
      "wer": 1541,
      "meet": 1542,
      "Isra": 1543,
      "LL": 1544,
      "news": 1545,
      "People": 1546,
      "Te": 1547,
      "Use": 1548,
      "Color": 1549,
      "Come": 1550,
      "pect": 1551,
      "AT": 1552,
      "Jud": 1553,
      "same": 1554,
      "please": 1555,
      "Po": 1556,
      "bount": 1557,
      "data": 1558,
      "stra": 1559,
      "nation": 1560,
      "verses": 1561,
      "home": 1562,
      "saw": 1563,
      "fect": 1564,
      "Edit": 1565,
      "ator": 1566,
      "tidings": 1567,
      "Whether": 1568,
      "himself": 1569,
      "information": 1570,
      "ben": 1571,
      "arch": 1572,
      "plain": 1573,
      "Had": 1574,
      "next": 1575,
      "Their": 1576,
      "valid": 1577,
      "desire": 1578,
      "Cre": 1579,
      "around": 1580,
      "Oh": 1581,
      "YOU": 1582,
      "ible": 1583,
      "reas": 1584,
      "decre": 1585,
      "jinn": 1586,
      "swe": 1587,
      "tings": 1588,
      "comple": 1589,
      "hood": 1590,
      "Vi": 1591,
      "ught": 1592,
      "works": 1593,
      "claim": 1594,
      "rivers": 1595,
      "display": 1596,
      "anyone": 1597,
      "Gr": 1598,
      "Right": 1599,
      "sed": 1600,
      "tom": 1601,
      "UR": 1602,
      "whether": 1603,
      "sim": 1604,
      "figu": 1605,
      "type": 1606,
      "mode": 1607,
      "gardens": 1608,
      "suffi": 1609,
      "three": 1610,
      "ized": 1611,
      "Ac": 1612,
      "ref": 1613,
      "stay": 1614,
      "wife": 1615,
      "knowing": 1616,
      "present": 1617,
      "ires": 1618,
      "spr": 1619,
      "ived": 1620,
      "Er": 1621,
      "Israel": 1622,
      "rup": 1623,
      "secre": 1624,
      "Yet": 1625,
      "messenger": 1626,
      "heart": 1627,
      "till": 1628,
      "truthful": 1629,
      "cument": 1630,
      "arm": 1631,
      "term": 1632,
      "coming": 1633,
      "thereof": 1634,
      "Yeah": 1635,
      "lest": 1636,
      "severe": 1637,
      "disbelieved": 1638,
      "fig": 1639,
      "card": 1640,
      "date": 1641,
      "wives": 1642,
      "fact": 1643,
      "grateful": 1644,
      "disput": 1645,
      "blind": 1646,
      "lied": 1647,
      ",-": 1648,
      "Sy": 1649,
      "proper": 1650,
      "sons": 1651,
      "Im": 1652,
      "Name": 1653,
      "Window": 1654,
      "Of": 1655,
      "regard": 1656,
      "creen": 1657,
      "plan": 1658,
      "mail": 1659,
      "gone": 1660,
      "male": 1661,
      "CK": 1662,
      "eas": 1663,
      "inst": 1664,
      "ident": 1665,
      "host": 1666,
      "cons": 1667,
      "equal": 1668,
      "ero": 1669,
      "arer": 1670,
      "venant": 1671,
      "book": 1672,
      "sum": 1673,
      "listen": 1674,
      "ground": 1675,
      "Last": 1676,
      "ush": 1677,
      "morning": 1678,
      "cour": 1679,
      "RE": 1680,
      "denied": 1681,
      "recompense": 1682,
      "draw": 1683,
      "itable": 1684,
      "applic": 1685,
      "cend": 1686,
      "knew": 1687,
      "Could": 1688,
      "Hey": 1689,
      "serve": 1690,
      "mountains": 1691,
      "benef": 1692,
      "soon": 1693,
      "words": 1694,
      "ared": 1695,
      "taste": 1696,
      "object": 1697,
      "sight": 1698,
      "asked": 1699,
      "seven": 1700,
      "alted": 1701,
      "heed": 1702,
      "why": 1703,
      "exce": 1704,
      "iv": 1705,
      "ility": 1706,
      "Am": 1707,
      "lete": 1708,
      "provision": 1709,
      "Error": 1710,
      "years": 1711,
      "covenant": 1712,
      "uring": 1713,
      "produ": 1714,
      "commit": 1715,
      "Ima": 1716,
      "Mary": 1717,
      "ample": 1718,
      "write": 1719,
      "appe": 1720,
      "ial": 1721,
      "empty": 1722,
      "Wor": 1723,
      "idol": 1724,
      "obedi": 1725,
      "remind": 1726,
      "Noah": 1727,
      "pocr": 1728,
      "question": 1729,
      "ered": 1730,
      "accord": 1731,
      "system": 1732,
      "bed": 1733,
      "Ser": 1734,
      "mand": 1735,
      "poly": 1736,
      "affli": 1737,
      "wronged": 1738,
      "family": 1739,
      "affair": 1740,
      "commun": 1741,
      "check": 1742,
      "supp": 1743,
      "lost": 1744,
      "lat": 1745,
      "ird": 1746,
      "thought": 1747,
      "Islam": 1748,
      "receive": 1749,
      "associate": 1750,
      "200": 1751,
      "ths": 1752,
      "conce": 1753,
      "remain": 1754,
      "gods": 1755,
      "sur": 1756,
      "became": 1757,
      "fort": 1758,
      "chi": 1759,
      "ource": 1760,
      "Musli": 1761,
      "Such": 1762,
      "lear": 1763,
      "ades": 1764,
      "irt": 1765,
      "van": 1766,
      "Gu": 1767,
      "ines": 1768,
      "server": 1769,
      "saved": 1770,
      "forever": 1771,
      "attle": 1772,
      "sea": 1773,
      "exp": 1774,
      "ia": 1775,
      "desires": 1776,
      "La": 1777,
      "Up": 1778,
      "point": 1779,
      "Sa": 1780,
      "makes": 1781,
      "aste": 1782,
      "lawful": 1783,
      "due": 1784,
      "hypocr": 1785,
      "ude": 1786,
      "share": 1787,
      "Text": 1788,
      "mal": 1789,
      "ream": 1790,
      "rent": 1791,
      "souls": 1792,
      "Knower": 1793,
      ");": 1794,
      "bod": 1795,
      "Word": 1796,
      "sen": 1797,
      "cry": 1798,
      "verse": 1799,
      "Mighty": 1800,
      "Cer": 1801,
      "Cli": 1802,
      "uty": 1803,
      "forbidden": 1804,
      "state": 1805,
      "Copy": 1806,
      "ctions": 1807,
      "justice": 1808,
      "provided": 1809,
      "either": 1810,
      "Le": 1811,
      "At": 1812,
      "Hour": 1813,
      "watch": 1814,
      "blessings": 1815,
      "RO": 1816,
      "sm": 1817,
      "greater": 1818,
      "ret": 1819,
      "faces": 1820,
      "wait": 1821,
      "praise": 1822,
      "having": 1823,
      "Mon": 1824,
      "second": 1825,
      "rop": 1826,
      "board": 1827,
      "See": 1828,
      "burden": 1829,
      "figure": 1830,
      "returned": 1831,
      "Scripture": 1832,
      "ich": 1833,
      "aring": 1834,
      "using": 1835,
      "Fir": 1836,
      "uf": 1837,
      "Children": 1838,
      "says": 1839,
      "gram": 1840,
      "drive": 1841,
      "eve": 1842,
      "forgiving": 1843,
      "Get": 1844,
      "evid": 1845,
      "enemy": 1846,
      "Create": 1847,
      "Ho": 1848,
      "Some": 1849,
      "bell": 1850,
      "record": 1851,
      "followed": 1852,
      "OR": 1853,
      "magi": 1854,
      "dio": 1855,
      "prepare": 1856,
      "Gardens": 1857,
      "Every": 1858,
      "ature": 1859,
      "dark": 1860,
      "fucking": 1861,
      "onds": 1862,
      "authority": 1863,
      "Path": 1864,
      "lection": 1865,
      "within": 1866,
      "rol": 1867,
      "ES": 1868,
      "umn": 1869,
      "partners": 1870,
      "Cl": 1871,
      "mean": 1872,
      "onto": 1873,
      "Musa": 1874,
      "meas": 1875,
      "sible": 1876,
      "paren": 1877,
      "reg": 1878,
      "answer": 1879,
      "vent": 1880,
      "essages": 1881,
      "oe": 1882,
      "Image": 1883,
      "house": 1884,
      "count": 1885,
      "size": 1886,
      "Check": 1887,
      "food": 1888,
      "corrup": 1889,
      "secret": 1890,
      "Jose": 1891,
      "least": 1892,
      "appro": 1893,
      "Burn": 1894,
      "cation": 1895,
      "contain": 1896,
      "box": 1897,
      "close": 1898,
      "straight": 1899,
      "sec": 1900,
      "unless": 1901,
      "admon": 1902,
      "thus": 1903,
      "bestowed": 1904,
      "Look": 1905,
      "failed": 1906,
      "grow": 1907,
      "single": 1908,
      "reng": 1909,
      "Joseph": 1910,
      "Beli": 1911,
      "default": 1912,
      "commanded": 1913,
      "chief": 1914,
      "spades": 1915,
      "version": 1916,
      "ues": 1917,
      "ari": 1918,
      "ged": 1919,
      "isdom": 1920,
      "permission": 1921,
      "ased": 1922,
      "merciful": 1923,
      "ys": 1924,
      "CH": 1925,
      "wal": 1926,
      "iness": 1927,
      "ckon": 1928,
      "case": 1929,
      "figuration": 1930,
      "remo": 1931,
      "Jes": 1932,
      "ped": 1933,
      "submit": 1934,
      "IT": 1935,
      "hidden": 1936,
      "rain": 1937,
      "ull": 1938,
      "feel": 1939,
      "polythe": 1940,
      "pal": 1941,
      "easy": 1942,
      "Message": 1943,
      "NO": 1944,
      "hur": 1945,
      "went": 1946,
      "rog": 1947,
      "rejected": 1948,
      "enjoy": 1949,
      "vict": 1950,
      "search": 1951,
      "streng": 1952,
      "Jesus": 1953,
      "Qu": 1954,
      "oath": 1955,
      "Yes": 1956,
      "sert": 1957,
      "real": 1958,
      "ons": 1959,
      "conne": 1960,
      "compan": 1961,
      "hom": 1962,
      "suffer": 1963,
      "city": 1964,
      "swear": 1965,
      "10": 1966,
      "Bl": 1967,
      "imes": 1968,
      "Whoever": 1969,
      "(%": 1970,
      "oney": 1971,
      "space": 1972,
      "ually": 1973,
      "ination": 1974,
      "remove": 1975,
      "uses": 1976,
      "prepared": 1977,
      "guides": 1978,
      "Tell": 1979,
      "Therefore": 1980,
      "break": 1981,
      "'%": 1982,
      "clo": 1983,
      "game": 1984,
      "falsehood": 1985,
      "four": 1986,
      "heard": 1987,
      "Believers": 1988,
      "hope": 1989,
      "fuge": 1990,
      "\\\\": 1991,
      "duty": 1992,
      "along": 1993,
      "ager": 1994,
      "parents": 1995,
      "12": 1996,
      "warner": 1997,
      "according": 1998,
      "ges": 1999,
      "pleased": 2000,
      "rance": 2001,
      "truly": 2002,
      "hoto": 2003,
      "spread": 2004,
      "cious": 2005,
      "Bo": 2006,
      "care": 2007,
      "umb": 2008,
      "wind": 2009,
      "faithful": 2010,
      "glad": 2011,
      "running": 2012,
      "bounty": 2013,
      "refuge": 2014,
      "fol": 2015,
      "moon": 2016,
      "passed": 2017,
      "guil": 2018,
      "hide": 2019,
      "ix": 2020,
      "instead": 2021,
      "seized": 2022,
      "willed": 2023,
      "example": 2024,
      "since": 2025,
      "address": 2026,
      "eld": 2027,
      "inher": 2028,
      "behold": 2029,
      "alog": 2030,
      "mention": 2031,
      "GH": 2032,
      "party": 2033,
      "specified": 2034,
      "utter": 2035,
      "ried": 2036,
      "few": 2037,
      "prof": 2038,
      "whomever": 2039,
      "position": 2040,
      "Even": 2041,
      "With": 2042,
      "Which": 2043,
      "vious": 2044,
      "Adam": 2045,
      "Don": 2046,
      "turns": 2047,
      "Start": 2048,
      "ians": 2049,
      "apostle": 2050,
      "Unable": 2051,
      "Apost": 2052,
      "List": 2053,
      "Sp": 2054,
      "ech": 2055,
      "asero": 2056,
      "View": 2057,
      "body": 2058,
      "deli": 2059,
      "placed": 2060,
      "Jew": 2061,
      "hour": 2062,
      "amonds": 2063,
      "Muslims": 2064,
      "Pre": 2065,
      "SI": 2066,
      "ute": 2067,
      "wherein": 2068,
      "disbelief": 2069,
      "Reme": 2070,
      "conceal": 2071,
      "Fold": 2072,
      "abide": 2073,
      "argu": 2074,
      "incl": 2075,
      "Opt": 2076,
      "enance": 2077,
      "atch": 2078,
      "caused": 2079,
      "measure": 2080,
      "ider": 2081,
      "diamonds": 2082,
      "Signs": 2083,
      "benefit": 2084,
      "Gra": 2085,
      "Per": 2086,
      "gain": 2087,
      "ular": 2088,
      "Apostle": 2089,
      "actor": 2090,
      "apostles": 2091,
      "bad": 2092,
      "exist": 2093,
      "hearing": 2094,
      "killed": 2095,
      "losers": 2096,
      "blo": 2097,
      "cover": 2098,
      "thanks": 2099,
      "pair": 2100,
      "itten": 2101,
      "Spe": 2102,
      "ery": 2103,
      "hypocrites": 2104,
      "LA": 2105,
      "bene": 2106,
      "hor": 2107,
      "document": 2108,
      "earned": 2109,
      "ubs": 2110,
      "tree": 2111,
      "oper": 2112,
      "folk": 2113,
      "dust": 2114,
      "offer": 2115,
      "grieve": 2116,
      "Judgment": 2117,
      "spring": 2118,
      "secure": 2119,
      "wra": 2120,
      "fix": 2121,
      "format": 2122,
      "Chr": 2123,
      "Li": 2124,
      "mbrance": 2125,
      "vert": 2126,
      "Peace": 2127,
      "rate": 2128,
      "friends": 2129,
      "spo": 2130,
      "safe": 2131,
      "Only": 2132,
      "ism": 2133,
      "admit": 2134,
      "weak": 2135,
      "ili": 2136,
      "terri": 2137,
      "program": 2138,
      "mark": 2139,
      "Just": 2140,
      "TO": 2141,
      "Auto": 2142,
      "Gl": 2143,
      "Ty": 2144,
      "child": 2145,
      "ouses": 2146,
      "prostrate": 2147,
      "befall": 2148,
      "arrog": 2149,
      "abri": 2150,
      "Settings": 2151,
      "honour": 2152,
      "increase": 2153,
      "polytheists": 2154,
      "daught": 2155,
      "screen": 2156,
      "def": 2157,
      "termin": 2158,
      "didn": 2159,
      "fearing": 2160,
      "portion": 2161,
      "Take": 2162,
      "bound": 2163,
      "ier": 2164,
      "tific": 2165,
      "reckon": 2166,
      "install": 2167,
      "pure": 2168,
      "enough": 2169,
      "sust": 2170,
      "field": 2171,
      "wrongdoers": 2172,
      "application": 2173,
      "itude": 2174,
      "available": 2175,
      "bow": 2176,
      "hum": 2177,
      "abode": 2178,
      "From": 2179,
      "Christ": 2180,
      ")?": 2181,
      "fl": 2182,
      "whatsoever": 2183,
      "lasting": 2184,
      "video": 2185,
      "Wr": 2186,
      "filled": 2187,
      "lack": 2188,
      "strong": 2189,
      "phets": 2190,
      "burning": 2191,
      "Jews": 2192,
      "jour": 2193,
      "wisdom": 2194,
      "perform": 2195,
      "band": 2196,
      "tre": 2197,
      "guilty": 2198,
      "habit": 2199,
      "bug": 2200,
      "complete": 2201,
      "Import": 2202,
      "Would": 2203,
      "Woe": 2204,
      "main": 2205,
      "mult": 2206,
      "deal": 2207,
      "disobey": 2208,
      "backs": 2209,
      "Cont": 2210,
      "during": 2211,
      "lf": 2212,
      "user": 2213,
      "matic": 2214,
      "hasten": 2215,
      "contin": 2216,
      "inherit": 2217,
      "forget": 2218,
      "pet": 2219,
      "peri": 2220,
      "proofs": 2221,
      "past": 2222,
      "touch": 2223,
      "ended": 2224,
      "speech": 2225,
      "Default": 2226,
      "Command": 2227,
      "fruits": 2228,
      "Ob": 2229,
      "Pa": 2230,
      "posed": 2231,
      "report": 2232,
      "dered": 2233,
      "ignor": 2234,
      "sufficient": 2235,
      "sle": 2236,
      "wid": 2237,
      "brings": 2238,
      "Noble": 2239,
      "compass": 2240,
      "cattle": 2241,
      "living": 2242,
      "homes": 2243,
      "Sol": 2244,
      "messages": 2245,
      "table": 2246,
      "talk": 2247,
      "different": 2248,
      "descend": 2249,
      "link": 2250,
      "clubs": 2251,
      "sends": 2252,
      "iss": 2253,
      "changes": 2254,
      "()": 2255,
      "cul": 2256,
      "mod": 2257,
      "spl": 2258,
      "Shall": 2259,
      "sir": 2260,
      "always": 2261,
      "Change": 2262,
      "choose": 2263,
      ")!": 2264,
      "conf": 2265,
      "fill": 2266,
      "Pla": 2267,
      "patience": 2268,
      "ib": 2269,
      "money": 2270,
      "worthy": 2271,
      "course": 2272,
      "sound": 2273,
      "ises": 2274,
      "iling": 2275,
      "darkness": 2276,
      "?'": 2277,
      "bond": 2278,
      "decl": 2279,
      "Back": 2280,
      "inte": 2281,
      "yourself": 2282,
      "believer": 2283,
      "sured": 2284,
      "expe": 2285,
      "dialog": 2286,
      "Tool": 2287,
      "changed": 2288,
      "simil": 2289,
      "pose": 2290,
      "orn": 2291,
      "ative": 2292,
      "ney": 2293,
      "humb": 2294,
      "believes": 2295,
      "cred": 2296,
      "Disc": 2297,
      "ease": 2298,
      "device": 2299,
      "fice": 2300,
      "six": 2301,
      "cogn": 2302,
      "cription": 2303,
      "click": 2304,
      "Lot": 2305,
      "itting": 2306,
      "Ke": 2307,
      "rence": 2308,
      "establish": 2309,
      "print": 2310,
      "Delete": 2311,
      "replied": 2312,
      "repentance": 2313,
      "Ali": 2314,
      "ences": 2315,
      "cribe": 2316,
      "sustenance": 2317,
      "der": 2318,
      "lea": 2319,
      "ently": 2320,
      "confirm": 2321,
      "prayers": 2322,
      "gather": 2323,
      "Click": 2324,
      "woman": 2325,
      "chosen": 2326,
      "terrible": 2327,
      "Out": 2328,
      "ran": 2329,
      "Folder": 2330,
      "Number": 2331,
      "taught": 2332,
      "sett": 2333,
      "granted": 2334,
      "Type": 2335,
      "Gener": 2336,
      "seem": 2337,
      "today": 2338,
      "theirs": 2339,
      "access": 2340,
      "received": 2341,
      "High": 2342,
      "job": 2343,
      "net": 2344,
      "tered": 2345,
      "Aware": 2346,
      "cha": 2347,
      "virt": 2348,
      "once": 2349,
      "ends": 2350,
      "following": 2351,
      "track": 2352,
      "blessed": 2353,
      "ML": 2354,
      "Tra": 2355,
      "imum": 2356,
      "ustom": 2357,
      "nel": 2358,
      "reason": 2359,
      "AL": 2360,
      "anim": 2361,
      "oured": 2362,
      "Enable": 2363,
      "pious": 2364,
      "small": 2365,
      "nder": 2366,
      "earn": 2367,
      "pret": 2368,
      "plot": 2369,
      "delive": 2370,
      "ches": 2371,
      "cts": 2372,
      "div": 2373,
      "Brasero": 2374,
      "feed": 2375,
      "respect": 2376,
      "tribution": 2377,
      "established": 2378,
      "ST": 2379,
      "llent": 2380,
      "oft": 2381,
      "ption": 2382,
      "cale": 2383,
      "Fo": 2384,
      "Ne": 2385,
      "pan": 2386,
      "ster": 2387,
      "apart": 2388,
      "haps": 2389,
      "Desktop": 2390,
      "Down": 2391,
      "insp": 2392,
      "alty": 2393,
      "warning": 2394,
      "faithless": 2395,
      "Call": 2396,
      "liars": 2397,
      "asts": 2398,
      "whomsoever": 2399,
      "awa": 2400,
      "Remember": 2401,
      "Creat": 2402,
      "page": 2403,
      "enem": 2404,
      "held": 2405,
      "ows": 2406,
      "okay": 2407,
      "enemies": 2408,
      "kno": 2409,
      "dece": 2410,
      "poor": 2411,
      "glor": 2412,
      "Tor": 2413,
      "ionate": 2414,
      "loss": 2415,
      "UN": 2416,
      "bs": 2417,
      "cy": 2418,
      "pra": 2419,
      "imm": 2420,
      "Exalted": 2421,
      "reached": 2422,
      "forbid": 2423,
      "generations": 2424,
      "deta": 2425,
      "desktop": 2426,
      "Except": 2427,
      "control": 2428,
      "Files": 2429,
      "Place": 2430,
      "suredly": 2431,
      "Ok": 2432,
      "ung": 2433,
      "ss": 2434,
      "bel": 2435,
      "step": 2436,
      "female": 2437,
      "thank": 2438,
      "auto": 2439,
      "looking": 2440,
      "angu": 2441,
      "weth": 2442,
      "sive": 2443,
      "intercess": 2444,
      "Play": 2445,
      "cing": 2446,
      "atures": 2447,
      "Thr": 2448,
      "abase": 2449,
      "Himself": 2450,
      "recite": 2451,
      "accepted": 2452,
      "appear": 2453,
      "Mr": 2454,
      "coun": 2455,
      "ug": 2456,
      "”;": 2457,
      "ames": 2458,
      "audio": 2459,
      "obedient": 2460,
      "delivered": 2461,
      "provide": 2462,
      "owned": 2463,
      "respite": 2464,
      "supported": 2465,
      "Da": 2466,
      "ling": 2467,
      "adi": 2468,
      "build": 2469,
      "THE": 2470,
      "Ro": 2471,
      "SE": 2472,
      "orph": 2473,
      "ical": 2474,
      "seeking": 2475,
      "clean": 2476,
      "cribed": 2477,
      "later": 2478,
      "Options": 2479,
      "arrogant": 2480,
      "Time": 2481,
      "izont": 2482,
      "recited": 2483,
      "gan": 2484,
      "ety": 2485,
      "sis": 2486,
      "tw": 2487,
      "fell": 2488,
      "Mercy": 2489,
      "Bring": 2490,
      "BE": 2491,
      "Sear": 2492,
      "tar": 2493,
      "request": 2494,
      "ution": 2495,
      "ships": 2496,
      "remembrance": 2497,
      "invent": 2498,
      "Print": 2499,
      "abled": 2500,
      "taking": 2501,
      "fuck": 2502,
      "charity": 2503,
      "directory": 2504,
      "Okay": 2505,
      ").\"": 2506,
      "ably": 2507,
      "waiting": 2508,
      "respon": 2509,
      "fruit": 2510,
      "recogn": 2511,
      "ital": 2512,
      "shown": 2513,
      "Make": 2514,
      "daughters": 2515,
      "copy": 2516,
      "round": 2517,
      "sil": 2518,
      "replace": 2519,
      "consider": 2520,
      "'.": 2521,
      "Sim": 2522,
      "atta": 2523,
      "del": 2524,
      "Hel": 2525,
      "doom": 2526,
      "kept": 2527,
      "feet": 2528,
      "witnesses": 2529,
      "tical": 2530,
      "URL": 2531,
      "DO": 2532,
      "naught": 2533,
      "worlds": 2534,
      "Mail": 2535,
      "revelation": 2536,
      "sorry": 2537,
      "reminder": 2538,
      "beneath": 2539,
      "ID": 2540,
      "understanding": 2541,
      "Search": 2542,
      "May": 2543,
      "tool": 2544,
      "deth": 2545,
      "ordin": 2546,
      "opt": 2547,
      "ices": 2548,
      "cloud": 2549,
      "possible": 2550,
      "onder": 2551,
      "names": 2552,
      "journey": 2553,
      "menu": 2554,
      "Project": 2555,
      "wicked": 2556,
      "ahim": 2557,
      "hammed": 2558,
      "Mohammed": 2559,
      "opened": 2560,
      "20": 2561,
      "Clear": 2562,
      "Kon": 2563,
      "Oft": 2564,
      "afr": 2565,
      "brahim": 2566,
      "Arab": 2567,
      "Give": 2568,
      "Ibrahim": 2569,
      "level": 2570,
      "abund": 2571,
      "making": 2572,
      "Certain": 2573,
      "Ge": 2574,
      "sper": 2575,
      "repe": 2576,
      "deser": 2577,
      "griev": 2578,
      "Group": 2579,
      "walk": 2580,
      "19": 2581,
      "Ca": 2582,
      "SH": 2583,
      "Filter": 2584,
      "excellent": 2585,
      "evidence": 2586,
      "afraid": 2587,
      "rew": 2588,
      "entered": 2589,
      "awn": 2590,
      "haply": 2591,
      "drop": 2592,
      "task": 2593,
      "dispute": 2594,
      "oke": 2595,
      "lying": 2596,
      "foot": 2597,
      "location": 2598,
      "blame": 2599,
      "password": 2600,
      "pleasure": 2601,
      "hus": 2602,
      "mid": 2603,
      "separ": 2604,
      "else": 2605,
      "hurt": 2606,
      "RA": 2607,
      "stop": 2608,
      "uh": 2609,
      "shit": 2610,
      "takes": 2611,
      "Lef": 2612,
      "Page": 2613,
      "Ra": 2614,
      "mits": 2615,
      "edit": 2616,
      "forgot": 2617,
      "unseen": 2618,
      "Configure": 2619,
      "curity": 2620,
      "Certainly": 2621,
      "ba": 2622,
      "ony": 2623,
      "dear": 2624,
      "someone": 2625,
      "witch": 2626,
      "struct": 2627,
      "Left": 2628,
      "Cho": 2629,
      "treat": 2630,
      "bea": 2631,
      "cial": 2632,
      "knoweth": 2633,
      "IM": 2634,
      "ecut": 2635,
      "favor": 2636,
      "Mono": 2637,
      "oaths": 2638,
      "tificate": 2639,
      "import": 2640,
      "whole": 2641,
      "map": 2642,
      "righteousness": 2643,
      "CO": 2644,
      "fabri": 2645,
      "ints": 2646,
      "attain": 2647,
      "thered": 2648,
      "Good": 2649,
      "idols": 2650,
      "Har": 2651,
      "Key": 2652,
      "sche": 2653,
      "ties": 2654,
      "active": 2655,
      "effect": 2656,
      "subject": 2657,
      "Current": 2658,
      "mm": 2659,
      "vy": 2660,
      "won": 2661,
      "ctor": 2662,
      "ax": 2663,
      "cro": 2664,
      "ison": 2665,
      "alarm": 2666,
      "cape": 2667,
      "occur": 2668,
      "options": 2669,
      "Font": 2670,
      "Send": 2671,
      "item": 2672,
      "sinners": 2673,
      "helper": 2674,
      "ferred": 2675,
      "charact": 2676,
      "steadfast": 2677,
      "approach": 2678,
      "Min": 2679,
      "WH": 2680,
      "ardon": 2681,
      "filter": 2682,
      "ublic": 2683,
      "pleases": 2684,
      "brothers": 2685,
      "MB": 2686,
      "Said": 2687,
      "bird": 2688,
      "zing": 2689,
      "ename": 2690,
      "coll": 2691,
      "App": 2692,
      "gs": 2693,
      "wall": 2694,
      "stray": 2695,
      "contents": 2696,
      "Cannot": 2697,
      "victory": 2698,
      "husband": 2699,
      "Sal": 2700,
      "por": 2701,
      "script": 2702,
      "rer": 2703,
      "proble": 2704,
      "Garden": 2705,
      "admonition": 2706,
      "Keep": 2707,
      "tong": 2708,
      "Behold": 2709,
      "Faith": 2710,
      "humili": 2711,
      "House": 2712,
      "LE": 2713,
      "ele": 2714,
      "eri": 2715,
      "proud": 2716,
      "males": 2717,
      "Wa": 2718,
      "els": 2719,
      "itle": 2720,
      "ceed": 2721,
      "ungrateful": 2722,
      "ordained": 2723,
      "written": 2724,
      "column": 2725,
      "Islamic": 2726,
      "Great": 2727,
      "Way": 2728,
      "houses": 2729,
      "times": 2730,
      "sequ": 2731,
      "lock": 2732,
      "ficent": 2733,
      "magic": 2734,
      "Best": 2735,
      "lar": 2736,
      "Inter": 2737,
      "Display": 2738,
      "bus": 2739,
      "ping": 2740,
      "uous": 2741,
      "whereas": 2742,
      "property": 2743,
      "yours": 2744,
      "standing": 2745,
      "reckoning": 2746,
      "?’": 2747,
      "cam": 2748,
      "sult": 2749,
      "creatures": 2750,
      "Max": 2751,
      "correct": 2752,
      "keys": 2753,
      "deliver": 2754,
      "multip": 2755,
      "forward": 2756,
      "exc": 2757,
      "thereby": 2758,
      "dream": 2759,
      "fla": 2760,
      "ht": 2761,
      "guardian": 2762,
      "slaves": 2763,
      "izontal": 2764,
      "Ev": 2765,
      "source": 2766,
      "lives": 2767,
      "fortun": 2768,
      "Sup": 2769,
      "woe": 2770,
      "cried": 2771,
      "tried": 2772,
      "Export": 2773,
      "meeting": 2774,
      "sw": 2775,
      "ately": 2776,
      "boy": 2777,
      "prevent": 2778,
      "produce": 2779,
      "communic": 2780,
      "50": 2781,
      "UCK": 2782,
      "mer": 2783,
      "rely": 2784,
      "kingdom": 2785,
      "marry": 2786,
      "invoke": 2787,
      "fabric": 2788,
      "Praise": 2789,
      "Sam": 2790,
      "rebell": 2791,
      "atabase": 2792,
      "short": 2793,
      "configuration": 2794,
      "tact": 2795,
      "Mode": 2796,
      "font": 2797,
      "pes": 2798,
      "Trans": 2799,
      "Data": 2800,
      "irit": 2801,
      "Read": 2802,
      "trial": 2803,
      "evening": 2804,
      "curse": 2805,
      "60": 2806,
      "pat": 2807,
      "uck": 2808,
      "cove": 2809,
      "Aar": 2810,
      "eight": 2811,
      "wants": 2812,
      "half": 2813,
      "clay": 2814,
      "carry": 2815,
      "reflect": 2816,
      "Torah": 2817,
      "ori": 2818,
      "dep": 2819,
      "deaf": 2820,
      "Hearing": 2821,
      "teach": 2822,
      "Truly": 2823,
      "Monothe": 2824,
      "Has": 2825,
      "slay": 2826,
      "tab": 2827,
      "iles": 2828,
      "disgrace": 2829,
      "answere": 2830,
      "appoint": 2831,
      "sque": 2832,
      "inside": 2833,
      "gets": 2834,
      "helped": 2835,
      "tribute": 2836,
      "tempt": 2837,
      "Ever": 2838,
      "IC": 2839,
      "Pres": 2840,
      "sty": 2841,
      "ket": 2842,
      "seeing": 2843,
      "void": 2844,
      "blood": 2845,
      "Throne": 2846,
      "Ha": 2847,
      "rejo": 2848,
      "story": 2849,
      "strength": 2850,
      "Aaron": 2851,
      "Tham": 2852,
      "inion": 2853,
      "seal": 2854,
      "semb": 2855,
      "security": 2856,
      "unaware": 2857,
      "warned": 2858,
      "trees": 2859,
      "fail": 2860,
      "neg": 2861,
      "proclaim": 2862,
      "plate": 2863,
      "Whatever": 2864,
      "equals": 2865,
      "strive": 2866,
      "favours": 2867,
      "Server": 2868,
      "User": 2869,
      "ron": 2870,
      "ries": 2871,
      "worldly": 2872,
      "month": 2873,
      "currently": 2874,
      "distress": 2875,
      "affairs": 2876,
      "wrath": 2877,
      "Monotheism": 2878,
      "Thamud": 2879,
      "gir": 2880,
      "resh": 2881,
      "setting": 2882,
      "determin": 2883,
      "ousand": 2884,
      "ification": 2885,
      "decreed": 2886,
      "Sub": 2887,
      "photo": 2888,
      "omon": 2889,
      "belied": 2890,
      "beyond": 2891,
      "presence": 2892,
      "corruption": 2893,
      "answered": 2894,
      "flo": 2895,
      "pack": 2896,
      "ising": 2897,
      "dex": 2898,
      "imin": 2899,
      "process": 2900,
      "myself": 2901,
      "former": 2902,
      "beside": 2903,
      "months": 2904,
      "gathered": 2905,
      "Hor": 2906,
      "Mar": 2907,
      "ining": 2908,
      "ann": 2909,
      "sud": 2910,
      "exists": 2911,
      "needy": 2912,
      "Hide": 2913,
      "viol": 2914,
      "service": 2915,
      "sudden": 2916,
      "sl": 2917,
      "thousand": 2918,
      "atus": 2919,
      "wishes": 2920,
      "decree": 2921,
      "HT": 2922,
      "pped": 2923,
      "cursed": 2924,
      "Game": 2925,
      "War": 2926,
      "Ask": 2927,
      "pie": 2928,
      "transgressors": 2929,
      "regarding": 2930,
      "aun": 2931,
      "ber": 2932,
      "fed": 2933,
      "jest": 2934,
      "assuredly": 2935,
      "drowned": 2936,
      "ggle": 2937,
      "Solomon": 2938,
      "Isa": 2939,
      "dra": 2940,
      "waste": 2941,
      "iding": 2942,
      "loves": 2943,
      "follows": 2944,
      "ency": 2945,
      "protector": 2946,
      "Thy": 2947,
      "plu": 2948,
      "destination": 2949,
      "garden": 2950,
      "World": 2951,
      "idolat": 2952,
      "Never": 2953,
      "Over": 2954,
      "mir": 2955,
      "ury": 2956,
      "exalted": 2957,
      "conside": 2958,
      "wanted": 2959,
      "ield": 2960,
      "Like": 2961,
      "gar": 2962,
      "successfully": 2963,
      "Access": 2964,
      "considered": 2965,
      "LO": 2966,
      "PI": 2967,
      "nine": 2968,
      "sit": 2969,
      "squ": 2970,
      "selection": 2971,
      "vey": 2972,
      "rather": 2973,
      "printer": 2974,
      "ension": 2975,
      "jinns": 2976,
      "System": 2977,
      "matically": 2978,
      "PS": 2979,
      "white": 2980,
      "fulfilled": 2981,
      "rences": 2982,
      "offspring": 2983,
      "parts": 2984,
      "seconds": 2985,
      "amongst": 2986,
      "Disable": 2987,
      "twain": 2988,
      "nal": 2989,
      "stars": 2990,
      "oppress": 2991,
      "whenever": 2992,
      "cap": 2993,
      "angel": 2994,
      "session": 2995,
      "fighting": 2996,
      "hardship": 2997,
      "encry": 2998,
      "ouble": 2999,
      "isco": 3000,
      "perce": 3001,
      "writable": 3002,
      "Selection": 3003,
      "mischief": 3004,
      "allowed": 3005,
      "Should": 3006,
      "Christians": 3007,
      "anguage": 3008,
      "arri": 3009,
      "wilt": 3010,
      "sacri": 3011,
      "five": 3012,
      "Inform": 3013,
      "successful": 3014,
      "(*": 3015,
      "LI": 3016,
      "lines": 3017,
      "parame": 3018,
      "Holy": 3019,
      "infi": 3020,
      "retribution": 3021,
      "windows": 3022,
      "judgement": 3023,
      "Syn": 3024,
      "!’": 3025,
      "EN": 3026,
      "gy": 3027,
      "pardon": 3028,
      "vain": 3029,
      "anci": 3030,
      "ision": 3031,
      "yout": 3032,
      "assign": 3033,
      "Were": 3034,
      "adv": 3035,
      "ables": 3036,
      "moving": 3037,
      "lieve": 3038,
      "slave": 3039,
      "continue": 3040,
      "End": 3041,
      "Fe": 3042,
      "Other": 3043,
      "evi": 3044,
      "mou": 3045,
      "org": 3046,
      "tore": 3047,
      "lier": 3048,
      "ases": 3049,
      "prophet": 3050,
      "sick": 3051,
      "condu": 3052,
      "Choose": 3053,
      "Mi": 3054,
      "MAN": 3055,
      "TS": 3056,
      "year": 3057,
      "lling": 3058,
      "ifies": 3059,
      "sho": 3060,
      "bearing": 3061,
      "grievous": 3062,
      "Af": 3063,
      "sat": 3064,
      "wan": 3065,
      "inhabit": 3066,
      "begin": 3067,
      "calling": 3068,
      "angle": 3069,
      "breasts": 3070,
      "period": 3071,
      "Bene": 3072,
      "chan": 3073,
      "aster": 3074,
      "obedience": 3075,
      "sleep": 3076,
      "Dire": 3077,
      "Plu": 3078,
      "action": 3079,
      "ump": 3080,
      "kinds": 3081,
      "width": 3082,
      "wage": 3083,
      "aby": 3084,
      "guy": 3085,
      "causes": 3086,
      "extra": 3087,
      "Char": 3088,
      "None": 3089,
      "thereafter": 3090,
      "quick": 3091,
      "settings": 3092,
      "heads": 3093,
      "split": 3094,
      "Draw": 3095,
      "Line": 3096,
      "visible": 3097,
      "Burning": 3098,
      "companions": 3099,
      "fixed": 3100,
      "var": 3101,
      "weight": 3102,
      "priv": 3103,
      "thankful": 3104,
      "fle": 3105,
      "ger": 3106,
      "Whom": 3107,
      "aff": 3108,
      "itional": 3109,
      "content": 3110,
      "Jack": 3111,
      "da": 3112,
      "wide": 3113,
      "asses": 3114,
      "ula": 3115,
      "prosper": 3116,
      "manner": 3117,
      "Does": 3118,
      "respond": 3119,
      "removed": 3120,
      "Cisco": 3121,
      "Free": 3122,
      "sal": 3123,
      "sake": 3124,
      "ests": 3125,
      "quer": 3126,
      "speed": 3127,
      "trying": 3128,
      "ignorant": 3129,
      "similar": 3130,
      "glorify": 3131,
      "Cal": 3132,
      "Hand": 3133,
      "emb": 3134,
      "aside": 3135,
      "ift": 3136,
      "execut": 3137,
      "favors": 3138,
      "ternal": 3139,
      "Help": 3140,
      "origin": 3141,
      "Beneficent": 3142,
      "11": 3143,
      "eness": 3144,
      "leg": 3145,
      "worshipped": 3146,
      "Glory": 3147,
      "covered": 3148,
      "plugin": 3149,
      "Wid": 3150,
      "bones": 3151,
      "dam": 3152,
      "ander": 3153,
      "ascribe": 3154,
      "ctive": 3155,
      "Invalid": 3156,
      "gotta": 3157,
      "shows": 3158,
      "hosts": 3159,
      "Tem": 3160,
      "libr": 3161,
      "doth": 3162,
      "code": 3163,
      "company": 3164,
      "Conne": 3165,
      "Any": 3166,
      "scat": 3167,
      "bondmen": 3168,
      "ek": 3169,
      "ives": 3170,
      "mouse": 3171,
      "treas": 3172,
      "below": 3173,
      "convey": 3174,
      "perhaps": 3175,
      "02": 3176,
      "ality": 3177,
      "riage": 3178,
      "string": 3179,
      "questioned": 3180,
      "Light": 3181,
      "Men": 3182,
      "Tab": 3183,
      "ding": 3184,
      "escape": 3185,
      "sever": 3186,
      "ength": 3187,
      "Rec": 3188,
      "wherewith": 3189,
      "commands": 3190,
      "anger": 3191,
      "values": 3192,
      "enjoyment": 3193,
      "Jac": 3194,
      "cup": 3195,
      "sole": 3196,
      "gold": 3197,
      "purify": 3198,
      "Judge": 3199,
      "problem": 3200,
      "Ay": 3201,
      "King": 3202,
      "black": 3203,
      "mad": 3204,
      "agree": 3205,
      "oblig": 3206,
      "pursu": 3207,
      "Plugin": 3208,
      "Sor": 3209,
      "rich": 3210,
      "local": 3211,
      "Insert": 3212,
      "marks": 3213,
      "dwelling": 3214,
      "community": 3215,
      "edge": 3216,
      "deb": 3217,
      "utiful": 3218,
      "ldo": 3219,
      "ples": 3220,
      "clearly": 3221,
      "destru": 3222,
      "magici": 3223,
      "Ju": 3224,
      "alive": 3225,
      "sees": 3226,
      "aint": 3227,
      "endar": 3228,
      "leaves": 3229,
      "subjected": 3230,
      "Jacob": 3231,
      ")]": 3232,
      "Full": 3233,
      "Link": 3234,
      "athe": 3235,
      "hen": 3236,
      "front": 3237,
      "prison": 3238,
      "wherever": 3239,
      "servant": 3240,
      "symb": 3241,
      "happen": 3242,
      "required": 3243,
      "David": 3244,
      "Pl": 3245,
      "SO": 3246,
      "Shu": 3247,
      "arms": 3248,
      "ulation": 3249,
      "Load": 3250,
      "match": 3251,
      "Object": 3252,
      "erica": 3253,
      "Next": 3254,
      "Ret": 3255,
      "Size": 3256,
      "iers": 3257,
      "igr": 3258,
      "title": 3259,
      "liken": 3260,
      "limits": 3261,
      "delete": 3262,
      "orphans": 3263,
      "Ah": 3264,
      "antly": 3265,
      "checked": 3266,
      "marriage": 3267,
      "judgment": 3268,
      "ounce": 3269,
      "America": 3270,
      "connection": 3271,
      "communications": 3272,
      "evildo": 3273,
      "Car": 3274,
      "Mak": 3275,
      "Val": 3276,
      "avoid": 3277,
      "ging": 3278,
      "icon": 3279,
      "pha": 3280,
      "Thee": 3281,
      "ourselves": 3282,
      "turning": 3283,
      "Unknown": 3284,
      "Guard": 3285,
      "retched": 3286,
      "AM": 3287,
      "third": 3288,
      "rection": 3289,
      "ride": 3290,
      "prophets": 3291,
      "sinful": 3292,
      "regular": 3293,
      "fortune": 3294,
      "je": 3295,
      "pag": 3296,
      "irth": 3297,
      "manager": 3298,
      "double": 3299,
      "edia": 3300,
      "Follow": 3301,
      "AS": 3302,
      "mun": 3303,
      "ided": 3304,
      "met": 3305,
      "output": 3306,
      "store": 3307,
      "!”": 3308,
      "AP": 3309,
      "injustice": 3310,
      "capt": 3311,
      "followers": 3312,
      "Creator": 3313,
      "HE": 3314,
      "Power": 3315,
      "Red": 3316,
      "fine": 3317,
      "ring": 3318,
      "ouched": 3319,
      "willing": 3320,
      "Configuration": 3321,
      "sending": 3322,
      "started": 3323,
      "cards": 3324,
      "inspired": 3325,
      "(\"": 3326,
      "Pen": 3327,
      "fought": 3328,
      "sought": 3329,
      "irs": 3330,
      "expect": 3331,
      "working": 3332,
      "piety": 3333,
      "atives": 3334,
      "evidences": 3335,
      "Cor": 3336,
      "DI": 3337,
      "fur": 3338,
      "rise": 3339,
      "sli": 3340,
      "ention": 3341,
      "iron": 3342,
      "shad": 3343,
      "ending": 3344,
      "rightly": 3345,
      "Note": 3346,
      "event": 3347,
      "strengthen": 3348,
      "companion": 3349,
      "Wait": 3350,
      "cra": 3351,
      "stor": 3352,
      "cell": 3353,
      "wary": 3354,
      "Editor": 3355,
      "bal": 3356,
      "unable": 3357,
      "remained": 3358,
      "groups": 3359,
      "mothers": 3360,
      "divor": 3361,
      "birds": 3362,
      "Horizontal": 3363,
      "After": 3364,
      "SL": 3365,
      "Screen": 3366,
      "mock": 3367,
      "pted": 3368,
      "comput": 3369,
      "Almighty": 3370,
      "General": 3371,
      "queror": 3372,
      "Cur": 3373,
      "GL": 3374,
      "Kor": 3375,
      "dawn": 3376,
      "limit": 3377,
      "cometh": 3378,
      "calls": 3379,
      "everyone": 3380,
      "helpers": 3381,
      "losed": 3382,
      "exceed": 3383,
      "Evil": 3384,
      "mn": 3385,
      "oth": 3386,
      "pts": 3387,
      "Document": 3388,
      "fears": 3389,
      "matters": 3390,
      "Believe": 3391,
      "stayed": 3392,
      "CT": 3393,
      "Card": 3394,
      "Sar": 3395,
      "os": 3396,
      "revi": 3397,
      "heavy": 3398,
      "mates": 3399,
      "Address": 3400,
      "clouds": 3401,
      "porary": 3402,
      "ALL": 3403,
      "Fin": 3404,
      "Ori": 3405,
      "nations": 3406,
      "pop": 3407,
      "tp": 3408,
      "road": 3409,
      "Vertical": 3410,
      "velop": 3411,
      "US": 3412,
      "Vide": 3413,
      "dpi": 3414,
      "ya": 3415,
      "iter": 3416,
      "chose": 3417,
      "wel": 3418,
      "therewith": 3419,
      "Mosque": 3420,
      "strike": 3421,
      "cir": 3422,
      "threat": 3423,
      "issu": 3424,
      "star": 3425,
      "observe": 3426,
      "getting": 3427,
      "purpose": 3428,
      "palm": 3429,
      "maintain": 3430,
      "steps": 3431,
      "http": 3432,
      "idolaters": 3433,
      "\";": 3434,
      "Able": 3435,
      "email": 3436,
      "insert": 3437,
      "alt": 3438,
      "although": 3439,
      "web": 3440,
      "ama": 3441,
      "unch": 3442,
      "earlier": 3443,
      "uded": 3444,
      "lication": 3445,
      "crash": 3446,
      "dwellers": 3447,
      "Video": 3448,
      "Bug": 3449,
      "dy": 3450,
      "pu": 3451,
      "swi": 3452,
      "zed": 3453,
      "entry": 3454,
      "const": 3455,
      "lau": 3456,
      "joy": 3457,
      "devil": 3458,
      "odule": 3459,
      "axis": 3460,
      "ancients": 3461,
      "destruction": 3462,
      "likeness": 3463,
      "PE": 3464,
      "nigh": 3465,
      "females": 3466,
      "oked": 3467,
      "doesn": 3468,
      "named": 3469,
      "pairs": 3470,
      "scheme": 3471,
      "HTML": 3472,
      "evildoers": 3473,
      "Center": 3474,
      "Na": 3475,
      "Photo": 3476,
      "pboard": 3477,
      "vari": 3478,
      "tocol": 3479,
      "itan": 3480,
      "posit": 3481,
      "Oneness": 3482,
      "price": 3483,
      "!'": 3484,
      "AD": 3485,
      "Mount": 3486,
      "gen": 3487,
      "non": 3488,
      "ply": 3489,
      "smo": 3490,
      "reli": 3491,
      "becomes": 3492,
      "stream": 3493,
      "liar": 3494,
      "force": 3495,
      "entire": 3496,
      "alley": 3497,
      "quit": 3498,
      "pix": 3499,
      "differ": 3500,
      "testify": 3501,
      "specify": 3502,
      "applications": 3503,
      "inhabitants": 3504,
      "birth": 3505,
      "dle": 3506,
      "omin": 3507,
      "room": 3508,
      "ife": 3509,
      "goes": 3510,
      "acity": 3511,
      "activ": 3512,
      "greatest": 3513,
      "added": 3514,
      "diffi": 3515,
      "virtuous": 3516,
      "neglect": 3517,
      "AY": 3518,
      "san": 3519,
      "yes": 3520,
      "era": 3521,
      "iti": 3522,
      "unknown": 3523,
      "iff": 3524,
      "Whosoever": 3525,
      "undred": 3526,
      "prayed": 3527,
      "glory": 3528,
      "Isaac": 3529,
      "laugh": 3530,
      "Stra": 3531,
      "hundred": 3532,
      "rid": 3533,
      "sides": 3534,
      "scale": 3535,
      "sets": 3536,
      "images": 3537,
      "ics": 3538,
      "Remind": 3539,
      "boiling": 3540,
      "suppor": 3541,
      "suddenly": 3542,
      "Det": 3543,
      "DPI": 3544,
      "Pray": 3545,
      "Switch": 3546,
      "length": 3547,
      "lle": 3548,
      "stones": 3549,
      "dels": 3550,
      "ilt": 3551,
      "tray": 3552,
      "previous": 3553,
      "Prophets": 3554,
      "True": 3555,
      "happy": 3556,
      "occurred": 3557,
      "large": 3558,
      "Di": 3559,
      "Table": 3560,
      "mort": 3561,
      "scal": 3562,
      "itation": 3563,
      "rot": 3564,
      "righteously": 3565,
      "loading": 3566,
      "heedless": 3567,
      "committed": 3568,
      "sincere": 3569,
      "pon": 3570,
      "slot": 3571,
      "wont": 3572,
      "wonder": 3573,
      "recall": 3574,
      "eting": 3575,
      "camel": 3576,
      "throw": 3577,
      "blessing": 3578,
      "pract": 3579,
      "Information": 3580,
      "Stop": 3581,
      "Suf": 3582,
      "oted": 3583,
      "alms": 3584,
      "forefathers": 3585,
      "worst": 3586,
      "spent": 3587,
      "Compass": 3588,
      "dominion": 3589,
      "Printer": 3590,
      "happened": 3591,
      "settled": 3592,
      "business": 3593,
      "Pil": 3594,
      "gate": 3595,
      "soft": 3596,
      "guys": 3597,
      "ruin": 3598,
      "join": 3599,
      "parent": 3600,
      "Straight": 3601,
      "Vers": 3602,
      "cop": 3603,
      "cture": 3604,
      "certificate": 3605,
      "crimin": 3606,
      "testim": 3607,
      "affliction": 3608,
      "Arabic": 3609,
      "City": 3610,
      "Mark": 3611,
      "range": 3612,
      "twi": 3613,
      "vouch": 3614,
      "assemb": 3615,
      "utes": 3616,
      "laid": 3617,
      "Because": 3618,
      "000": 3619,
      "folders": 3620,
      "character": 3621,
      "rebellious": 3622,
      "various": 3623,
      "MU": 3624,
      "Sir": 3625,
      "database": 3626,
      "num": 3627,
      "osa": 3628,
      "sn": 3629,
      "tory": 3630,
      "depart": 3631,
      "travel": 3632,
      "interpret": 3633,
      "burned": 3634,
      "associated": 3635,
      "Leave": 3636,
      "Gracious": 3637,
      "infidels": 3638,
      "\",": 3639,
      "FUCK": 3640,
      "Lam": 3641,
      "ured": 3642,
      "verted": 3643,
      "punished": 3644,
      "graph": 3645,
      "Failed": 3646,
      "GHS": 3647,
      "Custom": 3648,
      "NU": 3649,
      "alike": 3650,
      "anks": 3651,
      "reali": 3652,
      "cele": 3653,
      "goodly": 3654,
      "background": 3655,
      "preced": 3656,
      "trave": 3657,
      "warnings": 3658,
      "automatically": 3659,
      "conduct": 3660,
      "Bless": 3661,
      "PH": 3662,
      "_B": 3663,
      "touched": 3664,
      "ats": 3665,
      "Head": 3666,
      "explain": 3667,
      "shame": 3668,
      "talking": 3669,
      "relatives": 3670,
      "Konqueror": 3671,
      "Net": 3672,
      "RI": 3673,
      "deities": 3674,
      "perse": 3675,
      "blis": 3676,
      "distin": 3677,
      "contains": 3678,
      "mirac": 3679,
      "Judgement": 3680,
      "WE": 3681,
      "ell": 3682,
      "kin": 3683,
      "vol": 3684,
      "xy": 3685,
      "result": 3686,
      "rier": 3687,
      "Moosa": 3688,
      "hereafter": 3689,
      "Windows": 3690,
      "submitted": 3691,
      "Compassionate": 3692,
      "testimony": 3693,
      "Fear": 3694,
      "Sin": 3695,
      "based": 3696,
      "gent": 3697,
      "public": 3698,
      "advice": 3699,
      "therefrom": 3700,
      "log": 3701,
      "consequ": 3702,
      "prov": 3703,
      "umph": 3704,
      "loaded": 3705,
      "honor": 3706,
      "green": 3707,
      "bounties": 3708,
      "Ear": 3709,
      "cities": 3710,
      "late": 3711,
      "ng": 3712,
      "ference": 3713,
      "perish": 3714,
      "whereof": 3715,
      "succeed": 3716,
      "charge": 3717,
      "Audio": 3718,
      "flowing": 3719,
      "profit": 3720,
      "humble": 3721,
      "style": 3722,
      "Date": 3723,
      "Eat": 3724,
      "GO": 3725,
      "custom": 3726,
      "eye": 3727,
      "jack": 3728,
      "height": 3729,
      "usion": 3730,
      "express": 3731,
      "resses": 3732,
      "guess": 3733,
      "patiently": 3734,
      "allows": 3735,
      "drawn": 3736,
      "perceive": 3737,
      "Reminder": 3738,
      "Run": 3739,
      "lord": 3740,
      "chance": 3741,
      "root": 3742,
      "places": 3743,
      "grees": 3744,
      "springs": 3745,
      "intercession": 3746,
      "Worlds": 3747,
      "GE": 3748,
      "Mid": 3749,
      "Ow": 3750,
      "Taste": 3751,
      "dread": 3752,
      "kid": 3753,
      "lad": 3754,
      "lower": 3755,
      "language": 3756,
      "rul": 3757,
      "beings": 3758,
      "tection": 3759,
      "Protect": 3760,
      "triumph": 3761,
      "lesson": 3762,
      "gging": 3763,
      "Worship": 3764,
      "hours": 3765,
      "Guardian": 3766,
      "Dr": 3767,
      "Mult": 3768,
      "lose": 3769,
      "rat": 3770,
      "staff": 3771,
      "lived": 3772,
      "advan": 3773,
      "sume": 3774,
      "ours": 3775,
      "whereon": 3776,
      "acts": 3777,
      "powerful": 3778,
      "ONE": 3779,
      "struck": 3780,
      "declare": 3781,
      "determined": 3782,
      "big": 3783,
      "status": 3784,
      "resurre": 3785,
      "prescribed": 3786,
      "syn": 3787,
      "associates": 3788,
      "enjoined": 3789,
      "Sacred": 3790,
      "Toolbar": 3791,
      "channel": 3792,
      "library": 3793,
      "Bar": 3794,
      "Spl": 3795,
      "mom": 3796,
      "paid": 3797,
      "uce": 3798,
      "valley": 3799,
      "restr": 3800,
      "almost": 3801,
      "door": 3802,
      "roll": 3803,
      "exact": 3804,
      "points": 3805,
      "description": 3806,
      "Proper": 3807,
      "kindness": 3808,
      "Toggle": 3809,
      "AND": 3810,
      "temporary": 3811,
      "installed": 3812,
      "expected": 3813,
      "awaits": 3814,
      "Ayat": 3815,
      "\")": 3816,
      "Rot": 3817,
      "born": 3818,
      "baby": 3819,
      "fles": 3820,
      "ker": 3821,
      "ww": 3822,
      "abb": 3823,
      "Replace": 3824,
      "spel": 3825,
      "Device": 3826,
      "calf": 3827,
      "Gospel": 3828,
      "firmly": 3829,
      "Description": 3830,
      "operation": 3831,
      "Origin": 3832,
      "Fl": 3833,
      "PO": 3834,
      "Top": 3835,
      "ets": 3836,
      "mix": 3837,
      "sort": 3838,
      "ances": 3839,
      "noble": 3840,
      "owed": 3841,
      "Hearer": 3842,
      "ults": 3843,
      "upright": 3844,
      "ender": 3845,
      "fulfil": 3846,
      "useful": 3847,
      "afterward": 3848,
      "preferred": 3849,
      "partner": 3850,
      "devils": 3851,
      "ggest": 3852,
      "grief": 3853,
      "vereign": 3854,
      "beautiful": 3855,
      "sense": 3856,
      "threw": 3857,
      "resol": 3858,
      "erve": 3859,
      "lly": 3860,
      "assist": 3861,
      "Brow": 3862,
      "Column": 3863,
      "objects": 3864,
      "Cause": 3865,
      "Fuck": 3866,
      "Iblis": 3867,
      "Two": 3868,
      "pil": 3869,
      "bearer": 3870,
      "seas": 3871,
      "sacred": 3872,
      "tax": 3873,
      "appre": 3874,
      "worshipping": 3875,
      "showed": 3876,
      "morrow": 3877,
      "mentioned": 3878,
      "compassionate": 3879,
      "interest": 3880,
      "LD": 3881,
      "Port": 3882,
      "TER": 3883,
      "VE": 3884,
      "reed": 3885,
      "oub": 3886,
      "rage": 3887,
      "disobedient": 3888,
      "ficient": 3889,
      "feared": 3890,
      "licy": 3891,
      "unjustly": 3892,
      "First": 3893,
      "Control": 3894,
      "twice": 3895,
      "*.": 3896,
      "seize": 3897,
      "nore": 3898,
      "artic": 3899,
      "goodness": 3900,
      "Alone": 3901,
      "encoun": 3902,
      "possessed": 3903,
      "sacrifice": 3904,
      "Ap": 3905,
      "Each": 3906,
      "Sty": 3907,
      "cult": 3908,
      "fresh": 3909,
      "iver": 3910,
      "rant": 3911,
      "ession": 3912,
      "fool": 3913,
      "configure": 3914,
      "lessons": 3915,
      "wombs": 3916,
      "penalty": 3917,
      "voice": 3918,
      "links": 3919,
      "tongue": 3920,
      "slain": 3921,
      "Accessible": 3922,
      "25": 3923,
      "Cance": 3924,
      "PG": 3925,
      "RUN": 3926,
      "West": 3927,
      "ado": 3928,
      "cru": 3929,
      "invalid": 3930,
      "ross": 3931,
      "nearer": 3932,
      "Inst": 3933,
      "Spec": 3934,
      "Maybe": 3935,
      "30": 3936,
      "Ya": 3937,
      "bind": 3938,
      "cus": 3939,
      "urity": 3940,
      "Nothing": 3941,
      "colors": 3942,
      "broken": 3943,
      "driver": 3944,
      "persons": 3945,
      "befalls": 3946,
      "Align": 3947,
      "_BAR": 3948,
      "PLA": 3949,
      "TING": 3950,
      "Was": 3951,
      "nn": 3952,
      "wed": 3953,
      "lean": 3954,
      "deity": 3955,
      "caut": 3956,
      "Format": 3957,
      "Exp": 3958,
      "graves": 3959,
      "dwellings": 3960,
      "Among": 3961,
      "chiefs": 3962,
      "descendants": 3963,
      "sisters": 3964,
      "henna": 3965,
      "_BAR_": 3966,
      "14": 3967,
      "Black": 3968,
      "Mod": 3969,
      "bright": 3970,
      "med": 3971,
      "ane": 3972,
      "layout": 3973,
      "ensed": 3974,
      "mislead": 3975,
      "Majest": 3976,
      "paper": 3977,
      "disobeyed": 3978,
      "Alif": 3979,
      "flesh": 3980,
      "Sm": 3981,
      "ake": 3982,
      "battle": 3983,
      "hi": 3984,
      "ming": 3985,
      "mine": 3986,
      "oom": 3987,
      "ume": 3988,
      "seed": 3989,
      "whoso": 3990,
      "ache": 3991,
      "dig": 3992,
      "driven": 3993,
      "Shaitan": 3994,
      "confirming": 3995,
      "Hy": 3996,
      "KE": 3997,
      "TE": 3998,
      "hat": 3999,
      "mill": 4000,
      "rans": 4001,
      "thod": 4002,
      "sex": 4003,
      "sell": 4004,
      "disbelieving": 4005,
      "brow": 4006,
      "preview": 4007,
      "reply": 4008,
      "stored": 4009,
      "slaught": 4010,
      "produced": 4011,
      "afflicted": 4012,
      "household": 4013,
      "Gehenna": 4014,
      "Home": 4015,
      "afore": 4016,
      "fate": 4017,
      "gates": 4018,
      "ood": 4019,
      "olic": 4020,
      "aries": 4021,
      "safed": 4022,
      "lazing": 4023,
      "divided": 4024,
      "Unseen": 4025,
      "needs": 4026,
      "decided": 4027,
      "remote": 4028,
      "umbers": 4029,
      "Rather": 4030,
      "private": 4031,
      "Record": 4032,
      "Properties": 4033,
      "ransom": 4034,
      "Str": 4035,
      "actions": 4036,
      "bid": 4037,
      "som": 4038,
      "vest": 4039,
      "ordered": 4040,
      "station": 4041,
      "ourse": 4042,
      "fied": 4043,
      "asking": 4044,
      "wherefore": 4045,
      "calam": 4046,
      "Manager": 4047,
      "displayed": 4048,
      "benefits": 4049,
      "ordinate": 4050,
      "mouths": 4051,
      "computer": 4052,
      "itself": 4053,
      "died": 4054,
      "despair": 4055,
      "bot": 4056,
      "towns": 4057,
      "bounds": 4058,
      "multiple": 4059,
      "further": 4060,
      "Koran": 4061,
      "criminals": 4062,
      "Vin": 4063,
      "ban": 4064,
      "iverse": 4065,
      "mory": 4066,
      "vin": 4067,
      "wast": 4068,
      "wander": 4069,
      "encompass": 4070,
      "detect": 4071,
      "area": 4072,
      "exchange": 4073,
      "prove": 4074,
      "overcome": 4075,
      "preach": 4076,
      "phone": 4077,
      "wished": 4078,
      "final": 4079,
      "Close": 4080,
      "settle": 4081,
      "199": 4082,
      "Maximum": 4083,
      "vouchsafed": 4084,
      "interpretation": 4085,
      "(#": 4086,
      "NA": 4087,
      "SC": 4088,
      "Source": 4089,
      "Try": 4090,
      "ka": 4091,
      "sus": 4092,
      "ued": 4093,
      "usive": 4094,
      "suitable": 4095,
      "memory": 4096,
      "disk": 4097,
      "barrier": 4098,
      "minutes": 4099,
      "immedi": 4100,
      "invented": 4101,
      "girl": 4102,
      "Value": 4103,
      "Pilot": 4104,
      "Life": 4105,
      "Nuh": 4106,
      "bi": 4107,
      "ram": 4108,
      "enabled": 4109,
      "Web": 4110,
      "Thank": 4111,
      "direction": 4112,
      "eved": 4113,
      "blown": 4114,
      "Whenever": 4115,
      "Location": 4116,
      "joined": 4117,
      "cursor": 4118,
      "striving": 4119,
      "sorrow": 4120,
      "details": 4121,
      "Salat": 4122,
      "rejoice": 4123,
      "parameter": 4124,
      ";)": 4125,
      "Su": 4126,
      "Ter": 4127,
      "Turn": 4128,
      "hire": 4129,
      "radi": 4130,
      "input": 4131,
      "ators": 4132,
      "delay": 4133,
      "excl": 4134,
      "neath": 4135,
      "grain": 4136,
      "argument": 4137,
      "streams": 4138,
      "provides": 4139,
      "16": 4140,
      "Lay": 4141,
      "SV": 4142,
      "Ste": 4143,
      "Unt": 4144,
      "Yus": 4145,
      "bor": 4146,
      "gush": 4147,
      "nice": 4148,
      "insol": 4149,
      "andom": 4150,
      "demand": 4151,
      "rase": 4152,
      "fet": 4153,
      "fered": 4154,
      "thentic": 4155,
      "worth": 4156,
      "Books": 4157,
      "Log": 4158,
      "client": 4159,
      "refused": 4160,
      "Output": 4161,
      "silver": 4162,
      "flag": 4163,
      "Direct": 4164,
      "damn": 4165,
      "Sorry": 4166,
      "pagans": 4167,
      "Ef": 4168,
      "Ham": 4169,
      "LES": 4170,
      "PP": 4171,
      "ope": 4172,
      "ps": 4173,
      "imate": 4174,
      "oding": 4175,
      "week": 4176,
      "supre": 4177,
      "protection": 4178,
      "Reg": 4179,
      "cide": 4180,
      "Unbelievers": 4181,
      "gracious": 4182,
      "Selected": 4183,
      "enjoin": 4184,
      "IST": 4185,
      "network": 4186,
      "several": 4187,
      "swift": 4188,
      "Sufficient": 4189,
      "Yusuf": 4190,
      "40": 4191,
      "Ind": 4192,
      "KMail": 4193,
      "PA": 4194,
      "ki": 4195,
      "beha": 4196,
      "began": 4197,
      "ability": 4198,
      "trad": 4199,
      "sib": 4200,
      "acce": 4201,
      "vail": 4202,
      "calcul": 4203,
      "guardians": 4204,
      "learn": 4205,
      "\\\\{": 4206,
      "Spirit": 4207,
      "MY": 4208,
      "bra": 4209,
      "kde": 4210,
      "deem": 4211,
      "asunder": 4212,
      "Info": 4213,
      "yeah": 4214,
      "underneath": 4215,
      "corn": 4216,
      "keyboard": 4217,
      "completed": 4218,
      "Blue": 4219,
      "integr": 4220,
      "footsteps": 4221,
      "wanna": 4222,
      "Width": 4223,
      "Lic": 4224,
      "Pass": 4225,
      "cou": 4226,
      "center": 4227,
      "rust": 4228,
      "indec": 4229,
      "index": 4230,
      "unbelief": 4231,
      "unlawful": 4232,
      "prob": 4233,
      "pot": 4234,
      "Remo": 4235,
      "writing": 4236,
      "pping": 4237,
      "choo": 4238,
      "recompensed": 4239,
      "differed": 4240,
      "abundance": 4241,
      "flee": 4242,
      "Split": 4243,
      "Em": 4244,
      "Eur": 4245,
      "Hi": 4246,
      "Part": 4247,
      "Und": 4248,
      "YE": 4249,
      "fing": 4250,
      "iah": 4251,
      "nu": 4252,
      "wretched": 4253,
      "onts": 4254,
      "attribute": 4255,
      "frame": 4256,
      "shot": 4257,
      "telling": 4258,
      "missions": 4259,
      "Ban": 4260,
      "Dist": 4261,
      "San": 4262,
      "Scale": 4263,
      "ails": 4264,
      "mut": 4265,
      "devi": 4266,
      "aly": 4267,
      "users": 4268,
      "shade": 4269,
      "desp": 4270,
      "queen": 4271,
      "Pos": 4272,
      "suffering": 4273,
      "ignorance": 4274,
      "Network": 4275,
      "License": 4276,
      ".).": 4277,
      "360": 4278,
      "Act": 4279,
      "LY": 4280,
      "Mess": 4281,
      "Sta": 4282,
      "gun": 4283,
      "ler": 4284,
      "mus": 4285,
      "whis": 4286,
      "ald": 4287,
      "advers": 4288,
      "venge": 4289,
      "acqu": 4290,
      "missing": 4291,
      "However": 4292,
      "leaders": 4293,
      "connect": 4294,
      "Player": 4295,
      "sister": 4296,
      "Judi": 4297,
      "Penalty": 4298,
      "OF": 4299,
      "Stri": 4300,
      "cook": 4301,
      "ule": 4302,
      "orious": 4303,
      "stone": 4304,
      "decide": 4305,
      "iring": 4306,
      "teth": 4307,
      "deniers": 4308,
      "desist": 4309,
      "rewarded": 4310,
      "condition": 4311,
      "carried": 4312,
      "solute": 4313,
      "winds": 4314,
      "camera": 4315,
      "Until": 4316,
      "Cr": 4317,
      "GRUN": 4318,
      "Mem": 4319,
      "hop": 4320,
      "enable": 4321,
      "deep": 4322,
      "contact": 4323,
      "maybe": 4324,
      "subst": 4325,
      "Normal": 4326,
      "Paper": 4327,
      "Background": 4328,
      "Everlasting": 4329,
      "pilgr": 4330,
      "Install": 4331,
      "Bount": 4332,
      "El": 4333,
      "Jim": 4334,
      "Mad": 4335,
      "Sk": 4336,
      "Sli": 4337,
      "ahead": 4338,
      "averse": 4339,
      "nay": 4340,
      "ita": 4341,
      "compe": 4342,
      "trouble": 4343,
      "acy": 4344,
      "parties": 4345,
      "barren": 4346,
      "choice": 4347,
      "recognize": 4348,
      "symbolic": 4349,
      "supreme": 4350,
      "East": 4351,
      "GRO": 4352,
      "hate": 4353,
      "comfort": 4354,
      "ferences": 4355,
      "resurrection": 4356,
      "pledge": 4357,
      "akat": 4358,
      "obeyed": 4359,
      "openly": 4360,
      "invest": 4361,
      "increased": 4362,
      "Box": 4363,
      "Feed": 4364,
      "FUCKING": 4365,
      "Effect": 4366,
      "Main": 4367,
      "ded": 4368,
      "song": 4369,
      "tomorrow": 4370,
      "ador": 4371,
      "adorn": 4372,
      "White": 4373,
      "served": 4374,
      "wrongdoing": 4375,
      "godfearing": 4376,
      "married": 4377,
      "mountain": 4378,
      "strait": 4379,
      "Copying": 4380,
      "secretly": 4381,
      "offering": 4382,
      "spoken": 4383,
      "photos": 4384,
      "piece": 4385,
      "athed": 4386,
      "GROAN": 4387,
      "Job": 4388,
      "KING": 4389,
      "closed": 4390,
      "yan": 4391,
      "erous": 4392,
      "ching": 4393,
      "riches": 4394,
      "throne": 4395,
      "parable": 4396,
      "persist": 4397,
      "ERE": 4398,
      "uff": 4399,
      "swallow": 4400,
      "ridic": 4401,
      "Owner": 4402,
      "**": 4403,
      "mate": 4404,
      "ority": 4405,
      "beware": 4406,
      "section": 4407,
      "delight": 4408,
      "orders": 4409,
      "vile": 4410,
      "engine": 4411,
      "spirit": 4412,
      "clicking": 4413,
      "decision": 4414,
      "reminded": 4415,
      "careful": 4416,
      "animals": 4417,
      "separate": 4418,
      "tongues": 4419,
      "satis": 4420,
      "scattered": 4421,
      "AB": 4422,
      "IR": 4423,
      "Miss": 4424,
      "PC": 4425,
      "regre": 4426,
      "ornam": 4427,
      "atory": 4428,
      "hair": 4429,
      "defin": 4430,
      "ascend": 4431,
      "unk": 4432,
      "ainted": 4433,
      "max": 4434,
      "creates": 4435,
      "standard": 4436,
      "SIC": 4437,
      "midst": 4438,
      "humiliating": 4439,
      "depend": 4440,
      "Template": 4441,
      "vereignty": 4442,
      "Cancel": 4443,
      ";-": 4444,
      "Hold": 4445,
      "Test": 4446,
      "kah": 4447,
      "mity": 4448,
      "nar": 4449,
      "inmates": 4450,
      "everlasting": 4451,
      "terror": 4452,
      "expl": 4453,
      "fellow": 4454,
      "quar": 4455,
      "perfect": 4456,
      "misdeeds": 4457,
      "Short": 4458,
      "Point": 4459,
      "LAU": 4460,
      "honourable": 4461,
      "forgotten": 4462,
      "Application": 4463,
      "sealed": 4464,
      "igrated": 4465,
      "willingly": 4466,
      "Protector": 4467,
      "PLAY": 4468,
      "Vincent": 4469,
      "Ba": 4470,
      "Dra": 4471,
      "Ph": 4472,
      "Session": 4473,
      "Wit": 4474,
      "bin": 4475,
      "cue": 4476,
      "iving": 4477,
      "mur": 4478,
      "initi": 4479,
      "andon": 4480,
      "imal": 4481,
      "urat": 4482,
      "disease": 4483,
      "fulfill": 4484,
      "vior": 4485,
      "extreme": 4486,
      "class": 4487,
      "obtain": 4488,
      "cool": 4489,
      "pride": 4490,
      "leads": 4491,
      "specific": 4492,
      "payment": 4493,
      "distance": 4494,
      "disputed": 4495,
      "expend": 4496,
      "Seeing": 4497,
      "Write": 4498,
      "moment": 4499,
      "18": 4500,
      "A1": 4501,
      "Bu": 4502,
      "CON": 4503,
      "KS": 4504,
      "Mis": 4505,
      "TR": 4506,
      "ball": 4507,
      "thren": 4508,
      "young": 4509,
      "forgives": 4510,
      "pear": 4511,
      "shalt": 4512,
      "master": 4513,
      "otherwise": 4514,
      "aces": 4515,
      "Stand": 4516,
      "calendar": 4517,
      "built": 4518,
      "cuments": 4519,
      "rows": 4520,
      "burdens": 4521,
      "bellies": 4522,
      "existing": 4523,
      "fields": 4524,
      "building": 4525,
      "Menu": 4526,
      "sanct": 4527,
      "encounter": 4528,
      "',": 4529,
      "15": 4530,
      "Oper": 4531,
      "Put": 4532,
      "Press": 4533,
      "Vis": 4534,
      "av": 4535,
      "cket": 4536,
      "module": 4537,
      "ore": 4538,
      "itions": 4539,
      "ford": 4540,
      "emon": 4541,
      "Total": 4542,
      "broke": 4543,
      "brethren": 4544,
      "Ang": 4545,
      "penit": 4546,
      "gged": 4547,
      "Wherefore": 4548,
      "possessions": 4549,
      "argue": 4550,
      "calamity": 4551,
      "24": 4552,
      "Coun": 4553,
      "COU": 4554,
      "Div": 4555,
      "Hud": 4556,
      "Lu": 4557,
      "Neither": 4558,
      "air": 4559,
      "dumb": 4560,
      "hint": 4561,
      "rank": 4562,
      "tur": 4563,
      "zy": 4564,
      "motion": 4565,
      "worse": 4566,
      "grad": 4567,
      "illa": 4568,
      "plead": 4569,
      "desired": 4570,
      "template": 4571,
      "\\\\\\\\{": 4572,
      "Download": 4573,
      "praises": 4574,
      "response": 4575,
      "assigned": 4576,
      "magicians": 4577,
      "Earth": 4578,
      "cautious": 4579,
      "hibit": 4580,
      "CR": 4581,
      "surre": 4582,
      "retri": 4583,
      "eric": 4584,
      "itor": 4585,
      "abandon": 4586,
      "disabled": 4587,
      "signature": 4588,
      "lands": 4589,
      "submission": 4590,
      "purified": 4591,
      "reaches": 4592,
      "Taurat": 4593,
      "Muslim": 4594,
      "Level": 4595,
      "Atta": 4596,
      "ranks": 4597,
      "counsel": 4598,
      "tarried": 4599,
      "02i": 4600,
      "Blessed": 4601,
      "Judith": 4602,
      "GNU": 4603,
      "Ish": 4604,
      "MO": 4605,
      "Public": 4606,
      "RING": 4607,
      "Zali": 4608,
      "bag": 4609,
      "gal": 4610,
      "numbers": 4611,
      "thir": 4612,
      "iration": 4613,
      "rock": 4614,
      "saving": 4615,
      "shirt": 4616,
      "protocol": 4617,
      "overtook": 4618,
      "holding": 4619,
      "playing": 4620,
      "GHT": 4621,
      "Memory": 4622,
      "Email": 4623,
      "MD": 4624,
      "hit": 4625,
      "lust": 4626,
      "asy": 4627,
      "cerer": 4628,
      "weigh": 4629,
      "conject": 4630,
      "necks": 4631,
      "policy": 4632,
      "More": 4633,
      "misfortune": 4634,
      "Construct": 4635,
      "gotten": 4636,
      "devour": 4637,
      "devot": 4638,
      "flict": 4639,
      "afflict": 4640,
      "Certificate": 4641,
      "Perhaps": 4642,
      "strayed": 4643,
      "celebr": 4644,
      "Zalimun": 4645,
      ",'": 4646,
      "Gre": 4647,
      "Hast": 4648,
      "IME": 4649,
      "hung": 4650,
      "plo": 4651,
      "swer": 4652,
      "imag": 4653,
      "areth": 4654,
      "frust": 4655,
      "disbelieves": 4656,
      "gue": 4657,
      "sia": 4658,
      "agement": 4659,
      "design": 4660,
      "rendered": 4661,
      "cost": 4662,
      "thinking": 4663,
      "invite": 4664,
      "Hello": 4665,
      "header": 4666,
      "generation": 4667,
      "slew": 4668,
      "pixels": 4669,
      "MUSIC": 4670,
      ",’": 4671,
      "Messages": 4672,
      "Sun": 4673,
      "Wal": 4674,
      "dates": 4675,
      "pour": 4676,
      "satan": 4677,
      "wine": 4678,
      "often": 4679,
      "early": 4680,
      "expi": 4681,
      "Process": 4682,
      "licate": 4683,
      "Alarm": 4684,
      "ieve": 4685,
      "protectors": 4686,
      "Office": 4687,
      "Blank": 4688,
      "utterly": 4689,
      "defined": 4690,
      "attack": 4691,
      "pursued": 4692,
      "Europe": 4693,
      "Witness": 4694,
      ".),": 4695,
      "Pi": 4696,
      "VER": 4697,
      "aib": 4698,
      "qun": 4699,
      "shel": 4700,
      "atur": 4701,
      "altern": 4702,
      "saith": 4703,
      "necess": 4704,
      "hears": 4705,
      "special": 4706,
      "compati": 4707,
      "actually": 4708,
      "Dec": 4709,
      "Alpha": 4710,
      "grade": 4711,
      "informed": 4712,
      "North": 4713,
      "defend": 4714,
      "Written": 4715,
      "collect": 4716,
      "prevented": 4717,
      "President": 4718,
      "resurrected": 4719,
      "720": 4720,
      "Cam": 4721,
      "Op": 4722,
      "awe": 4723,
      "ago": 4724,
      "compre": 4725,
      "exalt": 4726,
      "aged": 4727,
      "formed": 4728,
      "certainty": 4729,
      "Preview": 4730,
      "requested": 4731,
      "abundant": 4732,
      "editor": 4733,
      "pieces": 4734,
      "drag": 4735,
      "Style": 4736,
      "hatred": 4737,
      "CE": 4738,
      "Her": 4739,
      "IL": 4740,
      "Tray": 4741,
      "bon": 4742,
      "couch": 4743,
      "inc": 4744,
      "anc": 4745,
      "itute": 4746,
      "degrees": 4747,
      "arest": 4748,
      "withhold": 4749,
      "faults": 4750,
      "indic": 4751,
      "chaste": 4752,
      "guideth": 4753,
      "ashion": 4754,
      "honoured": 4755,
      "mindful": 4756,
      "prostrating": 4757,
      "finished": 4758,
      "Cogl": 4759,
      "ATE": 4760,
      "characters": 4761,
      "garments": 4762,
      "KD": 4763,
      "Sou": 4764,
      "gift": 4765,
      "pic": 4766,
      "inity": 4767,
      "disclose": 4768,
      "creature": 4769,
      "endure": 4770,
      "reading": 4771,
      "fallen": 4772,
      "clipboard": 4773,
      "humans": 4774,
      "ISO": 4775,
      "summon": 4776,
      "recorded": 4777,
      "inheritance": 4778,
      "middle": 4779,
      "Internet": 4780,
      "girls": 4781,
      "MiB": 4782,
      "rotation": 4783,
      "SCRE": 4784,
      "Attach": 4785,
      "bri": 4786,
      "fut": 4787,
      "gam": 4788,
      "rising": 4789,
      "uk": 4790,
      "ina": 4791,
      "amount": 4792,
      "allies": 4793,
      "ric": 4794,
      "goods": 4795,
      "ills": 4796,
      "ruined": 4797,
      "Encry": 4798,
      "looked": 4799,
      "secrets": 4800,
      "Maryam": 4801,
      "Listen": 4802,
      "Grace": 4803,
      "responsible": 4804,
      "excuse": 4805,
      "mortal": 4806,
      "aforetime": 4807,
      "bottom": 4808,
      ":%": 4809,
      "Flo": 4810,
      "TP": 4811,
      "XML": 4812,
      "ather": 4813,
      "dry": 4814,
      "thunder": 4815,
      "err": 4816,
      "itial": 4817,
      "heal": 4818,
      "weep": 4819,
      "geth": 4820,
      "exerc": 4821,
      "shape": 4822,
      "prohibit": 4823,
      "guile": 4824,
      "holy": 4825,
      "prefer": 4826,
      "Universe": 4827,
      "filename": 4828,
      "tracks": 4829,
      "visit": 4830,
      "killing": 4831,
      "sorcerer": 4832,
      "generous": 4833,
      "URI": 4834,
      "palms": 4835,
      "encryption": 4836,
      "difficult": 4837,
      "Layer": 4838,
      "100": 4839,
      "Bre": 4840,
      "Rename": 4841,
      "Scan": 4842,
      "dro": 4843,
      "ik": 4844,
      "thread": 4845,
      "ini": 4846,
      "inj": 4847,
      "intell": 4848,
      "enmity": 4849,
      "aright": 4850,
      "army": 4851,
      "theme": 4852,
      "wear": 4853,
      "alle": 4854,
      "exam": 4855,
      "excess": 4856,
      "upper": 4857,
      "team": 4858,
      "hot": 4859,
      "spouses": 4860,
      "blow": 4861,
      "Therein": 4862,
      "Local": 4863,
      "interced": 4864,
      "About": 4865,
      "Post": 4866,
      "NOW": 4867,
      "package": 4868,
      "Sync": 4869,
      "Prayer": 4870,
      "thentication": 4871,
      "surrender": 4872,
      "ED": 4873,
      "Joh": 4874,
      "Ka": 4875,
      "Lut": 4876,
      "Pan": 4877,
      "Sali": 4878,
      "avert": 4879,
      "drew": 4880,
      "fat": 4881,
      "tip": 4882,
      "restri": 4883,
      "heat": 4884,
      "stret": 4885,
      "oples": 4886,
      "history": 4887,
      "grand": 4888,
      "tedly": 4889,
      "bliss": 4890,
      "fuel": 4891,
      "Thereupon": 4892,
      "tribe": 4893,
      "tract": 4894,
      "Ark": 4895,
      "transgression": 4896,
      "Previous": 4897,
      "incline": 4898,
      "deceive": 4899,
      "orphan": 4900,
      "repeat": 4901,
      "Connection": 4902,
      "Again": 4903,
      "Bri": 4904,
      "Law": 4905,
      "Tag": 4906,
      "ival": 4907,
      "nic": 4908,
      "pg": 4909,
      "defe": 4910,
      "entrust": 4911,
      "adul": 4912,
      "mocked": 4913,
      "permit": 4914,
      "mbers": 4915,
      "Soon": 4916,
      "across": 4917,
      "wood": 4918,
      "minis": 4919,
      "gger": 4920,
      "watching": 4921,
      "corrupt": 4922,
      "GHING": 4923,
      "leaving": 4924,
      "pretty": 4925,
      "country": 4926,
      "ganiz": 4927,
      "debt": 4928,
      "Makkah": 4929,
      "miracles": 4930,
      "expression": 4931,
      "abbath": 4932,
      "indecency": 4933,
      "adornment": 4934,
      "Salih": 4935,
      "17": 4936,
      "600": 4937,
      "GU": 4938,
      "Gray": 4939,
      "Jo": 4940,
      "Mer": 4941,
      "Mur": 4942,
      "Pers": 4943,
      "jj": 4944,
      "pages": 4945,
      "tored": 4946,
      "Theme": 4947,
      "dog": 4948,
      "Three": 4949,
      "Before": 4950,
      "nights": 4951,
      "recur": 4952,
      "thrown": 4953,
      "judges": 4954,
      "pleasing": 4955,
      "starting": 4956,
      "inner": 4957,
      "admonish": 4958,
      "rejoic": 4959,
      "software": 4960,
      "oubtedly": 4961,
      "PLAYING": 4962,
      "CU": 4963,
      "Est": 4964,
      "Fun": 4965,
      "ILL": 4966,
      "KPilot": 4967,
      "yield": 4968,
      "isn": 4969,
      "ley": 4970,
      "develop": 4971,
      "Allow": 4972,
      "Height": 4973,
      "terms": 4974,
      "loan": 4975,
      "login": 4976,
      "cance": 4977,
      "visions": 4978,
      "supposed": 4979,
      "Prof": 4980,
      "virtue": 4981,
      "WHAT": 4982,
      "element": 4983,
      "Return": 4984,
      "strengthened": 4985,
      "Directory": 4986,
      ")?\"": 4987,
      "Def": 4988,
      "OH": 4989,
      "base": 4990,
      "games": 4991,
      "viron": 4992,
      "ancy": 4993,
      "note": 4994,
      "roast": 4995,
      "mael": 4996,
      "disting": 4997,
      "proved": 4998,
      "fee": 4999,
      "restore": 5000,
      "justly": 5001,
      "uddy": 5002,
      "letter": 5003,
      "foundation": 5004,
      "Compan": 5005,
      "skins": 5006,
      "hapter": 5007,
      "suffice": 5008,
      "completely": 5009,
      "pane": 5010,
      "realize": 5011,
      "persecut": 5012,
      "regret": 5013,
      "devotion": 5014,
      "distingu": 5015,
      "88": 5016,
      "Az": 5017,
      "Base": 5018,
      "Cap": 5019,
      "Del": 5020,
      "fit": 5021,
      "fonts": 5022,
      "fashion": 5023,
      "pit": 5024,
      "win": 5025,
      "stick": 5026,
      "vertical": 5027,
      "cease": 5028,
      "Godwary": 5029,
      "wasn": 5030,
      "hole": 5031,
      "giveth": 5032,
      "Alas": 5033,
      "Setup": 5034,
      "suffices": 5035,
      "containing": 5036,
      "safety": 5037,
      "similitude": 5038,
      "hunger": 5039,
      "IF": 5040,
      "Lat": 5041,
      "Zoom": 5042,
      "blast": 5043,
      "sland": 5044,
      "entation": 5045,
      "doer": 5046,
      "peoples": 5047,
      "giver": 5048,
      "disobedience": 5049,
      "provid": 5050,
      "proxy": 5051,
      "laze": 5052,
      "sport": 5053,
      "likely": 5054,
      "bles": 5055,
      "promises": 5056,
      "rewards": 5057,
      "needed": 5058,
      "keeping": 5059,
      "bears": 5060,
      "Trash": 5061,
      "minds": 5062,
      "increases": 5063,
      "exactly": 5064,
      "adversity": 5065,
      "Bounty": 5066,
      "ornaments": 5067,
      "\"?": 5068,
      "SS": 5069,
      "Tree": 5070,
      "gor": 5071,
      "sco": 5072,
      "amin": 5073,
      "suggest": 5074,
      "mere": 5075,
      "method": 5076,
      "sold": 5077,
      "loc": 5078,
      "cies": 5079,
      "miser": 5080,
      "grave": 5081,
      "looks": 5082,
      "breast": 5083,
      "ANT": 5084,
      "sorcer": 5085,
      "scoff": 5086,
      "instance": 5087,
      "excuses": 5088,
      "fabricate": 5089,
      "divorce": 5090,
      "Multip": 5091,
      "Original": 5092,
      "probably": 5093,
      "Angle": 5094,
      "couches": 5095,
      "Bot": 5096,
      "Find": 5097,
      "Hon": 5098,
      "Icon": 5099,
      "Mut": 5100,
      "bank": 5101,
      "crop": 5102,
      "fish": 5103,
      "flight": 5104,
      "za": 5105,
      "ancient": 5106,
      "Input": 5107,
      "permissions": 5108,
      "plent": 5109,
      "IND": 5110,
      "worshipers": 5111,
      "commandment": 5112,
      "longer": 5113,
      "buy": 5114,
      "Author": 5115,
      "harmdoers": 5116,
      "survi": 5117,
      "Upon": 5118,
      "tableau": 5119,
      "detail": 5120,
      "treaty": 5121,
      "appointment": 5122,
      "Midian": 5123,
      "laden": 5124,
      "immediately": 5125,
      "sorcery": 5126,
      ".,": 5127,
      "=\\\\\\\\{": 5128,
      "Sum": 5129,
      "Vol": 5130,
      "Wall": 5131,
      "kins": 5132,
      "ml": 5133,
      "ny": 5134,
      "tle": 5135,
      "defi": 5136,
      "iders": 5137,
      "amed": 5138,
      "aming": 5139,
      "achieve": 5140,
      "prec": 5141,
      "handle": 5142,
      "Ext": 5143,
      "tested": 5144,
      "trusted": 5145,
      "expel": 5146,
      "stern": 5147,
      "constant": 5148,
      "accepts": 5149,
      "Ishmael": 5150,
      "Double": 5151,
      "MA": 5152,
      "Obey": 5153,
      "hang": 5154,
      "rush": 5155,
      "instru": 5156,
      "idance": 5157,
      "sul": 5158,
      "distribution": 5159,
      "consum": 5160,
      "didst": 5161,
      "emer": 5162,
      "Deal": 5163,
      "discourse": 5164,
      "loveth": 5165,
      "simple": 5166,
      "Account": 5167,
      "Guidance": 5168,
      "SIGHS": 5169,
      "arguments": 5170,
      "treasures": 5171,
      "distinct": 5172,
      "Messiah": 5173,
      "future": 5174,
      "vironment": 5175,
      "Bus": 5176,
      "Event": 5177,
      "scan": 5178,
      "slow": 5179,
      "heirs": 5180,
      "amb": 5181,
      "usury": 5182,
      "exposed": 5183,
      "tran": 5184,
      "ville": 5185,
      "presented": 5186,
      "sendeth": 5187,
      "humility": 5188,
      "reported": 5189,
      "desert": 5190,
      "Warn": 5191,
      "square": 5192,
      "Kingdom": 5193,
      "appreci": 5194,
      "Remote": 5195,
      "Bottom": 5196,
      "@}": 5197,
      "Cache": 5198,
      "Emb": 5199,
      "Mic": 5200,
      "Punish": 5201,
      "Row": 5202,
      "Sound": 5203,
      "Tha": 5204,
      "duration": 5205,
      "lin": 5206,
      "switch": 5207,
      "anch": 5208,
      "sta": 5209,
      "likes": 5210,
      "idence": 5211,
      "alarms": 5212,
      "magn": 5213,
      "While": 5214,
      "tast": 5215,
      "gry": 5216,
      "overtake": 5217,
      "Repe": 5218,
      "stell": 5219,
      "OUT": 5220,
      "questions": 5221,
      "2002": 5222,
      "Track": 5223,
      "advance": 5224,
      "solemn": 5225,
      "Verses": 5226,
      "dreadful": 5227,
      "Green": 5228,
      "Ant": 5229,
      "Dep": 5230,
      "Rever": 5231,
      "Sabbath": 5232,
      "Tri": 5233,
      "bas": 5234,
      "cil": 5235,
      "ored": 5236,
      "inue": 5237,
      "llen": 5238,
      "ening": 5239,
      "withdraw": 5240,
      "constr": 5241,
      "proportion": 5242,
      "grants": 5243,
      "Whoso": 5244,
      "Proclaim": 5245,
      "player": 5246,
      "texture": 5247,
      "align": 5248,
      "resting": 5249,
      "relation": 5250,
      "checksum": 5251,
      "await": 5252,
      "oppressed": 5253,
      "shadow": 5254,
      "consequence": 5255,
      "exclusive": 5256,
      "John": 5257,
      "\":": 5258,
      "Cop": 5259,
      "Dark": 5260,
      "Database": 5261,
      "Mim": 5262,
      "Watch": 5263,
      "blazing": 5264,
      "thine": 5265,
      "reth": 5266,
      "ering": 5267,
      "dem": 5268,
      "aren": 5269,
      "qui": 5270,
      "ctionary": 5271,
      "denies": 5272,
      "backup": 5273,
      "warm": 5274,
      "denying": 5275,
      "Arch": 5276,
      "successors": 5277,
      "prostration": 5278,
      "transgressed": 5279,
      "requited": 5280,
      "Off": 5281,
      "existence": 5282,
      "weakness": 5283,
      "widget": 5284,
      "expelled": 5285,
      "colle": 5286,
      "husbands": 5287,
      "correctly": 5288,
      "Warning": 5289,
      "gypt": 5290,
      "Loading": 5291,
      "Saru": 5292,
      "integrity": 5293,
      "pilgrimage": 5294,
      "compreh": 5295,
      "Egypt": 5296,
      "Found": 5297,
      "Rob": 5298,
      "betray": 5299,
      "heels": 5300,
      "leted": 5301,
      "stage": 5302,
      "asing": 5303,
      "assum": 5304,
      "ifier": 5305,
      "tery": 5306,
      "aining": 5307,
      "loved": 5308,
      "consp": 5309,
      "neigh": 5310,
      "proach": 5311,
      "tag": 5312,
      "pron": 5313,
      "Button": 5314,
      "aked": 5315,
      "compon": 5316,
      "falls": 5317,
      "requite": 5318,
      "latter": 5319,
      "flame": 5320,
      "stronger": 5321,
      "modified": 5322,
      "pattern": 5323,
      "encrypted": 5324,
      "parameters": 5325,
      "afterwards": 5326,
      "cruc": 5327,
      "Majestic": 5328,
      "frustrate": 5329,
      "BLO": 5330,
      "Mouse": 5331,
      "Master": 5332,
      "OK": 5333,
      "io": 5334,
      "mary": 5335,
      "rang": 5336,
      "sitting": 5337,
      "inno": 5338,
      "imp": 5339,
      "roof": 5340,
      "abiding": 5341,
      "redu": 5342,
      "boo": 5343,
      "pread": 5344,
      "coordinate": 5345,
      "repres": 5346,
      "encoding": 5347,
      "factor": 5348,
      "meaning": 5349,
      "admitted": 5350,
      "humbled": 5351,
      "attach": 5352,
      "crooked": 5353,
      "wallet": 5354,
      "arrived": 5355,
      "welve": 5356,
      "Browse": 5357,
      "exercise": 5358,
      "13": 5359,
      "Bes": 5360,
      "Night": 5361,
      "UP": 5362,
      "etern": 5363,
      "site": 5364,
      "vity": 5365,
      "ongeth": 5366,
      "esa": 5367,
      "ofty": 5368,
      "befell": 5369,
      "lib": 5370,
      "sage": 5371,
      "sail": 5372,
      "Whose": 5373,
      "played": 5374,
      "Reset": 5375,
      "speaking": 5376,
      "ocation": 5377,
      "differences": 5378,
      "planet": 5379,
      "listening": 5380,
      "appeared": 5381,
      "statement": 5382,
      "clothe": 5383,
      "spoke": 5384,
      "deceived": 5385,
      "ponent": 5386,
      "Empty": 5387,
      "Companions": 5388,
      "crops": 5389,
      "ABE": 5390,
      "ELI": 5391,
      "Face": 5392,
      "False": 5393,
      "Wisdom": 5394,
      "ZABE": 5395,
      "fif": 5396,
      "ilies": 5397,
      "lab": 5398,
      "release": 5399,
      "veget": 5400,
      "asp": 5401,
      "ards": 5402,
      "trash": 5403,
      "neth": 5404,
      "rescu": 5405,
      "owner": 5406,
      "agram": 5407,
      "quake": 5408,
      "evident": 5409,
      "however": 5410,
      "types": 5411,
      "ensation": 5412,
      "Very": 5413,
      "playlist": 5414,
      "Comple": 5415,
      "Colors": 5416,
      "Prom": 5417,
      "transgressing": 5418,
      "luck": 5419,
      "sweet": 5420,
      "armies": 5421,
      "surround": 5422,
      "Class": 5423,
      "closer": 5424,
      "Simon": 5425,
      "items": 5426,
      "magician": 5427,
      "kids": 5428,
      "Password": 5429,
      "ELIZABE": 5430,
      "ELIZABETH": 5431,
      "Asia": 5432,
      "Cry": 5433,
      "Id": 5434,
      "Lar": 5435,
      "Long": 5436,
      "PRO": 5437,
      "cow": 5438,
      "du": 5439,
      "ked": 5440,
      "lofty": 5441,
      "render": 5442,
      "vels": 5443,
      "doors": 5444,
      "moved": 5445,
      "creating": 5446,
      "worry": 5447,
      "yellow": 5448,
      "seeks": 5449,
      "dies": 5450,
      "normal": 5451,
      "Alt": 5452,
      "Chan": 5453,
      "Chang": 5454,
      "lightning": 5455,
      "devoted": 5456,
      "edium": 5457,
      "apply": 5458,
      "drinking": 5459,
      "DVDs": 5460,
      "buttons": 5461,
      "families": 5462,
      "Creation": 5463,
      "Host": 5464,
      "dealt": 5465,
      "intercessors": 5466,
      "deluded": 5467,
      "fabricated": 5468,
      "announce": 5469,
      "embra": 5470,
      "Powerful": 5471,
      "Undo": 5472,
      "South": 5473,
      "Punishment": 5474,
      ",”": 5475,
      "Aad": 5476,
      "Dri": 5477,
      "Fight": 5478,
      "Gabri": 5479,
      "Java": 5480,
      "Mag": 5481,
      "Sche": 5482,
      "]?": 5483,
      "cum": 5484,
      "flu": 5485,
      "inser": 5486,
      "incur": 5487,
      "reet": 5488,
      "noon": 5489,
      "lihood": 5490,
      "notify": 5491,
      "fra": 5492,
      "documents": 5493,
      "compl": 5494,
      "quality": 5495,
      "Report": 5496,
      "bling": 5497,
      "idea": 5498,
      "strate": 5499,
      "returning": 5500,
      "Star": 5501,
      "livelihood": 5502,
      "charged": 5503,
      "THAT": 5504,
      "guarded": 5505,
      "pressing": 5506,
      "prostrated": 5507,
      "Lake": 5508,
      "Words": 5509,
      "walking": 5510,
      "rebellion": 5511,
      "packages": 5512,
      "Final": 5513,
      "issue": 5514,
      "PHONE": 5515,
      "chooses": 5516,
      "music": 5517,
      "ridicule": 5518,
      "pearls": 5519,
      "intercede": 5520,
      "CUPS": 5521,
      "Gabriel": 5522,
      "Stor": 5523,
      "fly": 5524,
      "nig": 5525,
      "scre": 5526,
      "zer": 5527,
      "recon": 5528,
      "asphe": 5529,
      "keth": 5530,
      "uls": 5531,
      "shout": 5532,
      "dislike": 5533,
      "fected": 5534,
      "signed": 5535,
      "cially": 5536,
      "blasphe": 5537,
      "sheet": 5538,
      "contro": 5539,
      "Discard": 5540,
      "chedul": 5541,
      "ARS": 5542,
      "Trust": 5543,
      "Shit": 5544,
      "higher": 5545,
      "figured": 5546,
      "bodies": 5547,
      "Plan": 5548,
      "Retri": 5549,
      "RIGHT": 5550,
      "initiali": 5551,
      "Bad": 5552,
      "FI": 5553,
      "GNO": 5554,
      "Ig": 5555,
      "Tod": 5556,
      "ade": 5557,
      "media": 5558,
      "pent": 5559,
      "swo": 5560,
      "twelve": 5561,
      "rehear": 5562,
      "recl": 5563,
      "ende": 5564,
      "liation": 5565,
      "abul": 5566,
      "mach": 5567,
      "disd": 5568,
      "disregard": 5569,
      "nearest": 5570,
      "etimes": 5571,
      "guests": 5572,
      "okes": 5573,
      "via": 5574,
      "brasero": 5575,
      "events": 5576,
      "ception": 5577,
      "awful": 5578,
      "discard": 5579,
      "submis": 5580,
      "Resize": 5581,
      "huh": 5582,
      "judged": 5583,
      "wax": 5584,
      "cuts": 5585,
      "greet": 5586,
      "lamp": 5587,
      "happiness": 5588,
      "YOUR": 5589,
      "CHUCK": 5590,
      "NOT": 5591,
      "Remembrance": 5592,
      "plotted": 5593,
      "Arabs": 5594,
      "Otherwise": 5595,
      "advanta": 5596,
      "binding": 5597,
      "sexual": 5598,
      "necessary": 5599,
      "ministr": 5600,
      "niggard": 5601,
      "';": 5602,
      "22": 5603,
      "Dest": 5604,
      "Four": 5605,
      "Hu": 5606,
      "Many": 5607,
      "Spr": 5608,
      "Soft": 5609,
      "hort": 5610,
      "tes": 5611,
      "west": 5612,
      "ston": 5613,
      "lia": 5614,
      "forged": 5615,
      "entries": 5616,
      "abs": 5617,
      "merely": 5618,
      "ational": 5619,
      "disbeliever": 5620,
      "moves": 5621,
      "tape": 5622,
      "query": 5623,
      "vig": 5624,
      "whel": 5625,
      "bore": 5626,
      "Seer": 5627,
      "warrant": 5628,
      "licit": 5629,
      "Always": 5630,
      "crime": 5631,
      "adding": 5632,
      "worked": 5633,
      "highlight": 5634,
      "simply": 5635,
      "Firaun": 5636,
      "admonished": 5637,
      "tificates": 5638,
      "dreams": 5639,
      "gentle": 5640,
      "Hyper": 5641,
      "mutual": 5642,
      "GNOME": 5643,
      "Aye": 5644,
      "Eli": 5645,
      "FO": 5646,
      "Gold": 5647,
      "Mal": 5648,
      "SQ": 5649,
      "Sort": 5650,
      "UT": 5651,
      "avan": 5652,
      "fount": 5653,
      "tim": 5654,
      "erce": 5655,
      "haven": 5656,
      "nother": 5657,
      "deleted": 5658,
      "alter": 5659,
      "Thanks": 5660,
      "label": 5661,
      "prevail": 5662,
      "umpet": 5663,
      "intended": 5664,
      "intends": 5665,
      "harvest": 5666,
      "warners": 5667,
      "Status": 5668,
      "president": 5669,
      "layer": 5670,
      "Trumpet": 5671,
      "protected": 5672,
      "happens": 5673,
      "Viewer": 5674,
      "covering": 5675,
      "flash": 5676,
      "conjecture": 5677,
      "permitted": 5678,
      "Murph": 5679,
      "submissive": 5680,
      ":)": 5681,
      "Ctr": 5682,
      "Cover": 5683,
      "Pal": 5684,
      "Qual": 5685,
      "UM": 5686,
      "border": 5687,
      "lod": 5688,
      "ert": 5689,
      "ller": 5690,
      "fornic": 5691,
      "fection": 5692,
      "restored": 5693,
      "manually": 5694,
      "ipi": 5695,
      "fearful": 5696,
      "camels": 5697,
      "Assuredly": 5698,
      "ounced": 5699,
      "succour": 5700,
      "startup": 5701,
      "rests": 5702,
      "paired": 5703,
      "Grid": 5704,
      "refuse": 5705,
      "2000": 5706,
      "Layout": 5707,
      "recognized": 5708,
      "violent": 5709,
      "Ctrl": 5710,
      "Dial": 5711,
      "Hot": 5712,
      "Mat": 5713,
      "Mas": 5714,
      "NE": 5715,
      "TIN": 5716,
      "__": 5717,
      "dow": 5718,
      "icons": 5719,
      "mil": 5720,
      "ux": 5721,
      "udes": 5722,
      "reform": 5723,
      "orbit": 5724,
      "tock": 5725,
      "behalf": 5726,
      "debug": 5727,
      "iment": 5728,
      "Thom": 5729,
      "exem": 5730,
      "shut": 5731,
      "endowed": 5732,
      "serious": 5733,
      "cope": 5734,
      "wrongfully": 5735,
      "posite": 5736,
      "obeys": 5737,
      "Analy": 5738,
      "caravan": 5739,
      "attention": 5740,
      "properties": 5741,
      "Update": 5742,
      "belongeth": 5743,
      "Simulation": 5744,
      "toolbar": 5745,
      "effects": 5746,
      "Calendar": 5747,
      "obligatory": 5748,
      "preceded": 5749,
      "GET": 5750,
      "potent": 5751,
      "celebrate": 5752,
      "SCREAM": 5753,
      "?-": 5754,
      "CA": 5755,
      "Eden": 5756,
      "OP": 5757,
      "Paste": 5758,
      "UES": 5759,
      "ponder": 5760,
      "tro": 5761,
      "zakat": 5762,
      "thro": 5763,
      "ernal": 5764,
      "office": 5765,
      "lice": 5766,
      "gious": 5767,
      "gover": 5768,
      "progress": 5769,
      "ishing": 5770,
      "Initial": 5771,
      "seems": 5772,
      "boys": 5773,
      "clar": 5774,
      "strange": 5775,
      "Thereafter": 5776,
      "additional": 5777,
      "favoured": 5778,
      "domain": 5779,
      "tonight": 5780,
      "Yea": 5781,
      "stood": 5782,
      "highest": 5783,
      "Accept": 5784,
      "knowingly": 5785,
      "remaining": 5786,
      "Everyone": 5787,
      "region": 5788,
      "victorious": 5789,
      "performed": 5790,
      "culty": 5791,
      "inspiration": 5792,
      "humiliation": 5793,
      "mouth": 5794,
      "Details": 5795,
      "ellip": 5796,
      "PATH": 5797,
      "MD5": 5798,
      "shelter": 5799,
      "compatible": 5800,
      "Action": 5801,
      "CP": 5802,
      "Its": 5803,
      "RW": 5804,
      "Rom": 5805,
      "Tur": 5806,
      "Ze": 5807,
      "gt": 5808,
      "sand": 5809,
      "uary": 5810,
      "thood": 5811,
      "bered": 5812,
      "mood": 5813,
      "Index": 5814,
      "boast": 5815,
      "misled": 5816,
      "Decre": 5817,
      "Adjust": 5818,
      "Restore": 5819,
      "witnessed": 5820,
      "Stay": 5821,
      "buf": 5822,
      "greeting": 5823,
      "tributed": 5824,
      "suppose": 5825,
      "searching": 5826,
      "Automatic": 5827,
      "Trace": 5828,
      "scriptures": 5829,
      "shoot": 5830,
      "quickly": 5831,
      "welcome": 5832,
      "Header": 5833,
      "Haman": 5834,
      "Activ": 5835,
      "rejoicing": 5836,
      "Fill": 5837,
      "Niles": 5838,
      "Pack": 5839,
      "cdr": 5840,
      "gree": 5841,
      "nature": 5842,
      "ral": 5843,
      "xic": 5844,
      "Wel": 5845,
      "amid": 5846,
      "frag": 5847,
      "ulate": 5848,
      "consume": 5849,
      "resort": 5850,
      "resource": 5851,
      "owners": 5852,
      "endous": 5853,
      "accompl": 5854,
      "hosp": 5855,
      "committing": 5856,
      "blank": 5857,
      "Forgive": 5858,
      "remendous": 5859,
      "Knowledge": 5860,
      "invited": 5861,
      "keeps": 5862,
      "receiving": 5863,
      "trustworthy": 5864,
      "hardened": 5865,
      "greed": 5866,
      "fasting": 5867,
      "expand": 5868,
      "Everything": 5869,
      "grows": 5870,
      "feeding": 5871,
      "Supreme": 5872,
      "Overwrite": 5873,
      "www": 5874,
      "encompassed": 5875,
      "Ignore": 5876,
      "'?": 5877,
      "300": 5878,
      "Another": 5879,
      "BA": 5880,
      "Blaze": 5881,
      "Count": 5882,
      "EP": 5883,
      "Ele": 5884,
      "MON": 5885,
      "Match": 5886,
      "Ru": 5887,
      "Wra": 5888,
      "zier": 5889,
      "resul": 5890,
      "lets": 5891,
      "comb": 5892,
      "focus": 5893,
      "whence": 5894,
      "agreed": 5895,
      "quite": 5896,
      "pless": 5897,
      "eving": 5898,
      "heavi": 5899,
      "common": 5900,
      "extension": 5901,
      "Forgiver": 5902,
      "umin": 5903,
      "acted": 5904,
      "repaid": 5905,
      "lightened": 5906,
      "remains": 5907,
      "interval": 5908,
      "paradise": 5909,
      "laws": 5910,
      "Fav": 5911,
      "surrendered": 5912,
      "feeling": 5913,
      "Starting": 5914,
      "spoils": 5915,
      "daughter": 5916,
      "Mike": 5917,
      "Connect": 5918,
      "shadows": 5919,
      "mockery": 5920,
      "Version": 5921,
      "shameful": 5922,
      "Rotation": 5923,
      "ganizer": 5924,
      "=\\\\\\\\{@}": 5925,
      "niggardly": 5926,
      "Quality": 5927,
      "!)": 5928,
      "Bet": 5929,
      "ITH": 5930,
      "Kal": 5931,
      "SSL": 5932,
      "Usage": 5933,
      "Vali": 5934,
      "bol": 5935,
      "farer": 5936,
      "glo": 5937,
      "kne": 5938,
      "ote": 5939,
      "rained": 5940,
      "encomp": 5941,
      "stuff": 5942,
      "superi": 5943,
      "exhort": 5944,
      "lope": 5945,
      "neck": 5946,
      "wayfarer": 5947,
      "percent": 5948,
      "ille": 5949,
      "Revel": 5950,
      "Program": 5951,
      "intend": 5952,
      "sheep": 5953,
      "holds": 5954,
      "burst": 5955,
      "properly": 5956,
      "polygon": 5957,
      "Clark": 5958,
      "Special": 5959,
      "printing": 5960,
      "animal": 5961,
      "immort": 5962,
      "sacrifi": 5963,
      "execute": 5964,
      "Small": 5965,
      "million": 5966,
      "adorned": 5967,
      "Visible": 5968,
      "examples": 5969,
      "fashioned": 5970,
      "%.": 5971,
      "Jinn": 5972,
      "Little": 5973,
      "Mom": 5974,
      "Pri": 5975,
      "Purity": 5976,
      "Sur": 5977,
      "ee": 5978,
      "pull": 5979,
      "rs": 5980,
      "stub": 5981,
      "forces": 5982,
      "depri": 5983,
      "verting": 5984,
      "chron": 5985,
      "altogether": 5986,
      "ila": 5987,
      "provisions": 5988,
      "poser": 5989,
      "enduring": 5990,
      "manual": 5991,
      "ively": 5992,
      "Forbearing": 5993,
      "Self": 5994,
      "partic": 5995,
      "Contact": 5996,
      "witched": 5997,
      "Engl": 5998,
      "picture": 5999,
      "visited": 6000,
      "passing": 6001,
      "devout": 6002,
      "cumb": 6003,
      "ashes": 6004,
      "painting": 6005,
      "honest": 6006,
      "ocabul": 6007,
      "Poly": 6008,
      "horizontal": 6009,
      "jobs": 6010,
      "separated": 6011,
      "beauty": 6012,
      "Apply": 6013,
      "Charact": 6014,
      "scatter": 6015,
      "practice": 6016,
      "Today": 6017,
      "Thomas": 6018,
      "English": 6019,
      "ocabulary": 6020,
      "Bit": 6021,
      "Cir": 6022,
      "IP": 6023,
      "UE": 6024,
      "Under": 6025,
      "WITH": 6026,
      "gest": 6027,
      "ris": 6028,
      "rod": 6029,
      "reproach": 6030,
      "atist": 6031,
      "tol": 6032,
      "bels": 6033,
      "iman": 6034,
      "alpha": 6035,
      "urance": 6036,
      "fright": 6037,
      "usually": 6038,
      "exit": 6039,
      "consult": 6040,
      "constell": 6041,
      "outside": 6042,
      "cave": 6043,
      "taqun": 6044,
      "...)": 6045,
      "overtaken": 6046,
      "Saying": 6047,
      "acting": 6048,
      "intention": 6049,
      "ifying": 6050,
      "crad": 6051,
      "waves": 6052,
      "bitch": 6053,
      "purity": 6054,
      "pressed": 6055,
      "bestows": 6056,
      "Sheet": 6057,
      "Grand": 6058,
      "drawing": 6059,
      "seeming": 6060,
      "Highlight": 6061,
      "Travel": 6062,
      "Support": 6063,
      "capacity": 6064,
      "neglected": 6065,
      "rules": 6066,
      "insolent": 6067,
      "itaire": 6068,
      "atural": 6069,
      "Muttaqun": 6070,
      "absence": 6071,
      "Welcome": 6072,
      "Afri": 6073,
      "Bas": 6074,
      "CC": 6075,
      "flam": 6076,
      "ivers": 6077,
      "zz": 6078,
      "onal": 6079,
      "attempt": 6080,
      "veil": 6081,
      "ilities": 6082,
      "suck": 6083,
      "race": 6084,
      "disci": 6085,
      "persevere": 6086,
      "vill": 6087,
      "plans": 6088,
      "overwhel": 6089,
      "observed": 6090,
      "aking": 6091,
      "compar": 6092,
      "harsh": 6093,
      "Chi": 6094,
      "lowest": 6095,
      "drown": 6096,
      "ounts": 6097,
      "Additional": 6098,
      "Checking": 6099,
      "stock": 6100,
      "learned": 6101,
      "profile": 6102,
      "Option": 6103,
      "Living": 6104,
      "ordinates": 6105,
      "sques": 6106,
      "original": 6107,
      "symbol": 6108,
      "storm": 6109,
      "revive": 6110,
      "PGP": 6111,
      "couple": 6112,
      "Slide": 6113,
      "definite": 6114,
      "BO": 6115,
      "EX": 6116,
      "Gree": 6117,
      "GUN": 6118,
      "Hard": 6119,
      "Iesa": 6120,
      "Language": 6121,
      "MS": 6122,
      "MIN": 6123,
      "Names": 6124,
      "Qar": 6125,
      "Sula": 6126,
      "pow": 6127,
      "sens": 6128,
      "vines": 6129,
      "revert": 6130,
      "omen": 6131,
      "stro": 6132,
      "idge": 6133,
      "united": 6134,
      "rival": 6135,
      "abst": 6136,
      "export": 6137,
      "olf": 6138,
      "overwrite": 6139,
      "Reckon": 6140,
      "invitation": 6141,
      "hinder": 6142,
      "CDs": 6143,
      "attend": 6144,
      "burg": 6145,
      "township": 6146,
      "archive": 6147,
      "Clipboard": 6148,
      "Quick": 6149,
      "clock": 6150,
      "deserve": 6151,
      "Praiseworthy": 6152,
      "daemon": 6153,
      "captives": 6154,
      "religious": 6155,
      "difficulty": 6156,
      "volume": 6157,
      "Expand": 6158,
      "Strike": 6159,
      "Build": 6160,
      "component": 6161,
      "inserted": 6162,
      "Sulaiman": 6163,
      "Bin": 6164,
      "Field": 6165,
      "Hal": 6166,
      "Kill": 6167,
      "Kore": 6168,
      "Mah": 6169,
      "MIME": 6170,
      "Random": 6171,
      "bare": 6172,
      "gains": 6173,
      "mas": 6174,
      "treach": 6175,
      "vation": 6176,
      "isy": 6177,
      "orts": 6178,
      "atom": 6179,
      "attra": 6180,
      "stal": 6181,
      "urge": 6182,
      "weap": 6183,
      "absolute": 6184,
      "convin": 6185,
      "condem": 6186,
      "feature": 6187,
      "lap": 6188,
      "pover": 6189,
      "mans": 6190,
      "causing": 6191,
      "denial": 6192,
      "Recent": 6193,
      "unders": 6194,
      "undoubtedly": 6195,
      "Execut": 6196,
      "reciting": 6197,
      "MEN": 6198,
      "directed": 6199,
      "claimed": 6200,
      "appears": 6201,
      "target": 6202,
      "silk": 6203,
      "attained": 6204,
      "Minimum": 6205,
      "columns": 6206,
      "treasure": 6207,
      "madness": 6208,
      "stories": 6209,
      "articles": 6210,
      "dependent": 6211,
      "tasted": 6212,
      "vegetation": 6213,
      "advantage": 6214,
      "Bé": 6215,
      "Ben": 6216,
      "Cell": 6217,
      "FOR": 6218,
      "Met": 6219,
      "Pix": 6220,
      "TA": 6221,
      "Title": 6222,
      "Uh": 6223,
      "clot": 6224,
      "east": 6225,
      "eager": 6226,
      "fled": 6227,
      "gro": 6228,
      "vs": 6229,
      "vag": 6230,
      "ories": 6231,
      "atic": 6232,
      "arc": 6233,
      "hallow": 6234,
      "usage": 6235,
      "shake": 6236,
      "maid": 6237,
      "proceed": 6238,
      "anyway": 6239,
      "pled": 6240,
      "brand": 6241,
      "wouldn": 6242,
      "illy": 6243,
      "Days": 6244,
      "Sets": 6245,
      "Also": 6246,
      "destined": 6247,
      "Chart": 6248,
      "breathed": 6249,
      "suffered": 6250,
      "OUN": 6251,
      "strikes": 6252,
      "purifies": 6253,
      "conds": 6254,
      "Artic": 6255,
      "priority": 6256,
      "ignore": 6257,
      "requital": 6258,
      "Americ": 6259,
      "retreat": 6260,
      "block": 6261,
      "terminal": 6262,
      "Writing": 6263,
      "intercessor": 6264,
      "flocks": 6265,
      "scales": 6266,
      "sync": 6267,
      "resolution": 6268,
      "sibility": 6269,
      "maximum": 6270,
      "explained": 6271,
      "Drag": 6272,
      "alignment": 6273,
      "rescued": 6274,
      "disdain": 6275,
      "Dialog": 6276,
      "hospital": 6277,
      "encompasses": 6278,
      "Africa": 6279,
      "90": 6280,
      "Actions": 6281,
      "Bel": 6282,
      "Mart": 6283,
      "Sad": 6284,
      "Tar": 6285,
      "].\"": 6286,
      "danger": 6287,
      "eks": 6288,
      "nie": 6289,
      "pas": 6290,
      "ani": 6291,
      "recomm": 6292,
      "tood": 6293,
      "opinion": 6294,
      "sooth": 6295,
      "tech": 6296,
      "canst": 6297,
      "somewhere": 6298,
      "Recall": 6299,
      "Reply": 6300,
      "obvious": 6301,
      "uding": 6302,
      "herein": 6303,
      "phethood": 6304,
      "maturity": 6305,
      "trace": 6306,
      "listened": 6307,
      "ileth": 6308,
      "bitter": 6309,
      "scour": 6310,
      "Cheese": 6311,
      "Serv": 6312,
      "hypocrisy": 6313,
      "watches": 6314,
      "Seek": 6315,
      "Firon": 6316,
      "growth": 6317,
      "arrogance": 6318,
      "inheritors": 6319,
      "carrying": 6320,
      "crazy": 6321,
      "geny": 6322,
      "numerous": 6323,
      "article": 6324,
      "nnn": 6325,
      "browser": 6326,
      "prohibited": 6327,
      "Thamood": 6328,
      "CHUCKLES": 6329,
      "AH": 6330,
      "Border": 6331,
      "Block": 6332,
      "Lower": 6333,
      "Pat": 6334,
      "Ron": 6335,
      "Scro": 6336,
      "ai": 6337,
      "averted": 6338,
      "push": 6339,
      "sad": 6340,
      "tremendous": 6341,
      "vast": 6342,
      "zilla": 6343,
      "seest": 6344,
      "verts": 6345,
      "ungod": 6346,
      "oppose": 6347,
      "meat": 6348,
      "meant": 6349,
      "shy": 6350,
      "progeny": 6351,
      "vie": 6352,
      "despaired": 6353,
      "blue": 6354,
      "Bookmark": 6355,
      "worshippers": 6356,
      "handheld": 6357,
      "bringing": 6358,
      "Comment": 6359,
      "minute": 6360,
      "scared": 6361,
      "Work": 6362,
      "Service": 6363,
      "inclined": 6364,
      "proclaimed": 6365,
      "jeel": 6366,
      "publ": 6367,
      "wandering": 6368,
      "CONTIN": 6369,
      "innocent": 6370,
      "atistics": 6371,
      ")],": 6372,
      "CAR": 6373,
      "DON": 6374,
      "Far": 6375,
      "HO": 6376,
      "Hath": 6377,
      "Lin": 6378,
      "Pra": 6379,
      "VIC": 6380,
      "bing": 6381,
      "dad": 6382,
      "eating": 6383,
      "hol": 6384,
      "ique": 6385,
      "bewitched": 6386,
      "aye": 6387,
      "degree": 6388,
      "verage": 6389,
      "imated": 6390,
      "Think": 6391,
      "ules": 6392,
      "experi": 6393,
      "ups": 6394,
      "disable": 6395,
      "thereto": 6396,
      "ources": 6397,
      "mosques": 6398,
      "launch": 6399,
      "Injeel": 6400,
      "believeth": 6401,
      "anymore": 6402,
      "olution": 6403,
      "serving": 6404,
      "desiring": 6405,
      "Form": 6406,
      "readable": 6407,
      "firms": 6408,
      "Alamin": 6409,
      "paths": 6410,
      "falling": 6411,
      "speaks": 6412,
      "privile": 6413,
      "Father": 6414,
      "relations": 6415,
      "relative": 6416,
      "voices": 6417,
      "Cooper": 6418,
      "seduce": 6419,
      "disputes": 6420,
      "Automatically": 6421,
      "Continue": 6422,
      "declared": 6423,
      "forbids": 6424,
      "sperm": 6425,
      "scripture": 6426,
      "Samba": 6427,
      "pository": 6428,
      "distinction": 6429,
      "foolish": 6430,
      "Copies": 6431,
      "neighb": 6432,
      "28": 6433,
      "BL": 6434,
      "Radi": 6435,
      "cas": 6436,
      "ju": 6437,
      "pound": 6438,
      "wing": 6439,
      "wages": 6440,
      "llar": 6441,
      "beasts": 6442,
      "vector": 6443,
      "wild": 6444,
      "forced": 6445,
      "Throw": 6446,
      "bution": 6447,
      "worn": 6448,
      "tacts": 6449,
      "reduce": 6450,
      "commits": 6451,
      "maketh": 6452,
      "intoxic": 6453,
      "rypt": 6454,
      "ensions": 6455,
      "pick": 6456,
      "subs": 6457,
      "tower": 6458,
      "preserve": 6459,
      "Descend": 6460,
      "regarded": 6461,
      "accordance": 6462,
      "include": 6463,
      "videos": 6464,
      "DOOR": 6465,
      "problems": 6466,
      "extravag": 6467,
      "Cursor": 6468,
      "circle": 6469,
      "circum": 6470,
      "variable": 6471,
      "Since": 6472,
      "consequences": 6473,
      "GROANS": 6474,
      "troop": 6475,
      "ellipse": 6476,
      "\"(": 6477,
      "Ax": 6478,
      "Cut": 6479,
      "Cave": 6480,
      "JU": 6481,
      "Kar": 6482,
      "KOffice": 6483,
      "Task": 6484,
      "dition": 6485,
      "eper": 6486,
      "eject": 6487,
      "oce": 6488,
      "wond": 6489,
      "anta": 6490,
      "begotten": 6491,
      "lex": 6492,
      "notification": 6493,
      "memor": 6494,
      "sovereignty": 6495,
      "exult": 6496,
      "dispers": 6497,
      "config": 6498,
      "configured": 6499,
      "outcome": 6500,
      "felt": 6501,
      "acing": 6502,
      "diverse": 6503,
      "sentence": 6504,
      "Rece": 6505,
      "wrought": 6506,
      "spare": 6507,
      "whereat": 6508,
      "Protocol": 6509,
      "authentication": 6510,
      "tribes": 6511,
      "rub": 6512,
      "barred": 6513,
      "ski": 6514,
      "services": 6515,
      "loads": 6516,
      "iger": 6517,
      "related": 6518,
      "URIs": 6519,
      "bookmarks": 6520,
      "REN": 6521,
      "produces": 6522,
      "connected": 6523,
      "Without": 6524,
      "covers": 6525,
      "Contents": 6526,
      "Pause": 6527,
      "humbly": 6528,
      "elements": 6529,
      "flags": 6530,
      "legal": 6531,
      "agreement": 6532,
      "slip": 6533,
      "balance": 6534,
      "smoke": 6535,
      "activate": 6536,
      "behavior": 6537,
      "Standard": 6538,
      "penitent": 6539,
      "Function": 6540,
      "slander": 6541,
      "eternally": 6542,
      "Channel": 6543,
      "Spring": 6544,
      "poverty": 6545,
      "Bézier": 6546,
      "scourge": 6547,
      "Cle": 6548,
      "DU": 6549,
      "Equ": 6550,
      "Ellen": 6551,
      "JO": 6552,
      "Module": 6553,
      "Sat": 6554,
      "TI": 6555,
      "Vari": 6556,
      "chas": 6557,
      "random": 6558,
      "ayb": 6559,
      "imize": 6560,
      "ctures": 6561,
      "external": 6562,
      "management": 6563,
      "cache": 6564,
      "History": 6565,
      "emigrated": 6566,
      "obli": 6567,
      "puts": 6568,
      "ization": 6569,
      "bringeth": 6570,
      "trade": 6571,
      "discs": 6572,
      "showing": 6573,
      "Disk": 6574,
      "ATOR": 6575,
      "Acqu": 6576,
      "blindly": 6577,
      "identity": 6578,
      "books": 6579,
      "thoughts": 6580,
      "2001": 6581,
      "surface": 6582,
      "Both": 6583,
      "concealed": 6584,
      "horiz": 6585,
      "installation": 6586,
      "confirmed": 6587,
      "confirmation": 6588,
      "beginning": 6589,
      "cups": 6590,
      "jection": 6591,
      "sometimes": 6592,
      "finger": 6593,
      "KSpread": 6594,
      "GUI": 6595,
      "plenty": 6596,
      "Software": 6597,
      ",]": 6598,
      ";\"": 6599,
      "Foc": 6600,
      "HERE": 6601,
      "Kind": 6602,
      "Ren": 6603,
      "TD": 6604,
      "aven": 6605,
      "aversion": 6606,
      "bility": 6607,
      "jr": 6608,
      "mes": 6609,
      "oil": 6610,
      "thi": 6611,
      "rebel": 6612,
      "seiz": 6613,
      "forts": 6614,
      "debu": 6615,
      "abiders": 6616,
      "ulations": 6617,
      "caption": 6618,
      "oker": 6619,
      "perpet": 6620,
      "trum": 6621,
      "plants": 6622,
      "acknow": 6623,
      "Doom": 6624,
      "giveness": 6625,
      "backend": 6626,
      "boot": 6627,
      "extent": 6628,
      "INE": 6629,
      "actual": 6630,
      "Enjoy": 6631,
      "poster": 6632,
      "ubic": 6633,
      "clicks": 6634,
      "friendship": 6635,
      "finish": 6636,
      "Theirs": 6637,
      "afflictive": 6638,
      "Glor": 6639,
      "modify": 6640,
      "adient": 6641,
      "Ready": 6642,
      "Hajj": 6643,
      "Specify": 6644,
      "GRUNTS": 6645,
      "GRUNTING": 6646,
      "LAUGHING": 6647,
      "Multiple": 6648,
      "Extension": 6649,
      "understood": 6650,
      "23": 6651,
      "80": 6652,
      "Cat": 6653,
      "Dev": 6654,
      "Ent": 6655,
      "Low": 6656,
      "SPE": 6657,
      "Ten": 6658,
      "Tal": 6659,
      "VI": 6660,
      "cat": 6661,
      "lation": 6662,
      "zation": 6663,
      "retain": 6664,
      "erved": 6665,
      "ater": 6666,
      "seat": 6667,
      "ascribed": 6668,
      "locked": 6669,
      "convers": 6670,
      "mosque": 6671,
      "grid": 6672,
      "describe": 6673,
      "compense": 6674,
      "haste": 6675,
      "Once": 6676,
      "recently": 6677,
      "Component": 6678,
      "leading": 6679,
      "changing": 6680,
      "relate": 6681,
      "Shift": 6682,
      "decis": 6683,
      "directly": 6684,
      "closing": 6685,
      "sincerely": 6686,
      "horses": 6687,
      "bowing": 6688,
      "touches": 6689,
      "divine": 6690,
      "panel": 6691,
      "rers": 6692,
      "depth": 6693,
      "starts": 6694,
      "intellig": 6695,
      "stretch": 6696,
      "developers": 6697,
      "Honour": 6698,
      "tranqu": 6699,
      "Reverse": 6700,
      "ministrator": 6701,
      "disciples": 6702,
      "Scroll": 6703,
      "AKING": 6704,
      "Dad": 6705,
      "Fit": 6706,
      "Gi": 6707,
      "Got": 6708,
      "XX": 6709,
      "fers": 6710,
      "zero": 6711,
      "anno": 6712,
      "environment": 6713,
      "offered": 6714,
      "beque": 6715,
      "sects": 6716,
      "haught": 6717,
      "itive": 6718,
      "stretched": 6719,
      "shun": 6720,
      "thereupon": 6721,
      "confound": 6722,
      "aggress": 6723,
      "rights": 6724,
      "ctional": 6725,
      "surety": 6726,
      "ciliation": 6727,
      "rench": 6728,
      "kingship": 6729,
      "trast": 6730,
      "recipi": 6731,
      "steal": 6732,
      "Stream": 6733,
      "Comput": 6734,
      "protecting": 6735,
      "scroll": 6736,
      "Manual": 6737,
      "Coll": 6738,
      "counted": 6739,
      "appropri": 6740,
      "ixed": 6741,
      "Folders": 6742,
      "wrap": 6743,
      "marked": 6744,
      "detailed": 6745,
      "Mailbox": 6746,
      "SHOU": 6747,
      "conveyed": 6748,
      "divorced": 6749,
      "smooth": 6750,
      "Banir": 6751,
      "vengeance": 6752,
      "satisfied": 6753,
      "Focus": 6754,
      "trumpet": 6755,
      "31": 6756,
      "Fort": 6757,
      "Nice": 6758,
      "Py": 6759,
      "Pages": 6760,
      "Rest": 6761,
      "Sing": 6762,
      "bula": 6763,
      "cod": 6764,
      "ky": 6765,
      "thin": 6766,
      "angry": 6767,
      "refr": 6768,
      "oul": 6769,
      "bequest": 6770,
      "omination": 6771,
      "decor": 6772,
      "willeth": 6773,
      "explan": 6774,
      "poses": 6775,
      "vient": 6776,
      "servient": 6777,
      "Recur": 6778,
      "cles": 6779,
      "cold": 6780,
      "evils": 6781,
      "kindred": 6782,
      "finds": 6783,
      "phrase": 6784,
      "remit": 6785,
      "subservient": 6786,
      "crush": 6787,
      "nake": 6788,
      "charitable": 6789,
      "concern": 6790,
      "lux": 6791,
      "Copyright": 6792,
      "sixth": 6793,
      "Creates": 6794,
      "Creating": 6795,
      "slaying": 6796,
      "revives": 6797,
      "popup": 6798,
      "iterion": 6799,
      "supporters": 6800,
      "realized": 6801,
      "restrain": 6802,
      "cookies": 6803,
      "Madyan": 6804,
      "entrusted": 6805,
      "heavily": 6806,
      "American": 6807,
      "1f": 6808,
      "GI": 6809,
      "Jon": 6810,
      "Kig": 6811,
      "Lou": 6812,
      "Lim": 6813,
      "Taf": 6814,
      "freed": 6815,
      "gine": 6816,
      "lend": 6817,
      "natural": 6818,
      "inflict": 6819,
      "isa": 6820,
      "ented": 6821,
      "Thread": 6822,
      "compet": 6823,
      "saver": 6824,
      "thereon": 6825,
      "loose": 6826,
      "contri": 6827,
      "perman": 6828,
      "athan": 6829,
      "servers": 6830,
      "Real": 6831,
      "Recompense": 6832,
      "certificates": 6833,
      "letters": 6834,
      "Login": 6835,
      "players": 6836,
      "entertain": 6837,
      "glass": 6838,
      "opening": 6839,
      "Organizer": 6840,
      "bull": 6841,
      "devised": 6842,
      "doubled": 6843,
      "Notes": 6844,
      "succession": 6845,
      "Design": 6846,
      "stopped": 6847,
      "Fran": 6848,
      "Code": 6849,
      "functions": 6850,
      "Serve": 6851,
      "expound": 6852,
      "Label": 6853,
      "habitations": 6854,
      "Paul": 6855,
      "culate": 6856,
      "animation": 6857,
      "infidel": 6858,
      "dao": 6859,
      "Cartr": 6860,
      "assembly": 6861,
      "brightness": 6862,
      "Strong": 6863,
      "suspic": 6864,
      "acquainted": 6865,
      "GROANING": 6866,
      "extremely": 6867,
      "Picture": 6868,
      "injury": 6869,
      "Profile": 6870,
      "condemned": 6871,
      "Acquainted": 6872,
      "appropriate": 6873,
      "3D": 6874,
      "49": 6875,
      "Abo": 6876,
      "DB": 6877,
      "Dup": 6878,
      "Isha": 6879,
      "Pick": 6880,
      "VS": 6881,
      "lists": 6882,
      "obe": 6883,
      "scor": 6884,
      "ystem": 6885,
      "rebe": 6886,
      "ister": 6887,
      "total": 6888,
      "lian": 6889,
      "forbearing": 6890,
      "forsake": 6891,
      "defer": 6892,
      "abort": 6893,
      "sical": 6894,
      "antic": 6895,
      "mble": 6896,
      "justified": 6897,
      "preference": 6898,
      "portents": 6899,
      "compensation": 6900,
      "mistake": 6901,
      "praying": 6902,
      "repri": 6903,
      "grapes": 6904,
      "curve": 6905,
      "internal": 6906,
      "entering": 6907,
      "climb": 6908,
      "News": 6909,
      "igno": 6910,
      "tales": 6911,
      "struggle": 6912,
      "rupt": 6913,
      "Saving": 6914,
      "attached": 6915,
      "delusion": 6916,
      "grieved": 6917,
      "elev": 6918,
      "busy": 6919,
      "distressed": 6920,
      "obligations": 6921,
      "munific": 6922,
      "restrained": 6923,
      "slaughter": 6924,
      "fellows": 6925,
      "Divinity": 6926,
      "iniqu": 6927,
      "Summary": 6928,
      "govern": 6929,
      "Reckoning": 6930,
      "rebelled": 6931,
      "CI": 6932,
      "Glo": 6933,
      "HIM": 6934,
      "KWord": 6935,
      "Mor": 6936,
      "Ri": 6937,
      "Win": 6938,
      "Wiz": 6939,
      "Zach": 6940,
      "Zak": 6941,
      "furn": 6942,
      "fancy": 6943,
      "mi": 6944,
      "migrated": 6945,
      "sch": 6946,
      "wd": 6947,
      "xt": 6948,
      "inev": 6949,
      "erring": 6950,
      "endeth": 6951,
      "offi": 6952,
      "itably": 6953,
      "impatient": 6954,
      "amn": 6955,
      "unity": 6956,
      "units": 6957,
      "mak": 6958,
      "disaster": 6959,
      "confirms": 6960,
      "reserve": 6961,
      "earthquake": 6962,
      "Sovereignty": 6963,
      "wouldst": 6964,
      "hoard": 6965,
      "illust": 6966,
      "Refresh": 6967,
      "cally": 6968,
      "core": 6969,
      "whereupon": 6970,
      "hastened": 6971,
      "fullscreen": 6972,
      "ignomin": 6973,
      "torn": 6974,
      "Comp": 6975,
      "skies": 6976,
      "veloper": 6977,
      "concerned": 6978,
      "voys": 6979,
      "personal": 6980,
      "conscious": 6981,
      "systems": 6982,
      "corrupted": 6983,
      "Quit": 6984,
      "chains": 6985,
      "earns": 6986,
      "plotting": 6987,
      "tasks": 6988,
      "important": 6989,
      "COME": 6990,
      "failure": 6991,
      "sickness": 6992,
      "Fullscreen": 6993,
      "matching": 6994,
      "Objects": 6995,
      "supporter": 6996,
      "supports": 6997,
      "honorable": 6998,
      "digits": 6999,
      "settlement": 7000,
      "fingers": 7001,
      "Position": 7002,
      "hopes": 7003,
      "Mission": 7004,
      "Herald": 7005,
      "tips": 7006,
      "miserable": 7007,
      "Ident": 7008,
      "ulsion": 7009,
      "cumbent": 7010,
      "Ronnie": 7011,
      "Tafsir": 7012,
      "Wizard": 7013,
      "Bur": 7014,
      "Fall": 7015,
      "Hidden": 7016,
      "Mill": 7017,
      "Sn": 7018,
      "]:": 7019,
      "cd": 7020,
      "cm": 7021,
      "catch": 7022,
      "han": 7023,
      "ots": 7024,
      "sworn": 7025,
      "wound": 7026,
      "inf": 7027,
      "incumbent": 7028,
      "befriend": 7029,
      "ingu": 7030,
      "lip": 7031,
      "forsa": 7032,
      "weeks": 7033,
      "amp": 7034,
      "dost": 7035,
      "rocks": 7036,
      "abomination": 7037,
      "kets": 7038,
      "update": 7039,
      "disgra": 7040,
      "resist": 7041,
      "seless": 7042,
      "grab": 7043,
      "mayest": 7044,
      "dictionary": 7045,
      "serpent": 7046,
      "Ourselves": 7047,
      "hearken": 7048,
      "likewise": 7049,
      "punishes": 7050,
      "tyrant": 7051,
      "spell": 7052,
      "Lock": 7053,
      "United": 7054,
      "ppp": 7055,
      "Confirm": 7056,
      "reports": 7057,
      "crow": 7058,
      "chool": 7059,
      "minal": 7060,
      "burnt": 7061,
      "generic": 7062,
      "difference": 7063,
      "Quanta": 7064,
      "reality": 7065,
      "Bliss": 7066,
      "wrapped": 7067,
      "moder": 7068,
      "ibility": 7069,
      "responsibility": 7070,
      "repel": 7071,
      "RAM": 7072,
      "Keyboard": 7073,
      "variance": 7074,
      "entirely": 7075,
      "travelled": 7076,
      "Rotate": 7077,
      "radio": 7078,
      "Skip": 7079,
      "songs": 7080,
      "gambling": 7081,
      "Brice": 7082,
      "Delay": 7083,
      "achievement": 7084,
      "Scheme": 7085,
      "Analysing": 7086,
      "results": 7087,
      "CONTINUES": 7088,
      "JUST": 7089,
      "Franck": 7090,
      "27": 7091,
      "Aust": 7092,
      "FIT": 7093,
      "French": 7094,
      "Gnu": 7095,
      "Mac": 7096,
      "Son": 7097,
      "];": 7098,
      "apt": 7099,
      "loud": 7100,
      "rout": 7101,
      "rous": 7102,
      "revenge": 7103,
      "estern": 7104,
      "stages": 7105,
      "Allows": 7106,
      "dos": 7107,
      "mast": 7108,
      "faction": 7109,
      "therefor": 7110,
      "qub": 7111,
      "quot": 7112,
      "perdition": 7113,
      "spaces": 7114,
      "bosom": 7115,
      "pregn": 7116,
      "extend": 7117,
      "Prostrate": 7118,
      "Forgiveness": 7119,
      "Bookmarks": 7120,
      "intense": 7121,
      "mightier": 7122,
      "shell": 7123,
      "older": 7124,
      "accuse": 7125,
      "calm": 7126,
      "keepers": 7127,
      "chastity": 7128,
      "devices": 7129,
      "drives": 7130,
      "availed": 7131,
      "falsely": 7132,
      "occup": 7133,
      "distant": 7134,
      "Victor": 7135,
      "disputing": 7136,
      "planned": 7137,
      "communities": 7138,
      "Guide": 7139,
      "burdened": 7140,
      "Speak": 7141,
      "beneficent": 7142,
      "descends": 7143,
      "arrogantly": 7144,
      "multiplied": 7145,
      "reshold": 7146,
      "(*.": 7147,
      "advise": 7148,
      "advanced": 7149,
      "Majesty": 7150,
      "LAUGHS": 7151,
      "Encrypt": 7152,
      "collection": 7153,
      "Promise": 7154,
      "buffer": 7155,
      "Valid": 7156,
      "cradle": 7157,
      "definitely": 7158,
      "mansions": 7159,
      "ungodly": 7160,
      "1200": 7161,
      "Buddy": 7162,
      "Cher": 7163,
      "GB": 7164,
      "Pac": 7165,
      "Que": 7166,
      "WAR": 7167,
      "fy": 7168,
      "frequ": 7169,
      "gently": 7170,
      "ih": 7171,
      "ja": 7172,
      "py": 7173,
      "vir": 7174,
      "inah": 7175,
      "enlight": 7176,
      "tot": 7177,
      "esca": 7178,
      "liked": 7179,
      "devis": 7180,
      "improve": 7181,
      "doeth": 7182,
      "terday": 7183,
      "mali": 7184,
      "logy": 7185,
      "conferred": 7186,
      "cret": 7187,
      "creed": 7188,
      "wash": 7189,
      "oking": 7190,
      "Internal": 7191,
      "iced": 7192,
      "Request": 7193,
      "guiding": 7194,
      "sinner": 7195,
      "couldn": 7196,
      "rule": 7197,
      "phon": 7198,
      "destitute": 7199,
      "diff": 7200,
      "Parame": 7201,
      "Yellow": 7202,
      "guards": 7203,
      "forbade": 7204,
      "grew": 7205,
      "paying": 7206,
      "tributes": 7207,
      "model": 7208,
      "meanings": 7209,
      "spreading": 7210,
      "confused": 7211,
      "bondman": 7212,
      "accessible": 7213,
      "situ": 7214,
      "LDAP": 7215,
      "adopt": 7216,
      "despised": 7217,
      "straitened": 7218,
      "ancest": 7219,
      "Grayscale": 7220,
      "stairs": 7221,
      "fluid": 7222,
      "fraud": 7223,
      "Revelation": 7224,
      "attractive": 7225,
      "36": 7226,
      "Active": 7227,
      "Cast": 7228,
      "Dom": 7229,
      "Eject": 7230,
      "Fixed": 7231,
      "GStream": 7232,
      "KT": 7233,
      "Kex": 7234,
      "KNOW": 7235,
      "LING": 7236,
      "Rich": 7237,
      "Shad": 7238,
      "Virt": 7239,
      "WM": 7240,
      "chapter": 7241,
      "ds": 7242,
      "oid": 7243,
      "zes": 7244,
      "behave": 7245,
      "sect": 7246,
      "omb": 7247,
      "legs": 7248,
      "assa": 7249,
      "shining": 7250,
      "...\"": 7251,
      "prolong": 7252,
      "poet": 7253,
      "Incre": 7254,
      "Incl": 7255,
      "ometry": 7256,
      "accursed": 7257,
      "apes": 7258,
      "Reload": 7259,
      "wards": 7260,
      "causeth": 7261,
      "blah": 7262,
      "Unread": 7263,
      "phy": 7264,
      "listed": 7265,
      "thrust": 7266,
      "Street": 7267,
      "Absolute": 7268,
      "pleasant": 7269,
      "minimum": 7270,
      "THIS": 7271,
      "doubts": 7272,
      "morn": 7273,
      "Area": 7274,
      "occas": 7275,
      "Wells": 7276,
      "OpenPGP": 7277,
      "clothing": 7278,
      "deceit": 7279,
      "fuckin": 7280,
      "recognise": 7281,
      "tabs": 7282,
      "temptation": 7283,
      "begins": 7284,
      "originates": 7285,
      "plugins": 7286,
      "departed": 7287,
      "miracle": 7288,
      "lords": 7289,
      "calculates": 7290,
      "nuclear": 7291,
      "substance": 7292,
      "abandoned": 7293,
      "thunderbol": 7294,
      "Depth": 7295,
      "exclusively": 7296,
      "BLOCK": 7297,
      "recommended": 7298,
      "privileges": 7299,
      "annoy": 7300,
      "ancestors": 7301,
      "GStreamer": 7302,
      "Kexi": 7303,
      ")].": 7304,
      "Bro": 7305,
      "CL": 7306,
      "Cong": 7307,
      "GAS": 7308,
      "Gpg": 7309,
      "Ita": 7310,
      "KOrganizer": 7311,
      "Sab": 7312,
      "Till": 7313,
      "dimin": 7314,
      "fitting": 7315,
      "poured": 7316,
      "scri": 7317,
      "scr": 7318,
      "sites": 7319,
      "wave": 7320,
      "rear": 7321,
      "reput": 7322,
      "hey": 7323,
      "stud": 7324,
      "lif": 7325,
      "assert": 7326,
      "contr": 7327,
      "mocking": 7328,
      "trodu": 7329,
      "indul": 7330,
      "nels": 7331,
      "rescue": 7332,
      "lax": 7333,
      "ishes": 7334,
      "affection": 7335,
      "apparent": 7336,
      "ressed": 7337,
      "Secret": 7338,
      "compact": 7339,
      "intercourse": 7340,
      "Order": 7341,
      "Abort": 7342,
      "tryst": 7343,
      "Produ": 7344,
      "buried": 7345,
      "Filename": 7346,
      "Images": 7347,
      "supplic": 7348,
      "Sale": 7349,
      "smite": 7350,
      "including": 7351,
      "pasture": 7352,
      "Nebula": 7353,
      "abundantly": 7354,
      "merch": 7355,
      "periods": 7356,
      "obligation": 7357,
      "maintainer": 7358,
      "Originator": 7359,
      "Alignment": 7360,
      "whisper": 7361,
      "murder": 7362,
      "imagine": 7363,
      "ivalent": 7364,
      "defeat": 7365,
      "Merge": 7366,
      "Repeat": 7367,
      "fifth": 7368,
      "controls": 7369,
      "endeav": 7370,
      "fountains": 7371,
      "illegal": 7372,
      "horizon": 7373,
      "SPEAKING": 7374,
      "GnuPG": 7375,
      ")!\"": 7376,
      "75": 7377,
      "Ais": 7378,
      "Ber": 7379,
      "Fast": 7380,
      "Five": 7381,
      "Hang": 7382,
      "Nep": 7383,
      "Omn": 7384,
      "Pardon": 7385,
      "cate": 7386,
      "ere": 7387,
      "ff": 7388,
      "hiding": 7389,
      "oon": 7390,
      "rose": 7391,
      "school": 7392,
      "vocabulary": 7393,
      "arbit": 7394,
      "heap": 7395,
      "wiz": 7396,
      "forgave": 7397,
      "idle": 7398,
      "raph": 7399,
      "shower": 7400,
      "outstri": 7401,
      "labels": 7402,
      "agraph": 7403,
      "usted": 7404,
      "acious": 7405,
      "download": 7406,
      "Religion": 7407,
      "boss": 7408,
      "obst": 7409,
      "whereby": 7410,
      "INT": 7411,
      "Being": 7412,
      "helping": 7413,
      "waters": 7414,
      "untu": 7415,
      "atio": 7416,
      "addition": 7417,
      "gins": 7418,
      "invoked": 7419,
      "DER": 7420,
      "Art": 7421,
      "attent": 7422,
      "ocate": 7423,
      "inscribed": 7424,
      "spending": 7425,
      "OpenGL": 7426,
      "truthfulness": 7427,
      "Client": 7428,
      "ESS": 7429,
      "Space": 7430,
      "purer": 7431,
      "bowed": 7432,
      "Solitaire": 7433,
      "declar": 7434,
      "seemed": 7435,
      "immed": 7436,
      "automatic": 7437,
      "Through": 7438,
      "Printing": 7439,
      "extract": 7440,
      "igrants": 7441,
      "Curve": 7442,
      "crashed": 7443,
      "previously": 7444,
      "celets": 7445,
      "Modify": 7446,
      "adultery": 7447,
      "persecution": 7448,
      "precise": 7449,
      "Archive": 7450,
      "constellation": 7451,
      "maidens": 7452,
      "Honourable": 7453,
      "Louis": 7454,
      "ignored": 7455,
      "munificence": 7456,
      "merchand": 7457,
      "Bear": 7458,
      "Den": 7459,
      "FA": 7460,
      "FF": 7461,
      "HER": 7462,
      "Hmm": 7463,
      "Swan": 7464,
      "WO": 7465,
      "_Discard": 7466,
      "hill": 7467,
      "jid": 7468,
      "lit": 7469,
      "sme": 7470,
      "beg": 7471,
      "velope": 7472,
      "heir": 7473,
      "heet": 7474,
      "wire": 7475,
      "stated": 7476,
      "decent": 7477,
      "assume": 7478,
      "ahman": 7479,
      "immor": 7480,
      "afford": 7481,
      "overlook": 7482,
      "ipedia": 7483,
      "prefix": 7484,
      "caller": 7485,
      "Provid": 7486,
      "Degrees": 7487,
      "Enough": 7488,
      "remem": 7489,
      "thinks": 7490,
      "runs": 7491,
      "ART": 7492,
      "Fax": 7493,
      "freely": 7494,
      "projects": 7495,
      "optional": 7496,
      "solved": 7497,
      "require": 7498,
      "CKS": 7499,
      "draws": 7500,
      "ITY": 7501,
      "hurry": 7502,
      "fourth": 7503,
      "hastening": 7504,
      "confess": 7505,
      "sounds": 7506,
      "Backend": 7507,
      "Geo": 7508,
      "IMAP": 7509,
      "cells": 7510,
      "succeeded": 7511,
      "Distri": 7512,
      "Effects": 7513,
      "Operation": 7514,
      "plots": 7515,
      "alternation": 7516,
      "weeping": 7517,
      "Brend": 7518,
      "crucify": 7519,
      "booty": 7520,
      "HotSync": 7521,
      "milk": 7522,
      "knees": 7523,
      "Descendants": 7524,
      "posterity": 7525,
      "devising": 7526,
      "merchandise": 7527,
      "Ger": 7528,
      "Medium": 7529,
      "NG": 7530,
      "Qt": 7531,
      "Sust": 7532,
      "Shar": 7533,
      "SING": 7534,
      "Wi": 7535,
      "].’": 7536,
      "bent": 7537,
      "bits": 7538,
      "bile": 7539,
      "honey": 7540,
      "jor": 7541,
      "miles": 7542,
      "naked": 7543,
      "pred": 7544,
      "tears": 7545,
      "tender": 7546,
      "wate": 7547,
      "inqu": 7548,
      "reta": 7549,
      "lli": 7550,
      "online": 7551,
      "amuse": 7552,
      "abased": 7553,
      "opposite": 7554,
      "suit": 7555,
      "super": 7556,
      "raging": 7557,
      "goble": 7558,
      "necked": 7559,
      "Inte": 7560,
      "plun": 7561,
      "division": 7562,
      "Really": 7563,
      "mense": 7564,
      "ithm": 7565,
      "Forced": 7566,
      "Unless": 7567,
      "Begin": 7568,
      "stands": 7569,
      "Alphon": 7570,
      "State": 7571,
      "invents": 7572,
      "bargain": 7573,
      "breathe": 7574,
      "equivalent": 7575,
      "Frame": 7576,
      "solve": 7577,
      "Points": 7578,
      "decrease": 7579,
      "termine": 7580,
      "supplicate": 7581,
      "statements": 7582,
      "ROAD": 7583,
      "records": 7584,
      "walks": 7585,
      "multitude": 7586,
      "dealing": 7587,
      "splend": 7588,
      "chain": 7589,
      "Neg": 7590,
      "wickedness": 7591,
      "repeated": 7592,
      "cross": 7593,
      "deafness": 7594,
      "perceived": 7595,
      "sleeping": 7596,
      "afflu": 7597,
      "Sorbon": 7598,
      "constantly": 7599,
      "graphic": 7600,
      "mixed": 7601,
      "bracelets": 7602,
      "Distance": 7603,
      "Decision": 7604,
      "brief": 7605,
      "drove": 7606,
      "Volume": 7607,
      "comprehend": 7608,
      "Foundation": 7609,
      "reduced": 7610,
      "reconciliation": 7611,
      "swore": 7612,
      "deprived": 7613,
      "Greely": 7614,
      "extravagant": 7615,
      "dispersed": 7616,
      "bequeathed": 7617,
      "explanation": 7618,
      "Alphonse": 7619,
      "Sorbonne": 7620,
      "\"-": 7621,
      "32": 7622,
      "59": 7623,
      "Cha": 7624,
      "Fu": 7625,
      "Jam": 7626,
      "Kr": 7627,
      "Mother": 7628,
      "Mine": 7629,
      "Pot": 7630,
      "Rahman": 7631,
      "Scor": 7632,
      "Tim": 7633,
      "bought": 7634,
      "dar": 7635,
      "eternal": 7636,
      "hri": 7637,
      "lah": 7638,
      "pse": 7639,
      "vic": 7640,
      "aning": 7641,
      "outer": 7642,
      "atl": 7643,
      "whil": 7644,
      "itudes": 7645,
      "wipe": 7646,
      "impu": 7647,
      "idire": 7648,
      "unclean": 7649,
      "administrator": 7650,
      "pel": 7651,
      "exha": 7652,
      "shaped": 7653,
      "shire": 7654,
      "disposed": 7655,
      "losing": 7656,
      "plates": 7657,
      "engaged": 7658,
      "wool": 7659,
      "herself": 7660,
      "putting": 7661,
      "leting": 7662,
      "Convert": 7663,
      "calumn": 7664,
      "transg": 7665,
      "ifications": 7666,
      "rejects": 7667,
      "THING": 7668,
      "lawy": 7669,
      "repented": 7670,
      "decimal": 7671,
      "sunrise": 7672,
      "Saver": 7673,
      "realise": 7674,
      "inherited": 7675,
      "Preferences": 7676,
      "oppression": 7677,
      "Anyone": 7678,
      "Cornel": 7679,
      "Detect": 7680,
      "slaughtered": 7681,
      "preaching": 7682,
      "Indian": 7683,
      "sibly": 7684,
      "deemed": 7685,
      "lusts": 7686,
      "ranged": 7687,
      "incurred": 7688,
      "ilaha": 7689,
      "Radius": 7690,
      "troops": 7691,
      "Virtual": 7692,
      "whilst": 7693,
      "impugn": 7694,
      "idirectional": 7695,
      ";...)": 7696,
      "Baby": 7697,
      "Chapter": 7698,
      "DTD": 7699,
      "Hank": 7700,
      "Item": 7701,
      "Map": 7702,
      "ihad": 7703,
      "liness": 7704,
      "mitting": 7705,
      "oter": 7706,
      "pace": 7707,
      "qam": 7708,
      "rit": 7709,
      "wro": 7710,
      "ato": 7711,
      "youths": 7712,
      "itter": 7713,
      "stiff": 7714,
      "aloud": 7715,
      "wholly": 7716,
      "doctor": 7717,
      "comment": 7718,
      "shaken": 7719,
      "shed": 7720,
      "fax": 7721,
      "factions": 7722,
      "loy": 7723,
      "construct": 7724,
      "ously": 7725,
      "plant": 7726,
      "Second": 7727,
      "forms": 7728,
      "repay": 7729,
      "subd": 7730,
      "contend": 7731,
      "context": 7732,
      "adds": 7733,
      "Meem": 7734,
      "transport": 7735,
      "trusts": 7736,
      "ARE": 7737,
      "honored": 7738,
      "viewer": 7739,
      "Filters": 7740,
      "Scriptures": 7741,
      "Tech": 7742,
      "surpr": 7743,
      "Upload": 7744,
      "Clutter": 7745,
      "countdown": 7746,
      "honourably": 7747,
      "URLs": 7748,
      "html": 7749,
      "swallowed": 7750,
      "patron": 7751,
      "Likewise": 7752,
      "pardoned": 7753,
      "responding": 7754,
      "originated": 7755,
      "SOME": 7756,
      "thirds": 7757,
      "population": 7758,
      "assemble": 7759,
      "detected": 7760,
      "borne": 7761,
      "narr": 7762,
      "quarrel": 7763,
      "retrieve": 7764,
      "Opacity": 7765,
      "cancel": 7766,
      "Large": 7767,
      "OUND": 7768,
      "wonders": 7769,
      "pregnant": 7770,
      "totally": 7771,
      "declaration": 7772,
      "Avail": 7773,
      "CVS": 7774,
      "DN": 7775,
      "Eyes": 7776,
      "Fet": 7777,
      "Krypt": 7778,
      "MM": 7779,
      "Prep": 7780,
      "Smo": 7781,
      "Sure": 7782,
      "Side": 7783,
      "Zod": 7784,
      "ale": 7785,
      "bah": 7786,
      "bidden": 7787,
      "dump": 7788,
      "fati": 7789,
      "hun": 7790,
      "nes": 7791,
      "ost": 7792,
      "pto": 7793,
      "swell": 7794,
      "scar": 7795,
      "til": 7796,
      "tight": 7797,
      "info": 7798,
      "istol": 7799,
      "envy": 7800,
      "token": 7801,
      "begg": 7802,
      "wik": 7803,
      "sting": 7804,
      "forman": 7805,
      "enting": 7806,
      "ims": 7807,
      "iri": 7808,
      "rope": 7809,
      "adjust": 7810,
      "shared": 7811,
      "ico": 7812,
      "Node": 7813,
      "evol": 7814,
      "Requ": 7815,
      "),-": 7816,
      "blamed": 7817,
      "strung": 7818,
      "efforts": 7819,
      "helps": 7820,
      "Extra": 7821,
      "Stars": 7822,
      "filesystem": 7823,
      "strict": 7824,
      "reaching": 7825,
      "respited": 7826,
      "bury": 7827,
      "lider": 7828,
      "Shut": 7829,
      "directories": 7830,
      "ogle": 7831,
      "complex": 7832,
      "Vika": 7833,
      "presently": 7834,
      "hearted": 7835,
      "breaks": 7836,
      "umbna": 7837,
      "BELL": 7838,
      "tools": 7839,
      "Kontact": 7840,
      "COM": 7841,
      "approaches": 7842,
      "WHO": 7843,
      "sequence": 7844,
      "titlebar": 7845,
      "webcam": 7846,
      "copied": 7847,
      "adopted": 7848,
      "fetters": 7849,
      "YEAH": 7850,
      "turneth": 7851,
      "imagined": 7852,
      "Walshy": 7853,
      "defeated": 7854,
      "Estimated": 7855,
      "Wallet": 7856,
      "kinsmen": 7857,
      "Storm": 7858,
      "machine": 7859,
      "superior": 7860,
      "treacherous": 7861,
      "convinced": 7862,
      "Article": 7863,
      "experience": 7864,
      "Saleh": 7865,
      "watered": 7866,
      "Krypton": 7867,
      "500": 7868,
      ":\"": 7869,
      "Ak": 7870,
      "Od": 7871,
      "Tu": 7872,
      "_Keep": 7873,
      "bite": 7874,
      "cca": 7875,
      "gif": 7876,
      "hides": 7877,
      "sow": 7878,
      "sink": 7879,
      "replaced": 7880,
      "llo": 7881,
      "arily": 7882,
      "nobles": 7883,
      "uries": 7884,
      "rix": 7885,
      "thern": 7886,
      "meta": 7887,
      "faire": 7888,
      "goal": 7889,
      "distributed": 7890,
      "locks": 7891,
      "locally": 7892,
      "concl": 7893,
      "indi": 7894,
      "feareth": 7895,
      "pointer": 7896,
      "sic": 7897,
      "isher": 7898,
      "Dollar": 7899,
      "Ours": 7900,
      "spin": 7901,
      "spite": 7902,
      "Sea": 7903,
      "asks": 7904,
      "lifeless": 7905,
      "Beha": 7906,
      "Contain": 7907,
      "Statistics": 7908,
      "Method": 7909,
      "Mushri": 7910,
      "mustered": 7911,
      "gaze": 7912,
      "sedu": 7913,
      "modem": 7914,
      "regards": 7915,
      "2003": 7916,
      "Launch": 7917,
      "Graph": 7918,
      "spot": 7919,
      "Content": 7920,
      "confusion": 7921,
      "virtual": 7922,
      "desktops": 7923,
      "izontally": 7924,
      "doomed": 7925,
      "ordinance": 7926,
      "RADI": 7927,
      "Reading": 7928,
      "aunts": 7929,
      "Syntax": 7930,
      "responded": 7931,
      "executable": 7932,
      "madman": 7933,
      "captured": 7934,
      "threatened": 7935,
      "\";\"": 7936,
      "yesterday": 7937,
      "mortals": 7938,
      "practise": 7939,
      "SVCD": 7940,
      "insolence": 7941,
      "hoping": 7942,
      "Encryption": 7943,
      "Personal": 7944,
      "relationship": 7945,
      "rehearsed": 7946,
      "cdrdao": 7947,
      "Wrath": 7948,
      "immortal": 7949,
      "Half": 7950,
      "weapons": 7951,
      "ocean": 7952,
      "Global": 7953,
      "Zachari": 7954,
      "ROADBLOCK": 7955,
      "Negative": 7956,
      "Available": 7957,
      "Cent": 7958,
      "CALL": 7959,
      "Dig": 7960,
      "Duration": 7961,
      "Damn": 7962,
      "FR": 7963,
      "Joe": 7964,
      "Lout": 7965,
      "Nathan": 7966,
      "Pop": 7967,
      "Paint": 7968,
      "TV": 7969,
      "Tiger": 7970,
      "Zakat": 7971,
      "ffle": 7972,
      "hid": 7973,
      "hrase": 7974,
      "kHyper": 7975,
      "len": 7976,
      "nah": 7977,
      "nur": 7978,
      "null": 7979,
      "schedul": 7980,
      "zoom": 7981,
      "repository": 7982,
      "erates": 7983,
      "beat": 7984,
      "ingrate": 7985,
      "ingrat": 7986,
      "wiki": 7987,
      "forty": 7988,
      "chart": 7989,
      "imprison": 7990,
      "owe": 7991,
      "Though": 7992,
      "members": 7993,
      "conse": 7994,
      "mot": 7995,
      "residence": 7996,
      "etric": 7997,
      "foremost": 7998,
      "caught": 7999,
      "teous": 8000,
      "ically": 8001,
      "perfected": 8002,
      "dict": 8003,
      "dign": 8004,
      "overtakes": 8005,
      "istan": 8006,
      "plet": 8007,
      "shouldst": 8008,
      "irect": 8009,
      "portent": 8010,
      "intent": 8011,
      "greatly": 8012,
      "prays": 8013,
      "ultimate": 8014,
      "Already": 8015,
      "interface": 8016,
      "colour": 8017,
      "market": 8018,
      "addresses": 8019,
      "Brand": 8020,
      "cured": 8021,
      "carries": 8022,
      "applied": 8023,
      "Mankind": 8024,
      "ATTER": 8025,
      "plainly": 8026,
      "Grant": 8027,
      "easily": 8028,
      "supply": 8029,
      "Attribute": 8030,
      "AtkHyper": 8031,
      "delivers": 8032,
      "treated": 8033,
      "cleanse": 8034,
      "silent": 8035,
      "Helper": 8036,
      "structure": 8037,
      "Harley": 8038,
      "walls": 8039,
      "straying": 8040,
      "Interface": 8041,
      "shortcut": 8042,
      "determines": 8043,
      "printers": 8044,
      "arrival": 8045,
      "Direction": 8046,
      "Handheld": 8047,
      "Diagram": 8048,
      "String": 8049,
      "biggest": 8050,
      "Terminal": 8051,
      "investig": 8052,
      "explains": 8053,
      "TRAN": 8054,
      "sanctuary": 8055,
      "sorcerers": 8056,
      "PostScript": 8057,
      "quiet": 8058,
      "Changes": 8059,
      "highlighted": 8060,
      "Martin": 8061,
      "chased": 8062,
      "debugging": 8063,
      "Pacific": 8064,
      "ingratitude": 8065,
      "Bra": 8066,
      "Bob": 8067,
      "Billy": 8068,
      "Cu": 8069,
      "Case": 8070,
      "Cob": 8071,
      "DAY": 8072,
      "Diff": 8073,
      "Ly": 8074,
      "Old": 8075,
      "PL": 8076,
      "UL": 8077,
      "Um": 8078,
      "Year": 8079,
      "_Burn": 8080,
      "fs": 8081,
      "gained": 8082,
      "hin": 8083,
      "hills": 8084,
      "ium": 8085,
      "ipotent": 8086,
      "lon": 8087,
      "mart": 8088,
      "mass": 8089,
      "wings": 8090,
      "inward": 8091,
      "infli": 8092,
      "anot": 8093,
      "refer": 8094,
      "ouins": 8095,
      "sevent": 8096,
      "omy": 8097,
      "determine": 8098,
      "enters": 8099,
      "unbelieving": 8100,
      "river": 8101,
      "pets": 8102,
      "combo": 8103,
      "meal": 8104,
      "shades": 8105,
      "shine": 8106,
      "estival": 8107,
      "disperse": 8108,
      "conven": 8109,
      "contacts": 8110,
      "police": 8111,
      "cade": 8112,
      "prod": 8113,
      "affect": 8114,
      "Solid": 8115,
      "afternoon": 8116,
      "somebody": 8117,
      "extingu": 8118,
      "wrongs": 8119,
      "Unidirectional": 8120,
      "Cons": 8121,
      "reveals": 8122,
      "checking": 8123,
      "accounts": 8124,
      "crimes": 8125,
      "States": 8126,
      "sessions": 8127,
      "missed": 8128,
      "lten": 8129,
      "pression": 8130,
      "leader": 8131,
      "specifies": 8132,
      "generated": 8133,
      "insane": 8134,
      "tically": 8135,
      "solution": 8136,
      "Everybody": 8137,
      "polytheism": 8138,
      "Query": 8139,
      "guilt": 8140,
      "SIMON": 8141,
      "documentation": 8142,
      "habitation": 8143,
      "continuous": 8144,
      "gathering": 8145,
      "smaller": 8146,
      "Simple": 8147,
      "arrives": 8148,
      "exceeding": 8149,
      "Sarah": 8150,
      "threaten": 8151,
      "dying": 8152,
      "graphical": 8153,
      "Blessings": 8154,
      "kinship": 8155,
      "worthless": 8156,
      "Maintain": 8157,
      "binary": 8158,
      "retrieved": 8159,
      "thirsty": 8160,
      "warranty": 8161,
      "SCREAMING": 8162,
      "village": 8163,
      "abstain": 8164,
      "Linux": 8165,
      "Axis": 8166,
      "Glorified": 8167,
      "infidelity": 8168,
      "lifted": 8169,
      "Jamie": 8170,
      "calumny": 8171,
      "transgresses": 8172,
      "formance": 8173,
      "Behavior": 8174,
      ")'": 8175,
      "01": 8176,
      "48": 8177,
      "Amen": 8178,
      "Bow": 8179,
      "CAM": 8180,
      "CMY": 8181,
      "DTS": 8182,
      "HA": 8183,
      "Kate": 8184,
      "Mari": 8185,
      "Media": 8186,
      "Plot": 8187,
      "Tom": 8188,
      "Tower": 8189,
      "Vo": 8190,
      "_Help": 8191,
      "aim": 8192,
      "apo": 8193,
      "cure": 8194,
      "ij": 8195,
      "iblah": 8196,
      "kun": 8197,
      "lis": 8198,
      "lump": 8199,
      "nick": 8200,
      "ox": 8201,
      "vas": 8202,
      "yo": 8203,
      "thon": 8204,
      "rele": 8205,
      "restart": 8206,
      "references": 8207,
      "encies": 8208,
      "arrows": 8209,
      "itical": 8210,
      "heth": 8211,
      "omuk": 8212,
      "degrad": 8213,
      "fro": 8214,
      "geometry": 8215,
      "absent": 8216,
      "abilities": 8217,
      "shield": 8218,
      "whiche": 8219,
      "giance": 8220,
      "lots": 8221,
      "loving": 8222,
      "contrast": 8223,
      "molten": 8224,
      "forelock": 8225,
      "tags": 8226,
      "grind": 8227,
      "Nooh": 8228,
      "Whoa": 8229,
      "cling": 8230,
      "Progress": 8231,
      "strings": 8232,
      "coordinates": 8233,
      "clement": 8234,
      "timeout": 8235,
      "kindly": 8236,
      "Config": 8237,
      "womb": 8238,
      "Mujr": 8239,
      "prompt": 8240,
      "thyself": 8241,
      "Altern": 8242,
      "Engine": 8243,
      "recitation": 8244,
      "picked": 8245,
      "Resource": 8246,
      "parables": 8247,
      "Selects": 8248,
      "tells": 8249,
      "kills": 8250,
      "strives": 8251,
      "ieves": 8252,
      "general": 8253,
      "townships": 8254,
      "finite": 8255,
      "planning": 8256,
      "bookmark": 8257,
      "supplication": 8258,
      "counting": 8259,
      "approval": 8260,
      "victors": 8261,
      "connections": 8262,
      "breaking": 8263,
      "define": 8264,
      "Commander": 8265,
      "Observe": 8266,
      "Fore": 8267,
      "anguish": 8268,
      "paternal": 8269,
      "teaching": 8270,
      "HTTP": 8271,
      "conduit": 8272,
      "Draws": 8273,
      "slices": 8274,
      "SLATOR": 8275,
      "limited": 8276,
      "exceeded": 8277,
      "positions": 8278,
      "ratulations": 8279,
      "Browser": 8280,
      "browsing": 8281,
      "OFF": 8282,
      "Sky": 8283,
      "dedic": 8284,
      "intellect": 8285,
      "allegiance": 8286,
      "restricted": 8287,
      "adulte": 8288,
      "distinguished": 8289,
      "providers": 8290,
      "defiantly": 8291,
      "ambush": 8292,
      "conspire": 8293,
      "recline": 8294,
      "Favor": 8295,
      "Character": 8296,
      "perpetual": 8297,
      "Jonah": 8298,
      "government": 8299,
      "Nepomuk": 8300,
      "remembered": 8301,
      "subdued": 8302,
      "fatigue": 8303,
      "wikipedia": 8304,
      "RADIO": 8305,
      "Zachariah": 8306,
      "TRANSLATOR": 8307,
      "seventy": 8308,
      "whichever": 8309,
      "Mujrim": 8310,
      "TRANSLATORS": 8311,
      "!-": 8312,
      "?!": 8313,
      "Atom": 8314,
      "Blazing": 8315,
      "Easy": 8316,
      "Ite": 8317,
      "Icons": 8318,
      "Iqam": 8319,
      "Jaye": 8320,
      "KAlarm": 8321,
      "Mix": 8322,
      "OS": 8323,
      "OCR": 8324,
      "PD": 8325,
      "River": 8326,
      "Same": 8327,
      "Six": 8328,
      "Snake": 8329,
      "Uz": 8330,
      "WA": 8331,
      "Wood": 8332,
      "_TRANSLATORS": 8333,
      "aq": 8334,
      "aileth": 8335,
      "ec": 8336,
      "hmm": 8337,
      "ica": 8338,
      "rites": 8339,
      "tex": 8340,
      "vine": 8341,
      "zak": 8342,
      "ana": 8343,
      "rewritable": 8344,
      "isha": 8345,
      "isance": 8346,
      "espe": 8347,
      "beloved": 8348,
      "iters": 8349,
      "leep": 8350,
      "forge": 8351,
      "asser": 8352,
      "ahed": 8353,
      "imposed": 8354,
      "utility": 8355,
      "amass": 8356,
      "unexpected": 8357,
      "abject": 8358,
      "ilah": 8359,
      "opens": 8360,
      "raising": 8361,
      "shr": 8362,
      "upside": 8363,
      "distribute": 8364,
      "outward": 8365,
      "sie": 8366,
      "foreign": 8367,
      "affirm": 8368,
      "Moon": 8369,
      "illity": 8370,
      "signal": 8371,
      "plement": 8372,
      "emplo": 8373,
      "Separ": 8374,
      "excepting": 8375,
      "herit": 8376,
      "herald": 8377,
      "Therefor": 8378,
      "INCT": 8379,
      "Debug": 8380,
      "Example": 8381,
      "Envelope": 8382,
      "visits": 8383,
      "glance": 8384,
      "Meeting": 8385,
      "Anch": 8386,
      "Bristol": 8387,
      "equitable": 8388,
      "aided": 8389,
      "harmed": 8390,
      "drinks": 8391,
      "eaten": 8392,
      "finally": 8393,
      "Management": 8394,
      "LLING": 8395,
      "pleaseth": 8396,
      "conceived": 8397,
      "ROM": 8398,
      "corrupters": 8399,
      "approve": 8400,
      "programs": 8401,
      "befallen": 8402,
      "sounded": 8403,
      "Root": 8404,
      "Konsole": 8405,
      "imported": 8406,
      "floor": 8407,
      "happening": 8408,
      "resurrect": 8409,
      "resolved": 8410,
      "1999": 8411,
      "immediate": 8412,
      "Regular": 8413,
      "ISTINCT": 8414,
      "Madinah": 8415,
      "Shortcuts": 8416,
      "obtained": 8417,
      "Council": 8418,
      "healing": 8419,
      "restricts": 8420,
      "Joes": 8421,
      "emerge": 8422,
      "basis": 8423,
      "constraint": 8424,
      "Besides": 8425,
      "clothes": 8426,
      "JavaScript": 8427,
      "waxed": 8428,
      "FOV": 8429,
      "Package": 8430,
      "VICT": 8431,
      "JOE": 8432,
      "Variable": 8433,
      "oblivious": 8434,
      "iniquity": 8435,
      "forsaken": 8436,
      "wizard": 8437,
      "Cobra": 8438,
      "Mujrimun": 8439,
      "Items": 8440,
      "Iqamat": 8441,
      "especially": 8442,
      "\"--": 8443,
      "64": 8444,
      "Cy": 8445,
      "Clock": 8446,
      "DL": 8447,
      "Done": 8448,
      "Drop": 8449,
      "Elect": 8450,
      "Gal": 8451,
      "Ir": 8452,
      "Inder": 8453,
      "Ilah": 8454,
      "Lines": 8455,
      "Non": 8456,
      "Num": 8457,
      "OD": 8458,
      "SM": 8459,
      "Yo": 8460,
      "_OF": 8461,
      "athing": 8462,
      "cord": 8463,
      "cash": 8464,
      "dat": 8465,
      "dual": 8466,
      "fanci": 8467,
      "foul": 8468,
      "gpg": 8469,
      "rabb": 8470,
      "wers": 8471,
      "envelop": 8472,
      "atage": 8473,
      "itution": 8474,
      "veils": 8475,
      "ometric": 8476,
      "lime": 8477,
      "imation": 8478,
      "arent": 8479,
      "weary": 8480,
      "ams": 8481,
      "advis": 8482,
      "keeper": 8483,
      "exclaimed": 8484,
      "maculate": 8485,
      "shi": 8486,
      "estate": 8487,
      "gog": 8488,
      "disp": 8489,
      "conic": 8490,
      "constru": 8491,
      "knowest": 8492,
      "moil": 8493,
      "prits": 8494,
      "rightful": 8495,
      "gran": 8496,
      "grasp": 8497,
      "diagram": 8498,
      "engage": 8499,
      "override": 8500,
      "answers": 8501,
      "achi": 8502,
      "hamstrung": 8503,
      "preci": 8504,
      "preva": 8505,
      "stratage": 8506,
      "uel": 8507,
      "helpless": 8508,
      "kindle": 8509,
      "Too": 8510,
      "Exc": 8511,
      "Assemb": 8512,
      "traces": 8513,
      "accent": 8514,
      "huge": 8515,
      "drones": 8516,
      "drunk": 8517,
      "Mecca": 8518,
      "invites": 8519,
      "Gog": 8520,
      "belonged": 8521,
      "rectang": 8522,
      "receives": 8523,
      "Authentication": 8524,
      "freeing": 8525,
      "Team": 8526,
      "Righteous": 8527,
      "court": 8528,
      "RES": 8529,
      "ROLES": 8530,
      "Holly": 8531,
      "recording": 8532,
      "container": 8533,
      "Looks": 8534,
      "palace": 8535,
      "Christian": 8536,
      "chase": 8537,
      "UNI": 8538,
      "Geor": 8539,
      "onym": 8540,
      "Haram": 8541,
      "livestock": 8542,
      "flood": 8543,
      "dragged": 8544,
      "advised": 8545,
      "Others": 8546,
      "libraries": 8547,
      "Links": 8548,
      "neglectful": 8549,
      "snatch": 8550,
      "travelling": 8551,
      "Sinai": 8552,
      "POSE": 8553,
      "Columns": 8554,
      "season": 8555,
      "fools": 8556,
      "bidding": 8557,
      "compel": 8558,
      "turmoil": 8559,
      "thirst": 8560,
      "expiation": 8561,
      "Panel": 8562,
      "canceled": 8563,
      "pronounce": 8564,
      "reclining": 8565,
      "CPU": 8566,
      "Adjusts": 8567,
      "risk": 8568,
      "intelligence": 8569,
      "Single": 8570,
      "Increase": 8571,
      "Congratulations": 8572,
      "amusement": 8573,
      "prodig": 8574,
      "ahedron": 8575,
      "_OF_TRANSLATORS": 8576,
      "rabbis": 8577,
      "ROLES_OF_TRANSLATORS": 8578,
      "1st": 8579,
      "Cook": 8580,
      "Civ": 8581,
      "Es": 8582,
      "Fas": 8583,
      "FTP": 8584,
      "Huh": 8585,
      "Jour": 8586,
      "Ki": 8587,
      "OT": 8588,
      "Ple": 8589,
      "Som": 8590,
      "Squ": 8591,
      "Stru": 8592,
      "Schedul": 8593,
      "TAL": 8594,
      "WN": 8595,
      "buddy": 8596,
      "dir": 8597,
      "dress": 8598,
      "fare": 8599,
      "kn": 8600,
      "knot": 8601,
      "pone": 8602,
      "vow": 8603,
      "vot": 8604,
      "vows": 8605,
      "wolf": 8606,
      "inch": 8607,
      "inski": 8608,
      "relax": 8609,
      "editing": 8610,
      "seated": 8611,
      "forgets": 8612,
      "irl": 8613,
      "uri": 8614,
      "unks": 8615,
      "unwillingly": 8616,
      "allel": 8617,
      "rolled": 8618,
      "ada": 8619,
      "usable": 8620,
      "Gods": 8621,
      "socket": 8622,
      "shack": 8623,
      "confront": 8624,
      "fierce": 8625,
      "tscape": 8626,
      "lag": 8627,
      "caution": 8628,
      "evous": 8629,
      "sphrase": 8630,
      "signing": 8631,
      "clust": 8632,
      "specially": 8633,
      "followeth": 8634,
      "exception": 8635,
      "wheresoever": 8636,
      "Islands": 8637,
      "Condu": 8638,
      "Developer": 8639,
      "discord": 8640,
      "colours": 8641,
      "Magog": 8642,
      "favored": 8643,
      "invol": 8644,
      "domin": 8645,
      "Answer": 8646,
      "equity": 8647,
      "Arrow": 8648,
      "tests": 8649,
      "associating": 8650,
      "guarding": 8651,
      "headers": 8652,
      "mounted": 8653,
      "minded": 8654,
      "Frank": 8655,
      "hyper": 8656,
      "hostility": 8657,
      "Upgrade": 8658,
      "removes": 8659,
      "safely": 8660,
      "Glad": 8661,
      "touching": 8662,
      "culprits": 8663,
      "Tools": 8664,
      "Rock": 8665,
      "Sending": 8666,
      "WHY": 8667,
      "Beholder": 8668,
      "humiliated": 8669,
      "forwarded": 8670,
      "ICE": 8671,
      "oppressors": 8672,
      "capable": 8673,
      "legacy": 8674,
      "prisoners": 8675,
      "pagan": 8676,
      "captive": 8677,
      "pulled": 8678,
      "wonderful": 8679,
      "1440": 8680,
      "tradition": 8681,
      "substitute": 8682,
      "Opens": 8683,
      "distinguish": 8684,
      "located": 8685,
      "initialize": 8686,
      "SQL": 8687,
      "lodging": 8688,
      "Decree": 8689,
      "amidst": 8690,
      "Polygon": 8691,
      "rivals": 8692,
      "Korea": 8693,
      "neighbour": 8694,
      "SHOUTING": 8695,
      "Abode": 8696,
      "makers": 8697,
      "disgraced": 8698,
      "obstin": 8699,
      "Wipe": 8700,
      "Mushrikun": 8701,
      "marty": 8702,
      "%%": 8703,
      "26": 8704,
      "33": 8705,
      "Air": 8706,
      "BD": 8707,
      "Bak": 8708,
      "CSS": 8709,
      "Dar": 8710,
      "Flip": 8711,
      "GON": 8712,
      "Rus": 8713,
      "Rog": 8714,
      "RGB": 8715,
      "Sil": 8716,
      "joker": 8717,
      "mask": 8718,
      "rad": 8719,
      "tied": 8720,
      "“%": 8721,
      "thick": 8722,
      "ince": 8723,
      "anon": 8724,
      "edded": 8725,
      "beth": 8726,
      "ara": 8727,
      "array": 8728,
      "itary": 8729,
      "lewd": 8730,
      "lift": 8731,
      "deals": 8732,
      "cher": 8733,
      "odd": 8734,
      "amends": 8735,
      "withdrew": 8736,
      "rooted": 8737,
      "abor": 8738,
      "abases": 8739,
      "earning": 8740,
      "ulated": 8741,
      "facing": 8742,
      "outcast": 8743,
      "trunk": 8744,
      "teen": 8745,
      "Inv": 8746,
      "perverted": 8747,
      "grown": 8748,
      "beforehand": 8749,
      "divers": 8750,
      "observ": 8751,
      "Force": 8752,
      "Seven": 8753,
      "effort": 8754,
      "commandments": 8755,
      "posing": 8756,
      "Advan": 8757,
      "repents": 8758,
      "steep": 8759,
      "broad": 8760,
      "parsing": 8761,
      "addy": 8762,
      "eneth": 8763,
      "breath": 8764,
      "wake": 8765,
      "skill": 8766,
      "ANY": 8767,
      "sym": 8768,
      "devise": 8769,
      "Setting": 8770,
      "clip": 8771,
      "throughout": 8772,
      "responds": 8773,
      "decrees": 8774,
      "refresh": 8775,
      "expose": 8776,
      "watchful": 8777,
      "Someone": 8778,
      "CHING": 8779,
      "Board": 8780,
      "Spend": 8781,
      "argued": 8782,
      "Christmas": 8783,
      "modest": 8784,
      "Kee": 8785,
      "Need": 8786,
      "glorious": 8787,
      "Harun": 8788,
      "covet": 8789,
      "annih": 8790,
      "violence": 8791,
      "shole": 8792,
      "sales": 8793,
      "positive": 8794,
      "relief": 8795,
      "sanction": 8796,
      "laughing": 8797,
      "1997": 8798,
      "Suc": 8799,
      "Possible": 8800,
      "180": 8801,
      "excesses": 8802,
      "recursive": 8803,
      "sufficeth": 8804,
      "score": 8805,
      "zabeth": 8806,
      "appreciate": 8807,
      "crucified": 8808,
      "Driver": 8809,
      "Retrieving": 8810,
      "vigation": 8811,
      "Elizabeth": 8812,
      "Masjid": 8813,
      "accomplished": 8814,
      "Chief": 8815,
      "tranquillity": 8816,
      "haughty": 8817,
      "competent": 8818,
      "gifts": 8819,
      "inflicted": 8820,
      "conveni": 8821,
      "GONNA": 8822,
      "annihil": 8823,
      "66": 8824,
      "Bal": 8825,
      "Bright": 8826,
      "C_": 8827,
      "CLA": 8828,
      "Das": 8829,
      "Dump": 8830,
      "Etern": 8831,
      "Gent": 8832,
      "Gam": 8833,
      "Gri": 8834,
      "Ko": 8835,
      "Mir": 8836,
      "Nick": 8837,
      "Perc": 8838,
      "SP": 8839,
      "TARS": 8840,
      "WAN": 8841,
      "Water": 8842,
      "bian": 8843,
      "jac": 8844,
      "jug": 8845,
      "kens": 8846,
      "mud": 8847,
      "pene": 8848,
      "viness": 8849,
      "‘‘": 8850,
      "iny": 8851,
      "inent": 8852,
      "insight": 8853,
      "ofs": 8854,
      "offee": 8855,
      "arks": 8856,
      "node": 8857,
      "leve": 8858,
      "stir": 8859,
      "asleep": 8860,
      "imary": 8861,
      "impose": 8862,
      "unread": 8863,
      "allocation": 8864,
      "rick": 8865,
      "roots": 8866,
      "abhor": 8867,
      "opacity": 8868,
      "suite": 8869,
      "soil": 8870,
      "rade": 8871,
      "racing": 8872,
      "gie": 8873,
      "agony": 8874,
      "iseconds": 8875,
      "quails": 8876,
      "canopy": 8877,
      "Mobile": 8878,
      "spouse": 8879,
      "fund": 8880,
      "Prophethood": 8881,
      "elite": 8882,
      "possibly": 8883,
      "greatness": 8884,
      "repose": 8885,
      "Exce": 8886,
      "recount": 8887,
      "monks": 8888,
      "Still": 8889,
      "adder": 8890,
      "corresponding": 8891,
      "Shows": 8892,
      "Disabled": 8893,
      "breach": 8894,
      "workers": 8895,
      "belonging": 8896,
      "Colour": 8897,
      "ggled": 8898,
      "driving": 8899,
      "accepting": 8900,
      "KDEPrint": 8901,
      "faster": 8902,
      "abling": 8903,
      "Signature": 8904,
      "completion": 8905,
      "Symb": 8906,
      "planets": 8907,
      "excel": 8908,
      "Monitor": 8909,
      "spreads": 8910,
      "deliber": 8911,
      "boundary": 8912,
      "Wrong": 8913,
      "continued": 8914,
      "Backup": 8915,
      "divinity": 8916,
      "Netscape": 8917,
      "deceased": 8918,
      "Torment": 8919,
      "THEY": 8920,
      "fucker": 8921,
      "IMS": 8922,
      "styles": 8923,
      "floating": 8924,
      "garment": 8925,
      "debts": 8926,
      "hensive": 8927,
      "crack": 8928,
      "issued": 8929,
      "pixel": 8930,
      "256": 8931,
      "gushed": 8932,
      "behaved": 8933,
      "acceler": 8934,
      "roasted": 8935,
      "Capital": 8936,
      "INDISTINCT": 8937,
      "instruction": 8938,
      "proportioned": 8939,
      "lucky": 8940,
      "surrounded": 8941,
      "Retribution": 8942,
      "Destination": 8943,
      "licitous": 8944,
      "stubborn": 8945,
      "particular": 8946,
      "flames": 8947,
      "strove": 8948,
      "conversation": 8949,
      "aggression": 8950,
      "Computer": 8951,
      "ignominy": 8952,
      "KTTS": 8953,
      "Shadow": 8954,
      "Brenda": 8955,
      "SINGING": 8956,
      "goblets": 8957,
      "VICTOR": 8958,
      "Civil": 8959,
      "45": 8960,
      "Bat": 8961,
      "Domin": 8962,
      "Fle": 8963,
      "Med": 8964,
      "Mil": 8965,
      "P_": 8966,
      "Rate": 8967,
      "Round": 8968,
      "Sent": 8969,
      "Sever": 8970,
      "bum": 8971,
      "dim": 8972,
      "gory": 8973,
      "hence": 8974,
      "medium": 8975,
      "pill": 8976,
      "sca": 8977,
      "thest": 8978,
      "reap": 8979,
      "orter": 8980,
      "beast": 8981,
      "segment": 8982,
      "ascertain": 8983,
      "welt": 8984,
      "Weather": 8985,
      "une": 8986,
      "role": 8987,
      "foster": 8988,
      "mails": 8989,
      "distra": 8990,
      "disappointed": 8991,
      "loo": 8992,
      "ressive": 8993,
      "printed": 8994,
      "Initi": 8995,
      "perception": 8996,
      "Moving": 8997,
      "apse": 8998,
      "heaviness": 8999,
      "clining": 9000,
      "portions": 9001,
      "Whatsoever": 9002,
      "cos": 9003,
      "Island": 9004,
      "Unquestion": 9005,
      "hasty": 9006,
      "Develop": 9007,
      "lescope": 9008,
      "Yourself": 9009,
      "addle": 9010,
      "breathing": 9011,
      "remembering": 9012,
      "rectitude": 9013,
      "striking": 9014,
      "ificent": 9015,
      "ashing": 9016,
      "repentant": 9017,
      "scum": 9018,
      "Shape": 9019,
      "Franc": 9020,
      "distort": 9021,
      "directs": 9022,
      "voke": 9023,
      "benevol": 9024,
      "displays": 9025,
      "vanity": 9026,
      "crying": 9027,
      "Cerber": 9028,
      "smart": 9029,
      "measured": 9030,
      "Burner": 9031,
      "paltry": 9032,
      "enjoyed": 9033,
      "falsehoods": 9034,
      "Spacing": 9035,
      "Gravity": 9036,
      "formatted": 9037,
      "defender": 9038,
      "journal": 9039,
      "disobeys": 9040,
      "Obs": 9041,
      "reasonable": 9042,
      "earnest": 9043,
      "Daemon": 9044,
      "Rosie": 9045,
      "journeying": 9046,
      "separator": 9047,
      "scheming": 9048,
      "effective": 9049,
      "swine": 9050,
      "merge": 9051,
      "Modem": 9052,
      "tempted": 9053,
      "berg": 9054,
      "Plain": 9055,
      "Rede": 9056,
      "Headers": 9057,
      "guns": 9058,
      "deeply": 9059,
      "narrow": 9060,
      "Divine": 9061,
      "Attachment": 9062,
      "assumed": 9063,
      "pronounced": 9064,
      "labour": 9065,
      "boastful": 9066,
      "Activate": 9067,
      "percentage": 9068,
      "Priv": 9069,
      "Highlighting": 9070,
      "decisive": 9071,
      "Python": 9072,
      "refrain": 9073,
      "Duplicate": 9074,
      "Ishaq": 9075,
      "obeisance": 9076,
      "contrary": 9077,
      "attentive": 9078,
      "smell": 9079,
      "lawyer": 9080,
      "Excuse": 9081,
      "Conduit": 9082,
      "Roger": 9083,
      "Advanced": 9084,
      "Dasher": 9085,
      "Eternity": 9086,
      "penetr": 9087,
      "Unquestionably": 9088,
      "Cerberus": 9089,
      "(-": 9090,
      "96": 9091,
      "Dif": 9092,
      "GA": 9093,
      "HAL": 9094,
      "Jan": 9095,
      "Kol": 9096,
      "KILL": 9097,
      "Lad": 9098,
      "Mm": 9099,
      "Must": 9100,
      "MER": 9101,
      "Pur": 9102,
      "Pol": 9103,
      "PING": 9104,
      "Ray": 9105,
      "Tet": 9106,
      "UH": 9107,
      "Wow": 9108,
      "Zaw": 9109,
      "cases": 9110,
      "dwelt": 9111,
      "gage": 9112,
      "gressive": 9113,
      "riding": 9114,
      "thors": 9115,
      "instruct": 9116,
      "reference": 9117,
      "rejection": 9118,
      "isheth": 9119,
      "ora": 9120,
      "selling": 9121,
      "itch": 9122,
      "chat": 9123,
      "idal": 9124,
      "ghost": 9125,
      "urch": 9126,
      "ament": 9127,
      "unts": 9128,
      "withheld": 9129,
      "comrade": 9130,
      "ulator": 9131,
      "major": 9132,
      "shift": 9133,
      "upset": 9134,
      "lote": 9135,
      "contempt": 9136,
      "pool": 9137,
      "creator": 9138,
      "ishment": 9139,
      "grat": 9140,
      "hadst": 9141,
      "bran": 9142,
      "Nobody": 9143,
      "diversion": 9144,
      "illumin": 9145,
      "overturned": 9146,
      "apan": 9147,
      "Rel": 9148,
      "Reality": 9149,
      "sparing": 9150,
      "emi": 9151,
      "Security": 9152,
      "cleared": 9153,
      "lette": 9154,
      "Lois": 9155,
      "tries": 9156,
      "trigger": 9157,
      "Death": 9158,
      "pile": 9159,
      "pictures": 9160,
      "remor": 9161,
      "accident": 9162,
      "marvels": 9163,
      "monstr": 9164,
      "postpone": 9165,
      "selecting": 9166,
      "Ann": 9167,
      "Brown": 9168,
      "devoid": 9169,
      "prior": 9170,
      "doubted": 9171,
      "acceptance": 9172,
      "nearly": 9173,
      "pective": 9174,
      "bountiful": 9175,
      "Imran": 9176,
      "Impossible": 9177,
      "identification": 9178,
      "Quest": 9179,
      "beholders": 9180,
      "Speed": 9181,
      "Generate": 9182,
      "Generic": 9183,
      "anguages": 9184,
      "cros": 9185,
      "Super": 9186,
      "disgraceful": 9187,
      "violate": 9188,
      "prosperous": 9189,
      "craft": 9190,
      "osity": 9191,
      "assembled": 9192,
      "ruling": 9193,
      "susp": 9194,
      "Webcam": 9195,
      "despite": 9196,
      "Feeder": 9197,
      "ridicul": 9198,
      "satisfy": 9199,
      "COUN": 9200,
      "RINGING": 9201,
      "KDM": 9202,
      "hanging": 9203,
      "blasphemy": 9204,
      "SCREAMS": 9205,
      "fragment": 9206,
      "stubble": 9207,
      "Supported": 9208,
      "Basic": 9209,
      "overwhelmed": 9210,
      "Meta": 9211,
      "hospitality": 9212,
      "subsist": 9213,
      "freedom": 9214,
      "reprieved": 9215,
      "situation": 9216,
      "Domain": 9217,
      "Pardoning": 9218,
      "affluent": 9219,
      "individ": 9220,
      "Gentle": 9221,
      "Bay": 9222,
      "Blast": 9223,
      "Daw": 9224,
      "Eight": 9225,
      "FS": 9226,
      "Kom": 9227,
      "KStars": 9228,
      "Oct": 9229,
      "Pas": 9230,
      "Swi": 9231,
      "Slo": 9232,
      "SON": 9233,
      "STO": 9234,
      "WIND": 9235,
      "bone": 9236,
      "bill": 9237,
      "craw": 9238,
      "cows": 9239,
      "coding": 9240,
      "coffee": 9241,
      "dut": 9242,
      "dated": 9243,
      "elect": 9244,
      "nour": 9245,
      "pus": 9246,
      "rc": 9247,
      "ture": 9248,
      "vable": 9249,
      "zpat": 9250,
      "referred": 9251,
      "enrich": 9252,
      "attributes": 9253,
      "seth": 9254,
      "hael": 9255,
      "stup": 9256,
      "liya": 9257,
      "asure": 9258,
      "assic": 9259,
      "asshole": 9260,
      "imized": 9261,
      "ids": 9262,
      "frames": 9263,
      "unbeliever": 9264,
      "pected": 9265,
      "outta": 9266,
      "resources": 9267,
      "sigh": 9268,
      "sizes": 9269,
      "worried": 9270,
      "aging": 9271,
      "Model": 9272,
      "divert": 9273,
      "Reject": 9274,
      "Reclining": 9275,
      "spacious": 9276,
      "clam": 9277,
      "spect": 9278,
      "compared": 9279,
      "setup": 9280,
      "misery": 9281,
      "Converting": 9282,
      "----": 9283,
      "Entry": 9284,
      "awes": 9285,
      "listener": 9286,
      "Resolution": 9287,
      "Users": 9288,
      "DEC": 9289,
      "devoured": 9290,
      "purchased": 9291,
      "rejecting": 9292,
      "lovely": 9293,
      "enjoins": 9294,
      "relent": 9295,
      "spends": 9296,
      "possesses": 9297,
      "requires": 9298,
      "Policy": 9299,
      "reasons": 9300,
      "presentation": 9301,
      "questioning": 9302,
      "vanqu": 9303,
      "ROY": 9304,
      "Month": 9305,
      "ropes": 9306,
      "parency": 9307,
      "Spell": 9308,
      "operations": 9309,
      "bugs": 9310,
      "compassion": 9311,
      "integer": 9312,
      "feeds": 9313,
      "journeyed": 9314,
      "repeats": 9315,
      "MBER": 9316,
      "arrive": 9317,
      "salms": 9318,
      "Widget": 9319,
      "Tabari": 9320,
      "Maker": 9321,
      "Correct": 9322,
      "Korah": 9323,
      "roads": 9324,
      "activity": 9325,
      "Dictionary": 9326,
      "customize": 9327,
      "lady": 9328,
      "statusbar": 9329,
      "wedlock": 9330,
      "traditional": 9331,
      "deviation": 9332,
      "hateful": 9333,
      "straitens": 9334,
      "Shortcut": 9335,
      "Phone": 9336,
      "attachment": 9337,
      "crookedness": 9338,
      "Drive": 9339,
      "stoned": 9340,
      "Palm": 9341,
      "fornication": 9342,
      "throat": 9343,
      "intentionally": 9344,
      "Target": 9345,
      "Fitzpat": 9346,
      "codes": 9347,
      "Limit": 9348,
      "thunderbolt": 9349,
      "scratch": 9350,
      "Potent": 9351,
      "exhausted": 9352,
      "beggar": 9353,
      "Consider": 9354,
      "UNIX": 9355,
      "Success": 9356,
      "Percent": 9357,
      "Excellent": 9358,
      "Zawinski": 9359,
      "Fitzpatrick": 9360,
      "55": 9361,
      "72": 9362,
      "AGE": 9363,
      "BU": 9364,
      "Blu": 9365,
      "CAN": 9366,
      "Either": 9367,
      "Hint": 9368,
      "Hung": 9369,
      "Japan": 9370,
      "Ken": 9371,
      "Mc": 9372,
      "Praised": 9373,
      "Tub": 9374,
      "Zero": 9375,
      "_Blank": 9376,
      "bread": 9377,
      "dru": 9378,
      "dutiful": 9379,
      "fain": 9380,
      "faint": 9381,
      "kppp": 9382,
      "mally": 9383,
      "nical": 9384,
      "rum": 9385,
      "ua": 9386,
      "zone": 9387,
      "thud": 9388,
      "rein": 9389,
      "relieve": 9390,
      "nology": 9391,
      "levels": 9392,
      "liant": 9393,
      "detest": 9394,
      "deception": 9395,
      "ifull": 9396,
      "complain": 9397,
      "ainer": 9398,
      "foe": 9399,
      "solid": 9400,
      "exal": 9401,
      "majest": 9402,
      "sher": 9403,
      "disagree": 9404,
      "disqui": 9405,
      "logi": 9406,
      "convert": 9407,
      "contract": 9408,
      "agon": 9409,
      "tel": 9410,
      "Into": 9411,
      "quid": 9412,
      "anybody": 9413,
      "grud": 9414,
      "sphere": 9415,
      "spared": 9416,
      "spider": 9417,
      "blest": 9418,
      "everybody": 9419,
      "placing": 9420,
      "couldst": 9421,
      "Const": 9422,
      "Although": 9423,
      "phin": 9424,
      "Environment": 9425,
      "lights": 9426,
      "listens": 9427,
      "goddamn": 9428,
      "submits": 9429,
      "submitting": 9430,
      "Results": 9431,
      "thrones": 9432,
      "monitor": 9433,
      "paragraph": 9434,
      "glitter": 9435,
[...]
