{
  "version": "1.0",
  "truncation": null,
  "padding": null,
  "added_tokens": [
    {
      "id": 0,
      "content": "[PAD]",
      "single_word": false,
      "lstrip": false,
      "rstrip": false,
      "normalized": false,
      "special": true
    },
    {
      "id": 1,
      "content": "[UNK]",
      "single_word": false,
      "lstrip": false,
      "rstrip": false,
      "normalized": false,
      "special": true
    },
    {
      "id": 2,
      "content": "[CLS]",
      "single_word": false,
      "lstrip": false,
      "rstrip": false,
      "normalized": false,
      "special": true
    },
    {
      "id": 3,
      "content": "[SEP]",
      "single_word": false,
      "lstrip": false,
      "rstrip": false,
      "normalized": false,
      "special": true
    },
    {
      "id": 4,
      "content": "[MASK]",
      "single_word": false,
      "lstrip": false,
      "rstrip": false,
      "normalized": false,
      "special": true
    }
  ],
  "normalizer": null,
  "pre_tokenizer": {
    "type": "Whitespace"
  },
  "post_processor": null,
  "decoder": null,
  "model": {
    "type": "BPE",
    "dropout": null,
    "unk_token": "[UNK]",
    "continuing_subword_prefix": null,
    "end_of_word_suffix": null,
    "fuse_unk": false,
    "byte_fallback": false,
    "ignore_merges": false,
    "vocab": {
      "[PAD]": 0,
      "[UNK]": 1,
      "[CLS]": 2,
      "[SEP]": 3,
      "[MASK]": 4,
      "!": 5,
      "\"": 6,
      "#": 7,
      "$": 8,
      "%": 9,
      "&": 10,
      "'": 11,
      "(": 12,
      ")": 13,
      "*": 14,
      "+": 15,
      ",": 16,
      "-": 17,
      ".": 18,
      "/": 19,
      "0": 20,
      "1": 21,
      "2": 22,
      "3": 23,
      "4": 24,
      "5": 25,
      "6": 26,
      "7": 27,
      "8": 28,
      "9": 29,
      ":": 30,
      ";": 31,
      "<": 32,
      "=": 33,
      ">": 34,
      "?": 35,
      "@": 36,
      "A": 37,
      "B": 38,
      "C": 39,
      "D": 40,
      "E": 41,
      "F": 42,
      "G": 43,
      "H": 44,
      "I": 45,
      "J": 46,
      "K": 47,
      "L": 48,
      "M": 49,
      "N": 50,
      "O": 51,
      "P": 52,
      "Q": 53,
      "R": 54,
      "S": 55,
      "T": 56,
      "U": 57,
      "V": 58,
      "W": 59,
      "X": 60,
      "Y": 61,
      "Z": 62,
      "[": 63,
      "\\": 64,
      "]": 65,
      "^": 66,
      "_": 67,
      "`": 68,
      "a": 69,
      "b": 70,
      "c": 71,
      "d": 72,
      "e": 73,
      "f": 74,
      "g": 75,
      "h": 76,
      "i": 77,
      "j": 78,
      "k": 79,
      "l": 80,
      "m": 81,
      "n": 82,
      "o": 83,
      "p": 84,
      "q": 85,
      "r": 86,
      "s": 87,
      "t": 88,
      "u": 89,
      "v": 90,
      "w": 91,
      "x": 92,
      "y": 93,
      "z": 94,
      "{": 95,
      "}": 96,
      "~": 97,
      "": 98,
      "": 99,
      "": 100,
      "¡": 101,
      "¢": 102,
      "£": 103,
      "¤": 104,
      "¥": 105,
      "¦": 106,
      "§": 107,
      "¨": 108,
      "©": 109,
      "«": 110,
      "¬": 111,
      "®": 112,
      "¯": 113,
      "°": 114,
      "±": 115,
      "²": 116,
      "³": 117,
      "´": 118,
      "µ": 119,
      "¶": 120,
      "·": 121,
      "¸": 122,
      "¹": 123,
      "º": 124,
      "»": 125,
      "¼": 126,
      "½": 127,
      "¾": 128,
      "¿": 129,
      "À": 130,
      "Á": 131,
      "Â": 132,
      "Ã": 133,
      "Ä": 134,
      "Å": 135,
      "Æ": 136,
      "Ç": 137,
      "È": 138,
      "É": 139,
      "Ê": 140,
      "Ë": 141,
      "Ì": 142,
      "Í": 143,
      "Î": 144,
      "Ï": 145,
      "Ð": 146,
      "Ñ": 147,
      "Ò": 148,
      "Ó": 149,
      "Ô": 150,
      "Õ": 151,
      "Ö": 152,
      "×": 153,
      "Ø": 154,
      "Ù": 155,
      "Ú": 156,
      "Û": 157,
      "Ü": 158,
      "Ý": 159,
      "Þ": 160,
      "ß": 161,
      "à": 162,
      "á": 163,
      "â": 164,
      "ã": 165,
      "ä": 166,
      "å": 167,
      "æ": 168,
      "ç": 169,
      "è": 170,
      "é": 171,
      "ê": 172,
      "ì": 173,
      "í": 174,
      "î": 175,
      "ï": 176,
      "ð": 177,
      "ñ": 178,
      "ò": 179,
      "ó": 180,
      "ô": 181,
      "õ": 182,
      "ö": 183,
      "÷": 184,
      "ø": 185,
      "ù": 186,
      "ú": 187,
      "û": 188,
      "ü": 189,
      "ý": 190,
      "þ": 191,
      "ÿ": 192,
      "́": 193,
      "θ": 194,
      "ஃ": 195,
      "அ": 196,
      "ஆ": 197,
      "இ": 198,
      "ஈ": 199,
      "உ": 200,
      "ஊ": 201,
      "எ": 202,
      "ஏ": 203,
      "ஐ": 204,
      "ஒ": 205,
      "ஓ": 206,
      "ஔ": 207,
      "க": 208,
      "ங": 209,
      "ச": 210,
      "ஜ": 211,
      "ஞ": 212,
      "ட": 213,
      "஡": 214,
      "ண": 215,
      "த": 216,
      "஦": 217,
      "ந": 218,
      "ன": 219,
      "ப": 220,
      "ம": 221,
      "ய": 222,
      "ர": 223,
      "ற": 224,
      "ல": 225,
      "ள": 226,
      "ழ": 227,
      "வ": 228,
      "ஷ": 229,
      "ஸ": 230,
      "ஹ": 231,
      "ா": 232,
      "ி": 233,
      "ீ": 234,
      "ு": 235,
      "ூ": 236,
      "ெ": 237,
      "ே": 238,
      "ை": 239,
      "ொ": 240,
      "ோ": 241,
      "ௌ": 242,
      "்": 243,
      "ௗ": 244,
      "௾": 245,
      "‐": 246,
      "–": 247,
      "—": 248,
      "‘": 249,
      "’": 250,
      "“": 251,
      "”": 252,
      "„": 253,
      "†": 254,
      "‡": 255,
      "•": 256,
      "‫": 257,
      "‬": 258,
      "‰": 259,
      "⁄": 260,
      "₣": 261,
      "₪": 262,
      "₫": 263,
      "€": 264,
      "™": 265,
      "→": 266,
      "♪": 267,
      "�": 268,
      "்க": 269,
      "ம்": 270,
      "ன்": 271,
      "்கள": 272,
      "்த": 273,
      "ும்": 274,
      "க்க": 275,
      "ல்": 276,
      "ப்": 277,
      "ரு": 278,
      "ர்கள": 279,
      "்ட": 280,
      "த்த": 281,
      "ைய": 282,
      "ிய": 283,
      "ப்ப": 284,
      "அவ": 285,
      "ாக": 286,
      "ங்கள": 287,
      "ர்": 288,
      "வி": 289,
      "து": 290,
      "ந்த": 291,
      "ட்ட": 292,
      "ல்ல": 293,
      "ொ": 294,
      "ோ": 295,
      "ர்கள்": 296,
      "று": 297,
      "க்கு": 298,
      "ங்கள்": 299,
      "ின்": 300,
      "ற்": 301,
      "ான்": 302,
      "ில்": 303,
      "செ": 304,
      "ண்ட": 305,
      "டு": 306,
      "ள்": 307,
      "ச்": 308,
      "ிற": 309,
      "நீ": 310,
      "வே": 311,
      "கொ": 312,
      "என்": 313,
      "றி": 314,
      "க்": 315,
      "ான": 316,
      "ல்லா": 317,
      "நி": 318,
      "மு": 319,
      "தி": 320,
      "செய": 321,
      "இரு": 322,
      "ுக்கு": 323,
      "ிரு": 324,
      "மாக": 325,
      "ஹ்": 326,
      "நா": 327,
      "ச்ச": 328,
      "டைய": 329,
      "அல்லா": 330,
      "அல்லாஹ்": 331,
      "வா": 332,
      "த்து": 333,
      "அவர்கள": 334,
      "கூ": 335,
      "ால்": 336,
      "ையும்": 337,
      "ார": 338,
      "அவர்கள்": 339,
      "ந்து": 340,
      "ற்ற": 341,
      "ள்ள": 342,
      "னை": 343,
      "நீங்கள்": 344,
      "ன்ன": 345,
      "ரி": 346,
      "பி": 347,
      "கள": 348,
      "மா": 349,
      "டி": 350,
      "யமாக": 351,
      "நிச்ச": 352,
      "கொண்ட": 353,
      "மி": 354,
      "நிச்சயமாக": 355,
      "வும்": 356,
      "கு": 357,
      "ங்க": 358,
      "வு": 359,
      "தை": 360,
      "வர": 361,
      "மே": 362,
      "லும்": 363,
      "கா": 364,
      "உங்கள": 365,
      "என்று": 366,
      "றை": 367,
      "த்": 368,
      "சி": 369,
      "இருக்க": 370,
      "ட்டு": 371,
      "ுடைய": 372,
      "ல்லை": 373,
      "வர்கள": 374,
      "பா": 375,
      "பு": 376,
      "வன": 377,
      "ஒரு": 378,
      "ிட": 379,
      "ின்ற": 380,
      "செய்": 381,
      "மீ": 382,
      "ண்": 383,
      "பெ": 384,
      "போ": 385,
      "வை": 386,
      "ார்கள்": 387,
      "டிய": 388,
      "ப்பு": 389,
      "ற்க": 390,
      "மை": 391,
      "நாம்": 392,
      "கிற": 393,
      "வன்": 394,
      "ோம்": 395,
      "செய்த": 396,
      "மைய": 397,
      "க்கும்": 398,
      "இன்ன": 399,
      "இன்னும்": 400,
      "ார்": 401,
      "இறை": 402,
      "ழு": 403,
      "என": 404,
      "ின": 405,
      "நான்": 406,
      "ளி": 407,
      "டை": 408,
      "ராக": 409,
      "வ்": 410,
      "ய்": 411,
      "லை": 412,
      "ரும்": 413,
      "த்தை": 414,
      "தற்க": 415,
      "பொ": 416,
      "வழ": 417,
      "ப்பட்ட": 418,
      "ட்": 419,
      "அவன்": 420,
      "ன்ற": 421,
      "தே": 422,
      "மூ": 423,
      "ில": 424,
      "ற்றி": 425,
      "..": 426,
      "வெ": 427,
      "பின்": 428,
      "வீ": 429,
      "கள்": 430,
      "விட்ட": 431,
      "ிருந்து": 432,
      "வர்கள்": 433,
      "க்கி": 434,
      "ரை": 435,
      "தா": 436,
      "நீர்": 437,
      "டுத்த": 438,
      "னர்": 439,
      "அவன": 440,
      "மான": 441,
      "தீ": 442,
      "ரிய": 443,
      "சு": 444,
      "னால்": 445,
      "ியே": 446,
      "மேலும்": 447,
      "விட": 448,
      "நம்": 449,
      "வேண்ட": 450,
      "களை": 451,
      "வேத": 452,
      "அவர்களுக்கு": 453,
      "செய்ய": 454,
      "ஆக": 455,
      "கொண்டு": 456,
      "கே": 457,
      "அறி": 458,
      "ற்று": 459,
      "me": 460,
      "ாகவும்": 461,
      "தன்": 462,
      "்க்க": 463,
      "மீது": 464,
      "on": 465,
      "நே": 466,
      "உங்களுக்கு": 467,
      "ிருந்த": 468,
      "உங்கள்": 469,
      "ிடம்": 470,
      "கூறி": 471,
      "கூறு": 472,
      "உம்": 473,
      "ியா": 474,
      "உள்ள": 475,
      "னி": 476,
      "வின்": 477,
      "வர்": 478,
      "ப்பட": 479,
      "த்தில்": 480,
      "க்கிற": 481,
      "பய": 482,
      "்த்த": 483,
      "ஸ்": 484,
      "திய": 485,
      "தான்": 486,
      "அழ": 487,
      "நப": 488,
      "ப்பி": 489,
      "டுத்து": 490,
      "மாட்ட": 491,
      "அவர்": 492,
      "ரா": 493,
      "இருக்கின்ற": 494,
      "டன்": 495,
      "தெ": 496,
      "ti": 497,
      "ங்களை": 498,
      "ேன்": 499,
      "ையை": 500,
      "தூ": 501,
      "அவர்களை": 502,
      "செய்து": 503,
      "தும்": 504,
      "ண்டு": 505,
      "லா": 506,
      "னு": 507,
      "அல்ல": 508,
      "வான": 509,
      "கொள்ள": 510,
      "நபியே": 511,
      "இறைவன": 512,
      "!)": 513,
      "லி": 514,
      "என்ன": 515,
      "சா": 516,
      "ற்ப": 517,
      "ஆனால்": 518,
      "விடு": 519,
      "கூறின": 520,
      ";.": 521,
      "கை": 522,
      "யா": 523,
      "வழி": 524,
      "பே": 525,
      "அது": 526,
      "வற்ற": 527,
      "ங்கு": 528,
      "ண்ண": 529,
      "ார்கள": 530,
      "வரு": 531,
      "இது": 532,
      "வில்லை": 533,
      "இருந்த": 534,
      "இவ்": 535,
      "கி": 536,
      "பூ": 537,
      "ame": 538,
      "இருக்கிற": 539,
      "தற்கு": 540,
      "அல்லாஹ்வின்": 541,
      "ியும்": 542,
      "தவி": 543,
      "சே": 544,
      "an": 545,
      "அதை": 546,
      "அவ்": 547,
      "இந்த": 548,
      "அல்லது": 549,
      "்கிற": 550,
      "tion": 551,
      "இல்லை": 552,
      "ையில்": 553,
      "றும்": 554,
      "சொ": 555,
      "தில்": 556,
      "தம்": 557,
      "முடிய": 558,
      "ருக்கு": 559,
      "ஆகவே": 560,
      "்கள்": 561,
      "ியை": 562,
      "ாகும்": 563,
      "in": 564,
      "போது": 565,
      "கத்த": 566,
      "அனு": 567,
      "ன்று": 568,
      "க்கப்பட்ட": 569,
      "ையா": 570,
      "ளை": 571,
      "ுங்கள்": 572,
      "வார்கள்": 573,
      "ணி": 574,
      "மனி": 575,
      "அவர்களுடைய": 576,
      "மிக": 577,
      "ப்போ": 578,
      "மற்ற": 579,
      "கோ": 580,
      "கார": 581,
      "ழ்": 582,
      "...": 583,
      ").": 584,
      "நன்": 585,
      "பார": 586,
      "இற": 587,
      "ாது": 588,
      "க்கை": 589,
      "பொரு": 590,
      "நாங்கள்": 591,
      "உங்களை": 592,
      "த்துக்": 593,
      "என்ப": 594,
      "முன்ன": 595,
      "ிலும்": 596,
      "es": 597,
      "ிலிருந்து": 598,
      "வரும்": 599,
      "ப்படு": 600,
      "மான்": 601,
      "இருப்ப": 602,
      "்கு": 603,
      "பற்றி": 604,
      "வோ": 605,
      "திரு": 606,
      "பூம": 607,
      "த்தா": 608,
      "வந்த": 609,
      "விட்டு": 610,
      "இறைவன்": 611,
      "தூத": 612,
      "ணை": 613,
      "மனித": 614,
      "it": 615,
      "ீர்கள்": 616,
      "வீராக": 617,
      "ியில்": 618,
      "எழு": 619,
      "க்கின்ற": 620,
      "முடைய": 621,
      "ஞ்": 622,
      "அரு": 623,
      "அதி": 624,
      "அந": 625,
      "இர": 626,
      "ட்டி": 627,
      "உண்": 628,
      "அன்ற": 629,
      "நல்ல": 630,
      "er": 631,
      "மிக்க": 632,
      "கொடு": 633,
      "அன்றியும்": 634,
      "்களை": 635,
      "நெ": 636,
      "பிர": 637,
      "ஈமான்": 638,
      "ுக்க": 639,
      "ன்ப": 640,
      "நேர்": 641,
      "த்திய": 642,
      "ட்சி": 643,
      "தொ": 644,
      "வேண்டும்": 645,
      "al": 646,
      "ிருப்ப": 647,
      "வது": 648,
      "தவிர": 649,
      "நாள": 650,
      "எனவே": 651,
      "ினும்": 652,
      "ன்னி": 653,
      "தேர்": 654,
      "வாறு": 655,
      "பல": 656,
      "நிராக": 657,
      "நிராகரி": 658,
      "கைய": 659,
      "பொய்": 660,
      "படை": 661,
      "ஸா": 662,
      "la": 663,
      "றிய": 664,
      "பின்னர்": 665,
      "மன்னி": 666,
      "ுள்ள": 667,
      "மக": 668,
      "ப்படும்": 669,
      "வான்": 670,
      "வேறு": 671,
      "ஃபி": 672,
      "வரை": 673,
      "கொள்": 674,
      "ர்த்த": 675,
      "ல்லாம்": 676,
      "tr": 677,
      "வண": 678,
      "சில": 679,
      "ன்றி": 680,
      "உய": 681,
      "ரம்": 682,
      "மெ": 683,
      "நோ": 684,
      "ார்களோ": 685,
      "கட்ட": 686,
      "நினை": 687,
      "டம்": 688,
      "ed": 689,
      "மறு": 690,
      "வைய": 691,
      "க்கிய": 692,
      "ப்பா": 693,
      "தையும்": 694,
      "அந்த": 695,
      "கூறினார்": 696,
      "or": 697,
      "வர்களை": 698,
      "வச": 699,
      "ுடன்": 700,
      "நட": 701,
      "தர": 702,
      "அமை": 703,
      "தனை": 704,
      "செல": 705,
      "மின": 706,
      "குறி": 707,
      "மக்கு": 708,
      "முஃ": 709,
      "படி": 710,
      "கின்ற": 711,
      "சமூ": 712,
      "மதி": 713,
      "ழை": 714,
      "உண்மைய": 715,
      "முஃமின": 716,
      "இருக்கின்றான்": 717,
      "Name": 718,
      "சை": 719,
      "நர": 720,
      "அவற்ற": 721,
      "மாட்டார்கள்": 722,
      "தவ": 723,
      "kg": 724,
      "ீர்கள": 725,
      "சந்த": 726,
      "ொரு": 727,
      "யாக": 728,
      "எனக்கு": 729,
      "னும்": 730,
      "நன": 731,
      "தற்காக": 732,
      "kgm": 733,
      "க்கா": 734,
      "சூ": 735,
      "இய": 736,
      "op": 737,
      "வேதன": 738,
      "ேய": 739,
      "என்பதை": 740,
      "ங்கி": 741,
      "எந்த": 742,
      "விரும்": 743,
      "சமூகத்த": 744,
      "வெள": 745,
      "ியாய": 746,
      "அப்ப": 747,
      "ோம்": 748,
      "கெ": 749,
      "ட்க": 750,
      "பட்ட": 751,
      "கோ": 752,
      "அதற்கு": 753,
      "name": 754,
      "ிருக்கிற": 755,
      "சிய": 756,
      "வர்களுக்கு": 757,
      "ro": 758,
      "வர்களாக": 759,
      "ையே": 760,
      "சம்": 761,
      "மிகவும்": 762,
      "அத்தா": 763,
      "நம்பி": 764,
      "?\"": 765,
      "களில்": 766,
      "வாக": 767,
      "பொ": 768,
      "வல": 769,
      "தய": 770,
      "ிற்கு": 771,
      "என்ற": 772,
      "அச்ச": 773,
      "தீர்": 774,
      "ot": 775,
      "கூட்ட": 776,
      "நெரு": 777,
      "மீதும்": 778,
      "த்தின்": 779,
      "அழை": 780,
      "விரு": 781,
      "கிறது": 782,
      "கிறான்": 783,
      "எனினும்": 784,
      "பதி": 785,
      "மும்": 786,
      "முன்": 787,
      "லிருந்து": 788,
      "த்தி": 789,
      "நாளில்": 790,
      "ப்பட்டு": 791,
      "நில": 792,
      "என்றும்": 793,
      "தோ": 794,
      "ஏற்ப": 795,
      "லாம்": 796,
      "எங்கள்": 797,
      "மிருந்து": 798,
      "ங்களுக்கு": 799,
      "இருக்கிறது": 800,
      "கண": 801,
      "ity": 802,
      "ans": 803,
      "உறு": 804,
      "ப்படுத்த": 805,
      "கொண்டிருந்த": 806,
      "தொ": 807,
      "வனாக": 808,
      "மார": 809,
      "கீ": 810,
      "நரக": 811,
      "வாற": 812,
      "தீர்கள்": 813,
      "சத்திய": 814,
      "City": 815,
      "வுக்கு": 816,
      "இருக்கும்": 817,
      "நிலை": 818,
      "மற்றும்": 819,
      "அவனை": 820,
      "வனாகவும்": 821,
      "ansla": 822,
      "th": 823,
      "ட்டும்": 824,
      "transla": 825,
      "மல": 826,
      "கோப்பு": 827,
      "இவர்கள்": 828,
      "ழி": 829,
      "மல்": 830,
      "அழி": 831,
      "த்தகைய": 832,
      "கட": 833,
      "பிடி": 834,
      "அவனே": 835,
      "வ்வ": 836,
      "கிறார்கள்": 837,
      "option": 838,
      "தெளி": 839,
      "ாத": 840,
      "என்னை": 841,
      "த்தான்": 842,
      "ப்பை": 843,
      "செய்கிற": 844,
      "நிற": 845,
      "த்தையும்": 846,
      "யார்": 847,
      "இட": 848,
      "பார்க்க": 849,
      "ly": 850,
      "லம்": 851,
      "விள": 852,
      "ிருக்கும்": 853,
      "விட்டும்": 854,
      "தல்": 855,
      "தன": 856,
      "மறை": 857,
      "ne": 858,
      "அள": 859,
      "அல்லாஹ்வு": 860,
      "அதன்": 861,
      "இணை": 862,
      "இதை": 863,
      "க்கம்": 864,
      "ab": 865,
      "வில்ல": 866,
      "அனை": 867,
      "எண்ண": 868,
      "வரையும்": 869,
      "பெய": 870,
      "திரும்": 871,
      "do": 872,
      "வற்றை": 873,
      "உரு": 874,
      "optional": 875,
      "போ": 876,
      "வேண்டா": 877,
      "தங்கள்": 878,
      "க்கவும்": 879,
      "வாக்கு": 880,
      "ப்போது": 881,
      "கிட": 882,
      "க்த": 883,
      "பெரும்": 884,
      "நக": 885,
      "பாவ": 886,
      "வரி": 887,
      "ண்டா": 888,
      "வேதனை": 889,
      "pro": 890,
      "லக": 891,
      ".\"": 892,
      "தாக": 893,
      "ுக்கும்": 894,
      "ென": 895,
      "டும்": 896,
      "அவர்களில்": 897,
      "அவரை": 898,
      "ar": 899,
      "முடி": 900,
      "மனிதர்கள": 901,
      "நம்பிக்கை": 902,
      "மாறு": 903,
      "அல்லாஹ்விட": 904,
      "கரு": 905,
      "அத்தாட்சி": 906,
      "அறிவி": 907,
      "not": 908,
      "பூமிய": 909,
      "அநியாய": 910,
      "அவனுடைய": 911,
      "en": 912,
      "க்கார": 913,
      "முக": 914,
      "புற": 915,
      "உமக்கு": 916,
      "சரி": 917,
      "அறிந்து": 918,
      "அவர்களிடம்": 919,
      "க்கொ": 920,
      "சிற": 921,
      "ட்டை": 922,
      "களையும்": 923,
      "ாலும்": 924,
      "வற்றையும்": 925,
      "ாய": 926,
      "அதில்": 927,
      "தலை": 928,
      "ரே": 929,
      "எதி": 930,
      "எல்லா": 931,
      "அடை": 932,
      "ஹீ": 933,
      "எவர்": 934,
      "செய்ப": 935,
      "கொடுத்த": 936,
      "மூஸா": 937,
      "அஞ்": 938,
      "தான": 939,
      "த்தோம்": 940,
      "உண": 941,
      "வோம்": 942,
      "ீர்": 943,
      "வசன": 944,
      "விய": 945,
      "ோர்": 946,
      "need": 947,
      "ருடைய": 948,
      "அளி": 949,
      "translation": 950,
      "ஒவ்வ": 951,
      "வில": 952,
      "பரி": 953,
      "பிற": 954,
      "வெளி": 955,
      "ணம்": 956,
      "ங்களில்": 957,
      "bab": 958,
      "வந்து": 959,
      "காஃபி": 960,
      "க்கூ": 961,
      "பாது": 962,
      "கொள்ளுங்கள்": 963,
      "முஃமின்கள": 964,
      "நன்க": 965,
      "ந்தெ": 966,
      "வதை": 967,
      "கூறுவீராக": 968,
      "உதவி": 969,
      "ஞான": 970,
      "அதிக": 971,
      "ப்படி": 972,
      "does": 973,
      "உம்மை": 974,
      "தாம்": 975,
      "கூற": 976,
      "ாள": 977,
      "பயன்ப": 978,
      "probab": 979,
      "தேர்ந்தெ": 980,
      "probably": 981,
      "அவனுக்கு": 982,
      "த்திற்கு": 983,
      "பார்": 984,
      "மர": 985,
      "காண்": 986,
      "ங்களையும்": 987,
      "வாறே": 988,
      "அவருக்கு": 989,
      "ிருக்கின்ற": 990,
      "ற்றிய": 991,
      "டையே": 992,
      "வீர்கள்": 993,
      "நன்கறி": 994,
      "ுக்காக": 995,
      "க்கின": 996,
      "வில்": 997,
      "ந்தி": 998,
      "ஏன": 999,
      "மேல": 1000,
      "எடுத்து": 1001,
      "கால": 1002,
      "உண்டு": 1003,
      "முடியாது": 1004,
      "ர்களை": 1005,
      "மையை": 1006,
      "மில்லை": 1007,
      "வெளியே": 1008,
      "பாதுகா": 1009,
      "செல்ல": 1010,
      "ஓர்": 1011,
      "கிடை": 1012,
      "நேர": 1013,
      "கொ": 1014,
      "பொறு": 1015,
      "உயி": 1016,
      "ெல்லாம்": 1017,
      "எவர்கள்": 1018,
      "பிரி": 1019,
      "சொல்ல": 1020,
      "தைய": 1021,
      "விர": 1022,
      "கூறும்": 1023,
      "அனுப்ப": 1024,
      "ர்களாக": 1025,
      "ாதீர்கள்": 1026,
      "at": 1027,
      "அல்லாஹ்வை": 1028,
      "தில்லை": 1029,
      "ென்ற": 1030,
      "அந்": 1031,
      "அல்லாஹ்வுக்கு": 1032,
      "காண": 1033,
      "ங்களும்": 1034,
      "தார": 1035,
      "ங்கே": 1036,
      "ீர்களா": 1037,
      "ம்ப": 1038,
      "உள்ளது": 1039,
      "இவ்வாறு": 1040,
      "திட்ட": 1041,
      "நாடிய": 1042,
      "சார": 1043,
      "கேட்ட": 1044,
      "தெரிய": 1045,
      "ou": 1046,
      "உம்முடைய": 1047,
      "nt": 1048,
      "நிறு": 1049,
      "ிடமிருந்து": 1050,
      "உண்டா": 1051,
      "!\"": 1052,
      "செலு": 1053,
      "போன்ற": 1054,
      "ச்சரி": 1055,
      "ங்": 1056,
      "தல": 1057,
      "முறை": 1058,
      "om": 1059,
      "றுதி": 1060,
      "மாற்ற": 1061,
      "பெரு": 1062,
      "க்காக": 1063,
      "வடி": 1064,
      "க்கே": 1065,
      "ஒவ்வொரு": 1066,
      "ேயே": 1067,
      "பெண": 1068,
      "செல்": 1069,
      "மையான": 1070,
      "எச்சரி": 1071,
      "செயல": 1072,
      "களும்": 1073,
      "உங்களுடைய": 1074,
      "ic": 1075,
      "அதனை": 1076,
      "ானோ": 1077,
      "வேண்டாம்": 1078,
      "கொள": 1079,
      "is": 1080,
      "ார்த்த": 1081,
      "குற்ற": 1082,
      "குழ": 1083,
      "re": 1084,
      "வையும்": 1085,
      "ிக்": 1086,
      "விஷ": 1087,
      "செய்யும்": 1088,
      "க்திய": 1089,
      "le": 1090,
      "மக்கள": 1091,
      "ழுது": 1092,
      "ர்த்து": 1093,
      "பூமியில்": 1094,
      "பிரார்த்த": 1095,
      "அடி": 1096,
      "டுக்க": 1097,
      "உன்": 1098,
      "யூ": 1099,
      "களின்": 1100,
      "செயல்": 1101,
      "பார்த்த": 1102,
      "ரில்": 1103,
      "நன்மை": 1104,
      "ங்கிய": 1105,
      "சேர்": 1106,
      "வில்லையா": 1107,
      "மேல்": 1108,
      "கூட்டத்த": 1109,
      "கம்": 1110,
      "போல்": 1111,
      "மிடம்": 1112,
      "பட": 1113,
      "ாய்": 1114,
      "இறைவனின்": 1115,
      "சமூகத்தார": 1116,
      "மன்னிப்ப": 1117,
      "அவற்றை": 1118,
      "ட்ச": 1119,
      "காட்டு": 1120,
      "பாத": 1121,
      "பை": 1122,
      "ெனில்": 1123,
      "கூறினார்கள்": 1124,
      "னா": 1125,
      "தேர்வு": 1126,
      "ிருக்க": 1127,
      "அப்போது": 1128,
      "ஸு": 1129,
      "ிலுள்ள": 1130,
      "நினைவு": 1131,
      "தெளிவான": 1132,
      "வதற்காக": 1133,
      "வராக": 1134,
      "குர்": 1135,
      "வைத்த": 1136,
      "விடும்": 1137,
      "ஷை": 1138,
      "வாழ": 1139,
      "இருந்து": 1140,
      "அழக": 1141,
      "சம": 1142,
      "இவ்வு": 1143,
      "வேண்டிய": 1144,
      "வழியில்": 1145,
      "சீ": 1146,
      "உங்களில்": 1147,
      "விரும்பு": 1148,
      "வேண்டு": 1149,
      "த்தும்": 1150,
      "சோ": 1151,
      "கேட்க": 1152,
      "ிருந்தும்": 1153,
      "யி": 1154,
      "பின்ப": 1155,
      "இருந்தால்": 1156,
      "ல்லாத": 1157,
      "நு": 1158,
      "க்கூடிய": 1159,
      "த்திலிருந்து": 1160,
      "அவருடைய": 1161,
      "கிரு": 1162,
      "டர்": 1163,
      "நாள்": 1164,
      "ஏனெனில்": 1165,
      "இவர்கள": 1166,
      "நிர": 1167,
      "திற": 1168,
      "ol": 1169,
      "கண்ட": 1170,
      "வேதனையை": 1171,
      "காரண": 1172,
      "ீராக": 1173,
      "விட்டால்": 1174,
      "விஷய": 1175,
      "பயப": 1176,
      "மறுமைய": 1177,
      "ment": 1178,
      "உங்களிடம்": 1179,
      "ியாக": 1180,
      "பக்க": 1181,
      "கல": 1182,
      "மார்க்க": 1183,
      "காண்பி": 1184,
      "ானால்": 1185,
      "அடிய": 1186,
      "கிறேன்": 1187,
      "இதற்கு": 1188,
      "அந்நாளில்": 1189,
      "ர்க்க": 1190,
      "ையாக": 1191,
      "உறுதிய": 1192,
      "எது": 1193,
      "the": 1194,
      "பால": 1195,
      "st": 1196,
      "மிட": 1197,
      "வனை": 1198,
      "ாரோ": 1199,
      "புதிய": 1200,
      "எங்களுக்கு": 1201,
      "கெட்ட": 1202,
      "ஒன்று": 1203,
      "முற": 1204,
      "குறை": 1205,
      "கீழ": 1206,
      "ருங்கள்": 1207,
      "கொள்கிற": 1208,
      "இப்": 1209,
      "ம்பு": 1210,
      "ையோ": 1211,
      "வசனங்களை": 1212,
      "ப்பட்டுள்ள": 1213,
      "கவன": 1214,
      "என்னுடைய": 1215,
      "மனை": 1216,
      "பெற": 1217,
      "00": 1218,
      "த்தான": 1219,
      "வித": 1220,
      "குர்ஆ": 1221,
      "ரஹ்": 1222,
      "ப்படுத்து": 1223,
      "காரிய": 1224,
      "பொய்ப்பி": 1225,
      "அல": 1226,
      "எதை": 1227,
      "ச்சி": 1228,
      "il": 1229,
      "ண்டும்": 1230,
      "பயன்படுத்த": 1231,
      "ஷ்ட": 1232,
      "அருள": 1233,
      "ையுடைய": 1234,
      "அனுமதி": 1235,
      "சொ": 1236,
      "திட": 1237,
      "கேட்": 1238,
      "பொரு": 1239,
      "கொடுக்க": 1240,
      "மோ": 1241,
      "பின்ன": 1242,
      "முடியவில்லை": 1243,
      "போக": 1244,
      "பொருள": 1245,
      "்கின்ற": 1246,
      "்களையும்": 1247,
      "பதே": 1248,
      "புறக்க": 1249,
      "வகை": 1250,
      "தாகும்": 1251,
      "பெற்ற": 1252,
      "ட்சிய": 1253,
      "ினால்": 1254,
      "அளவு": 1255,
      "அக": 1256,
      "புறக்கணி": 1257,
      "நோக்கி": 1258,
      "பிறகு": 1259,
      "னாக": 1260,
      "அடைய": 1261,
      "ற்றிலும்": 1262,
      "அநியாயம்": 1263,
      "பொருட": 1264,
      "ஞ்ச": 1265,
      "மாட்டான்": 1266,
      "மாற்று": 1267,
      "ருக்கும்": 1268,
      "தந்த": 1269,
      "த்தால்": 1270,
      "சகோ": 1271,
      "அவை": 1272,
      "மூலம்": 1273,
      "உயிர்": 1274,
      "ஏற்று": 1275,
      "பால்": 1276,
      "நாய": 1277,
      "வாயாக": 1278,
      "முள்ள": 1279,
      "காட்ட": 1280,
      "பயபக்திய": 1281,
      "ங்களின்": 1282,
      "ஆண": 1283,
      "ரையும்": 1284,
      "Com": 1285,
      "\"(": 1286,
      "கூறினான்": 1287,
      "மின்": 1288,
      "கின்றனர்": 1289,
      "வூ": 1290,
      "வர்களில்": 1291,
      "வைப்ப": 1292,
      "விளையா": 1293,
      "எடுத்துக்": 1294,
      "இறக்கி": 1295,
      "சந்தி": 1296,
      "நற்க": 1297,
      "முடியும்": 1298,
      "அற": 1299,
      "வழிய": 1300,
      "அனைத்து": 1301,
      "எங்களை": 1302,
      "இருக்கின்றன": 1303,
      "இவ்வாறே": 1304,
      "அறிந்த": 1305,
      "தனால்": 1306,
      "கட்டள": 1307,
      "புரி": 1308,
      "மிகை": 1309,
      "Comment": 1310,
      "பொய்ய": 1311,
      "முற்றிலும்": 1312,
      ".)": 1313,
      "தொழு": 1314,
      "விட்டது": 1315,
      "வெற்றி": 1316,
      "நன்றி": 1317,
      "தேர்ந்தெடு": 1318,
      "மலக்கு": 1319,
      "வினை": 1320,
      "மெய்": 1321,
      "தக": 1322,
      "வாசி": 1323,
      "தண்ட": 1324,
      "ரின்": 1325,
      "படுத்த": 1326,
      "கிர": 1327,
      "களைக்": 1328,
      "ிருந்தால்": 1329,
      "ிற்க": 1330,
      "த்தைக்": 1331,
      "சூழ்": 1332,
      "எங்கள": 1333,
      "வதில்லை": 1334,
      "இவ்வுலக": 1335,
      "நேர்வழி": 1336,
      "முழு": 1337,
      "ப்பின்": 1338,
      "பெயர்": 1339,
      "க்கிக்": 1340,
      "ஃப்": 1341,
      "முன்னர்": 1342,
      "வணங்கு": 1343,
      "ர்அவ்": 1344,
      "ஃபிர்அவ்": 1345,
      "ing": 1346,
      "ர்களுக்கு": 1347,
      "வாழ்க்க": 1348,
      "நிலையில்": 1349,
      "எவ்": 1350,
      "க்கப்பட": 1351,
      "வடிவ": 1352,
      "தாவது": 1353,
      "வர்களே": 1354,
      "கொடுத்து": 1355,
      "உரிய": 1356,
      "கூறுகிறார்கள்": 1357,
      "பர": 1358,
      "மையாக": 1359,
      "வேன்": 1360,
      "அவர்களின்": 1361,
      "திரும்பி": 1362,
      "ையின்": 1363,
      "ுக்கே": 1364,
      "பட்டிய": 1365,
      "வைத்து": 1366,
      "ஆய": 1367,
      "சென்ற": 1368,
      "வதற்க": 1369,
      "ால": 1370,
      "வேற": 1371,
      "எனக்": 1372,
      "ஆகி": 1373,
      "வர்க்க": 1374,
      "இஸ்": 1375,
      "வதற்கு": 1376,
      "மற": 1377,
      "அவ்வாறு": 1378,
      "திரும்ப": 1379,
      "ஜி": 1380,
      "னிய": 1381,
      "மாகும்": 1382,
      "கட்டு": 1383,
      "ாமல்": 1384,
      "நன்கு": 1385,
      "இறைவனே": 1386,
      "அறிய": 1387,
      "தங்கள": 1388,
      "நாடி": 1389,
      "கூறுவார்கள்": 1390,
      "யார": 1391,
      "ங்கும்": 1392,
      "சாள": 1393,
      "நற்": 1394,
      "விரை": 1395,
      "கீழ்": 1396,
      "அவர்களைப்": 1397,
      "விருப்ப": 1398,
      "துவ": 1399,
      "வர்களும்": 1400,
      "கட்டளை": 1401,
      "to": 1402,
      "மீண்டும்": 1403,
      "பெறு": 1404,
      "அங்கு": 1405,
      "நிறை": 1406,
      "ப்பட்டது": 1407,
      "ஸ்ட": 1408,
      "காப்பா": 1409,
      "விரும்ப": 1410,
      "களுக்கு": 1411,
      "மேலான": 1412,
      "நிலைய": 1413,
      "எழுத": 1414,
      "கண்ண": 1415,
      "மன": 1416,
      "யாவற்றையும்": 1417,
      "கையை": 1418,
      "இவர்களுக்கு": 1419,
      "ந்தது": 1420,
      "ாக்": 1421,
      "மர்": 1422,
      "ந்": 1423,
      "வழியை": 1424,
      "யாவரையும்": 1425,
      "ரோ": 1426,
      "இத்தகைய": 1427,
      "கூறிய": 1428,
      "),": 1429,
      "னாகவும்": 1430,
      "கவனி": 1431,
      "எவரு": 1432,
      "குதி": 1433,
      "நேரம்": 1434,
      "க்கிர": 1435,
      "பவன்": 1436,
      "ப்பான்": 1437,
      "வரம்பு": 1438,
      "se": 1439,
      "ைக்": 1440,
      "பிழை": 1441,
      "பாடு": 1442,
      "அவ்விரு": 1443,
      "வோர்": 1444,
      "அப்படிய": 1445,
      "தீர்ப்பு": 1446,
      "போர்": 1447,
      "வண்ண": 1448,
      "படைத்த": 1449,
      "பெரும்பால": 1450,
      "கிருப": 1451,
      "கீழே": 1452,
      "வானங்கள": 1453,
      "நிக": 1454,
      "ிலேயே": 1455,
      "ட்கொ": 1456,
      "எதிர்": 1457,
      "கடி": 1458,
      "இருப்பார்கள்": 1459,
      "உறுதி": 1460,
      "ப்பெ": 1461,
      "சொன்ன": 1462,
      "ினோம்": 1463,
      ");": 1464,
      "புக": 1465,
      "பக்கம்": 1466,
      "மது": 1467,
      "சகோதர": 1468,
      "பணி": 1469,
      "சரிய": 1470,
      "ஸாலி": 1471,
      "ராய": 1472,
      "பொருட்டு": 1473,
      "சென்று": 1474,
      "செய்தி": 1475,
      "பிரார்த்தி": 1476,
      "்களின்": 1477,
      "க்கிறான்": 1478,
      "நூ": 1479,
      "ia": 1480,
      "ப்த": 1481,
      "இறுதி": 1482,
      "ஞானம்": 1483,
      "கொண்டே": 1484,
      "எப்படி": 1485,
      "படிய": 1486,
      "கூடிய": 1487,
      "அருட்கொ": 1488,
      "கிறோம்": 1489,
      "நம்முடைய": 1490,
      "களாக": 1491,
      "ென்றும்": 1492,
      "பாதையில்": 1493,
      ":%": 1494,
      "be": 1495,
      "லில்": 1496,
      "முய": 1497,
      "ோருக்கு": 1498,
      "குறிப்பி": 1499,
      "கொண்டும்": 1500,
      "வல்": 1501,
      "அல்லாஹ்வுக்கே": 1502,
      "அச்சமூ": 1503,
      "அர்": 1504,
      "இங்கே": 1505,
      "ார்களே": 1506,
      "றில்லை": 1507,
      "நல்லு": 1508,
      ";)": 1509,
      "நான": 1510,
      "க்கப்படு": 1511,
      "ac": 1512,
      "உடைய": 1513,
      "க்கிறது": 1514,
      "ஏன்": 1515,
      "்களில்": 1516,
      "இருக்கின்றனர்": 1517,
      "பின்பற்று": 1518,
      "இறைவனிடமிருந்து": 1519,
      "ாயின்": 1520,
      "பாக்கிய": 1521,
      "க்கினோம்": 1522,
      "இதில்": 1523,
      "எவன்": 1524,
      "டன": 1525,
      "கூலி": 1526,
      "விடுங்கள்": 1527,
      "கூட": 1528,
      "இருந்தது": 1529,
      "ிலிருந்தும்": 1530,
      "நீக்கு": 1531,
      "்களி": 1532,
      "சுத்த": 1533,
      "த்துப்": 1534,
      "ஏற்படுத்த": 1535,
      "மிகைத்த": 1536,
      "த்திர": 1537,
      "இரண்டு": 1538,
      "என்றென்றும்": 1539,
      "ொழுது": 1540,
      "தேடு": 1541,
      "எல்லாப்": 1542,
      "எச்சரிக்கை": 1543,
      "அவள்": 1544,
      "அவர்களுக்குக்": 1545,
      "ப்போம்": 1546,
      "க்கவில்லை": 1547,
      "த்திலும்": 1548,
      "றா": 1549,
      "ஆகிய": 1550,
      "அருள்": 1551,
      "அச்சமூட்டி": 1552,
      "உதவ": 1553,
      "ஸாலிஹ": 1554,
      "ஷைத்தான": 1555,
      "க்கான": 1556,
      "சத்தியமாக": 1557,
      "இல்ல": 1558,
      "பீ": 1559,
      "வேதனைய": 1560,
      "ad": 1561,
      "பிம்ப": 1562,
      "விட்டான்": 1563,
      "வார்": 1564,
      "அனுப்பி": 1565,
      "உருவா": 1566,
      "இருதய": 1567,
      "நிராகரிப்ப": 1568,
      "வாக்களி": 1569,
      "ட்டில்": 1570,
      "அநியாயக்கார": 1571,
      "அவற்றின்": 1572,
      "பெரிய": 1573,
      "சுவர்க்க": 1574,
      "உன்ன": 1575,
      "ய்வ": 1576,
      "தவற": 1577,
      "ையி": 1578,
      "்களும்": 1579,
      "பாதி": 1580,
      "எண்ணி": 1581,
      "சிறி": 1582,
      "தங்களுக்கு": 1583,
      "செலுத்து": 1584,
      "நஷ்ட": 1585,
      "விலகி": 1586,
      "அறியா": 1587,
      "கடு": 1588,
      "பயபக்தியுடைய": 1589,
      "பூமி": 1590,
      "உங்களைப்": 1591,
      "கிறீர்கள்": 1592,
      "சந்தே": 1593,
      "படுத்து": 1594,
      "வீடு": 1595,
      "மன்னிப்பு": 1596,
      "இப்ப": 1597,
      "எவரும்": 1598,
      "நாட": 1599,
      "பேச": 1600,
      "வள": 1601,
      "ஒருவர்": 1602,
      "முடிவு": 1603,
      "வின": 1604,
      "கூல": 1605,
      "ென்றால்": 1606,
      "மையும்": 1607,
      "இப்போது": 1608,
      "ப்பற்றி": 1609,
      "நடந்து": 1610,
      "அல்லாஹ்விடம்": 1611,
      "வேறில்லை": 1612,
      "இதய": 1613,
      "தெய்வ": 1614,
      "அண": 1615,
      "உண்மை": 1616,
      "மறுமையில்": 1617,
      "கண்டு": 1618,
      "ழைய": 1619,
      "வலை": 1620,
      "மகத்த": 1621,
      "அல்லாஹ்வைய": 1622,
      "க்கொண்ட": 1623,
      "எதுவும்": 1624,
      "காரணமாக": 1625,
      "பகிர": 1626,
      "போது": 1627,
      "உன": 1628,
      "படு": 1629,
      "தன்ன": 1630,
      "ிடத்தில்": 1631,
      "பெரும்பாலோர்": 1632,
      "ட்டுக்": 1633,
      "களைப்": 1634,
      "இழி": 1635,
      "சித்த": 1636,
      "\"%": 1637,
      "க்கப்படும்": 1638,
      "மெய்யாக": 1639,
      "கேட்ப": 1640,
      "ொரு": 1641,
      "அஞ்ச": 1642,
      "ுமா": 1643,
      "சேமி": 1644,
      "மக்கள்": 1645,
      "ஸாலிஹான": 1646,
      "நன்கறிந்த": 1647,
      "தெல்லாம்": 1648,
      "சிலர்": 1649,
      "எழுத்து": 1650,
      "மனிதன்": 1651,
      "இல": 1652,
      "சாளர": 1653,
      "சும": 1654,
      "சொந்த": 1655,
      "சூனிய": 1656,
      "வேறெ": 1657,
      "\\\\": 1658,
      "இறைவனிடம்": 1659,
      "இருக்கிறார்கள்": 1660,
      "வாய": 1661,
      "அமைப்பு": 1662,
      "ஒரே": 1663,
      "கர்": 1664,
      "பெண்": 1665,
      "இதன்": 1666,
      "அதனால்": 1667,
      "அடியார்கள": 1668,
      "ற்சி": 1669,
      "்ட்": 1670,
      "்க்": 1671,
      "ியாள": 1672,
      "உலக": 1673,
      "விதி": 1674,
      "நோவினை": 1675,
      "de": 1676,
      "கடை": 1677,
      "ாகி": 1678,
      "குழந்த": 1679,
      "உதார": 1680,
      "எப்ப": 1681,
      "ிடையே": 1682,
      "ge": 1683,
      "சேர்க்க": 1684,
      "ஒலி": 1685,
      "வாக்குறுதி": 1686,
      "நேசி": 1687,
      "சார்": 1688,
      "ரஹ்ம": 1689,
      "சுவன": 1690,
      "ண்ப": 1691,
      "றுதிய": 1692,
      "எல்லாம்": 1693,
      "வாளி": 1694,
      "வைக்க": 1695,
      "தூதர்": 1696,
      "செலவு": 1697,
      "நற்கூ": 1698,
      "டும்ப": 1699,
      "கியா": 1700,
      "மகத்தான": 1701,
      "பகிரங்க": 1702,
      "கியாம": 1703,
      "உரை": 1704,
      "இருக்கிறான்": 1705,
      "திருப்பி": 1706,
      "அர": 1707,
      "அன்றி": 1708,
      "இண": 1709,
      "நகர்த்து": 1710,
      "இல்லா": 1711,
      "சிறு": 1712,
      "பொறுமைய": 1713,
      "கால்": 1714,
      "கேட": 1715,
      "குழப்ப": 1716,
      "குடும்ப": 1717,
      "te": 1718,
      "சொல்": 1719,
      "சந்ததிய": 1720,
      "உம்மிடம்": 1721,
      "கல்": 1722,
      "கண்ணிய": 1723,
      "ஆறு": 1724,
      "ப்பில்": 1725,
      "யம்": 1726,
      "மாகவும்": 1727,
      "நன்மார": 1728,
      "தவ்": 1729,
      "அஞ்சி": 1730,
      "கடின": 1731,
      "எல்ல": 1732,
      "இறைவனை": 1733,
      "விரி": 1734,
      "திலும்": 1735,
      "எழுது": 1736,
      "போகிற": 1737,
      "இதனை": 1738,
      "வற்றின்": 1739,
      "பற்றிய": 1740,
      "முற்ப": 1741,
      "பயன்": 1742,
      "நாயன்": 1743,
      "வனும்": 1744,
      "ur": 1745,
      "ஏற்பட்ட": 1746,
      "ப்படுத்தி": 1747,
      "ch": 1748,
      "தக்க": 1749,
      "தடுத்து": 1750,
      "வட்டு": 1751,
      "தரவு": 1752,
      "வெறு": 1753,
      "வேண்டாமா": 1754,
      "தெரியும்": 1755,
      "குதிய": 1756,
      "நேர்வழியில்": 1757,
      "தயவு": 1758,
      "செல்வ": 1759,
      "இம்": 1760,
      "ஜின": 1761,
      "பொய்யா": 1762,
      "த்தைப்": 1763,
      "என்னும்": 1764,
      "ஜூ": 1765,
      "பார்ப்ப": 1766,
      "அவர்களும்": 1767,
      "தூய்": 1768,
      "துன்ப": 1769,
      "பெற்று": 1770,
      "அல்லாஹ்வே": 1771,
      "ஏதாவது": 1772,
      "வஹீ": 1773,
      "வருக்கும்": 1774,
      "னம்": 1775,
      "தின்": 1776,
      "த்துடன்": 1777,
      "்தான்": 1778,
      "கேள்": 1779,
      "பாதுகாவல": 1780,
      "க்கினான்": 1781,
      "பகை": 1782,
      "ருடன்": 1783,
      "செய்வ": 1784,
      "முஃமின்களே": 1785,
      "அக்கிர": 1786,
      "மேய": 1787,
      "அக்கிரம": 1788,
      "சிந்தி": 1789,
      "us": 1790,
      "செய்வோ": 1791,
      "டைந்த": 1792,
      "அவ்வாறே": 1793,
      "ஹு": 1794,
      "உனக்கு": 1795,
      "of": 1796,
      "திடமாக": 1797,
      "சர": 1798,
      "மட்டும்": 1799,
      "மலை": 1800,
      "மாற்றி": 1801,
      "தைப்": 1802,
      "தீய": 1803,
      "மதிப்பு": 1804,
      "ச்சு": 1805,
      "கொள்ளும்": 1806,
      "உன்னை": 1807,
      "கொடுத்தோம்": 1808,
      "ஷ்": 1809,
      "ஆத்": 1810,
      "ியின்": 1811,
      "நிர்": 1812,
      "ர்ந்து": 1813,
      "ள்ளி": 1814,
      "ஆவண": 1815,
      "சோ": 1816,
      "தொரு": 1817,
      "புறக்கணித்து": 1818,
      "த்தது": 1819,
      "மரி": 1820,
      "நீங்களும்": 1821,
      "அடைவு": 1822,
      "அதிலிருந்து": 1823,
      "அவற்றில்": 1824,
      "மக்களுக்கு": 1825,
      "பார்த்து": 1826,
      "ீடு": 1827,
      "கொண்டிருப்ப": 1828,
      "டிக்": 1829,
      "ஆக்கி": 1830,
      "னையும்": 1831,
      "சாட்சிய": 1832,
      "col": 1833,
      "இறைவா": 1834,
      "விட்டோம்": 1835,
      "நேரான": 1836,
      "நல்லுபதே": 1837,
      "சம்பாதி": 1838,
      "குறிப்பிட்ட": 1839,
      "செய்கின்ற": 1840,
      "இவை": 1841,
      "வரையில்": 1842,
      "சிலரை": 1843,
      "அவனுக்கே": 1844,
      "வர்களாகவும்": 1845,
      "அணு": 1846,
      "நாடு": 1847,
      "மேற்க": 1848,
      "மெய்யாகவே": 1849,
      "ங்கிக்": 1850,
      "ஹார": 1851,
      "செய்தால்": 1852,
      "உண்மையான": 1853,
      "க்கப்பட்டது": 1854,
      "மரண": 1855,
      "னின்": 1856,
      "வட்ட": 1857,
      "தெரி": 1858,
      "கசிய": 1859,
      "ரோ": 1860,
      "அல்லாஹ்வுடைய": 1861,
      "வாழ்": 1862,
      "மானவன்": 1863,
      "நன்மைய": 1864,
      "நபி": 1865,
      "ஆயினும்": 1866,
      "ஹா": 1867,
      "and": 1868,
      "ர்களையும்": 1869,
      "தீர்ப்ப": 1870,
      "நன்மாராய": 1871,
      "போல": 1872,
      "�\\": 1873,
      "ck": 1874,
      "பாக": 1875,
      "தரும்": 1876,
      "மறுமை": 1877,
      "க்தி": 1878,
      "நண்ப": 1879,
      "கொண்டிருக்கும்": 1880,
      "உர": 1881,
      "நடை": 1882,
      "ிருக்கிறோம்": 1883,
      "ுக்கி": 1884,
      "ர்ந்த": 1885,
      "ார்களா": 1886,
      "கூறப்படும்": 1887,
      "நுழை": 1888,
      "வரைய": 1889,
      "வருக்கு": 1890,
      "முந்த": 1891,
      "தடு": 1892,
      "இடை": 1893,
      "தொடர்": 1894,
      "அதற்க": 1895,
      "்தா": 1896,
      "தனி": 1897,
      "மொ": 1898,
      "கேடு": 1899,
      "ர்வு": 1900,
      "பதில": 1901,
      "க்கப்": 1902,
      "த்திற்க": 1903,
      "தாய": 1904,
      "இயலா": 1905,
      "நம்பு": 1906,
      "ப்பினை": 1907,
      "ச்சை": 1908,
      "கிடைக்கும்": 1909,
      "செய்யுங்கள்": 1910,
      "யு": 1911,
      "க்கச்": 1912,
      "இதுவே": 1913,
      "திருப்ப": 1914,
      "நிறைவே": 1915,
      "ாதீர்": 1916,
      "கூட்டத்தார": 1917,
      "ிருக்கின்றான்": 1918,
      "உயிர்ப்பி": 1919,
      "எவர": 1920,
      "குர்ஆனை": 1921,
      "கொள்வார்கள்": 1922,
      "யூஸு": 1923,
      "மகி": 1924,
      "உரி": 1925,
      "டக்க": 1926,
      "தர்க்க": 1927,
      "இழ": 1928,
      "ர்களின்": 1929,
      "ப்பது": 1930,
      "ீல": 1931,
      "த்தல்": 1932,
      "செவி": 1933,
      "முடியாத": 1934,
      "வடிவமை": 1935,
      "அச்சு": 1936,
      "ld": 1937,
      "என்பதையும்": 1938,
      "ப்புற": 1939,
      "க்கின்றான்": 1940,
      "ப்பாக": 1941,
      "கன": 1942,
      "உறுதியாக": 1943,
      "அவர்களுக்குப்": 1944,
      "என்றால்": 1945,
      "பான": 1946,
      "ஆத்மா": 1947,
      "ஸ்க": 1948,
      "திர": 1949,
      "நாளை": 1950,
      "வாருங்கள்": 1951,
      "தொகு": 1952,
      "ஆகும்": 1953,
      "சாட்சி": 1954,
      "அருட்கொடை": 1955,
      "ஓதி": 1956,
      "நிராகரிப்போ": 1957,
      "செய்கிறான்": 1958,
      "ாள்": 1959,
      "எதையும்": 1960,
      "சத்தியம்": 1961,
      "அழகான": 1962,
      "்களுக்கு": 1963,
      "பேர": 1964,
      "தங்களை": 1965,
      "தைக்": 1966,
      "உருவாக்கு": 1967,
      "கருவி": 1968,
      "AN": 1969,
      "லூ": 1970,
      "வாய்": 1971,
      "வேண்டுமா": 1972,
      "அதிகார": 1973,
      "குழந்தை": 1974,
      "பிடிக்க": 1975,
      "வர்களையும்": 1976,
      "வதற்காகவும்": 1977,
      "கர": 1978,
      "விழு": 1979,
      "ினர்": 1980,
      "ப்பிட": 1981,
      "தீமை": 1982,
      "ce": 1983,
      "St": 1984,
      "அம்": 1985,
      "ஆதார": 1986,
      "ிடமே": 1987,
      "அவர": 1988,
      "சோதி": 1989,
      "திலிருந்து": 1990,
      "விசை": 1991,
      "தேவைய": 1992,
      "ma": 1993,
      "மாகக்": 1994,
      "ற்றிலிருந்து": 1995,
      "ேனும்": 1996,
      "மிக்கவன்": 1997,
      "பரிசுத்த": 1998,
      "ிருக்கின்றோம்": 1999,
      "தங்கு": 2000,
      "இறந்த": 2001,
      "ள்ளது": 2002,
      "ிருக்கிறது": 2003,
      "அல்லாஹ்விடமிருந்து": 2004,
      "ut": 2005,
      "வர்களின்": 2006,
      "மக்களை": 2007,
      "அகில": 2008,
      "கிறீர்களா": 2009,
      "ண்ட்": 2010,
      "உல": 2011,
      "நன்ற": 2012,
      "கொண்டவர்களே": 2013,
      "இரகசிய": 2014,
      "அதைப்": 2015,
      "மனைவிய": 2016,
      "கற்ப": 2017,
      "நாமே": 2018,
      "ஒழு": 2019,
      "தாங்கள்": 2020,
      "ேயன்றி": 2021,
      "வராகவும்": 2022,
      "பின்னரும்": 2023,
      "ர்களில்": 2024,
      "ரிட": 2025,
      "ப்பட்டுள்ளது": 2026,
      "பூமியையும்": 2027,
      "நிகழ்": 2028,
      "வேதத்தை": 2029,
      "வானங்களையும்": 2030,
      "வாழ்க்கை": 2031,
      "ஸின்": 2032,
      "மானால்": 2033,
      "பிடித்துக்": 2034,
      "வைத்தோம்": 2035,
      "தர்": 2036,
      "inf": 2037,
      "un": 2038,
      "தூதர்கள்": 2039,
      "அப்படி": 2040,
      "உண்மையாள": 2041,
      "அப்பொழுது": 2042,
      "வார்த்த": 2043,
      "முதல்": 2044,
      "உடன்": 2045,
      "ல்கள்": 2046,
      "கேள்வி": 2047,
      "நியாய": 2048,
      "ஸ்த": 2049,
      "தொழுகையை": 2050,
      "தகவல்": 2051,
      "ஜ்": 2052,
      "டிவி": 2053,
      "விடுவார்கள்": 2054,
      "வேலை": 2055,
      "தட": 2056,
      "ப்பவன்": 2057,
      "கொலை": 2058,
      "குழு": 2059,
      "தோ": 2060,
      "அழகிய": 2061,
      "உபதே": 2062,
      "பாருங்கள்": 2063,
      "ோரை": 2064,
      "ப்பீராக": 2065,
      "வீண": 2066,
      "இன்": 2067,
      "உங்களுக்காக": 2068,
      "மூல": 2069,
      "as": 2070,
      "ts": 2071,
      "ாக்கி": 2072,
      "விளை": 2073,
      "டையில்": 2074,
      "கடவு": 2075,
      "எத்தகைய": 2076,
      "செய்யவும்": 2077,
      "மானது": 2078,
      "மொ": 2079,
      "காலம்": 2080,
      "ப்பான": 2081,
      ",)": 2082,
      "மூதா": 2083,
      "திட்டமாக": 2084,
      "மூதாதைய": 2085,
      "நம்மிட": 2086,
      "தண்டனை": 2087,
      "களிலிருந்து": 2088,
      "ன்றும்": 2089,
      "பார்வை": 2090,
      "இறைவனுக்கு": 2091,
      "எழுப்ப": 2092,
      "ீர்களோ": 2093,
      "வீர்கள": 2094,
      "எவ்வித": 2095,
      "கடுமையான": 2096,
      "இங்கு": 2097,
      "பதில்": 2098,
      "ினான்": 2099,
      "க்கிறேன்": 2100,
      "செலுத்த": 2101,
      "தற்ப": 2102,
      "ப்பாயாக": 2103,
      "நாடினால்": 2104,
      "மகிழ்": 2105,
      "enc": 2106,
      "ரிடம்": 2107,
      "ப்பட்டால்": 2108,
      "தேவை": 2109,
      "த்தன": 2110,
      "ுடையவன்": 2111,
      "வதாக": 2112,
      "எவரையும்": 2113,
      "நின்ற": 2114,
      "கிறார்களோ": 2115,
      "வேண்டுமெ": 2116,
      "அத்தகைய": 2117,
      "இறக்கு": 2118,
      "டனும்": 2119,
      "அழித்து": 2120,
      "புகு": 2121,
      "color": 2122,
      "ப்பதற்காக": 2123,
      "சூரிய": 2124,
      "ண்டி": 2125,
      "அவனிடம்": 2126,
      "தொட": 2127,
      "மீள": 2128,
      "வேதத்": 2129,
      "இணைப்பு": 2130,
      "அடையாள": 2131,
      "ளவு": 2132,
      "இவர்": 2133,
      "சான்": 2134,
      "செய்யப்பட": 2135,
      "மாட்டோம்": 2136,
      "பவி": 2137,
      "இவர்களை": 2138,
      "த்தார": 2139,
      "குற்றவாளி": 2140,
      "பயன": 2141,
      "விடுவோம்": 2142,
      "த்துள்ள": 2143,
      "info": 2144,
      "he": 2145,
      "ையிலும்": 2146,
      "மாட்டீர்கள்": 2147,
      "அல்லாஹ்வையன்றி": 2148,
      "டிவிடி": 2149,
      "சிடி": 2150,
      "்கிறார்கள்": 2151,
      "ஏற்றுக்": 2152,
      "தள": 2153,
      "இடம்": 2154,
      "ர்களே": 2155,
      "உணவு": 2156,
      "சமு": 2157,
      "உள்ளன": 2158,
      "இறைவனுடைய": 2159,
      "நமக்கு": 2160,
      "தொட": 2161,
      "மீதே": 2162,
      "தற்போ": 2163,
      "க்கள்": 2164,
      "வெற்றிய": 2165,
      "தங்கிய": 2166,
      "பட்டு": 2167,
      "முயற்சி": 2168,
      "பற்ற": 2169,
      "த்தைத்": 2170,
      "தமக்கு": 2171,
      "்கா": 2172,
      "மங்கள்": 2173,
      "ன்றை": 2174,
      "ாகக்": 2175,
      "ிலோ": 2176,
      "எதைப்": 2177,
      "உற": 2178,
      "கனி": 2179,
      "ற்றை": 2180,
      "முஸ்": 2181,
      "உங்களுக்குக்": 2182,
      "ஷைத்தான்": 2183,
      "ழ்க": 2184,
      "திரி": 2185,
      "கொண்டார்கள்": 2186,
      "வைத்துக்": 2187,
      "டல்": 2188,
      "பகுதி": 2189,
      "செய்கிறார்களோ": 2190,
      "சமா": 2191,
      "துதி": 2192,
      "இறந்து": 2193,
      "ையன்றி": 2194,
      "அறிவு": 2195,
      "ils": 2196,
      "ருகு": 2197,
      "என்னிடம்": 2198,
      "கிருபையுடைய": 2199,
      "போதும்": 2200,
      "எதிராக": 2201,
      "அறியாத": 2202,
      "வாரி": 2203,
      "விட்டார்கள்": 2204,
      "பேரா": 2205,
      "எவரேனும்": 2206,
      "அழு": 2207,
      "காசம்": 2208,
      "கிறானோ": 2209,
      "இடத்தில்": 2210,
      "விவர": 2211,
      "செவ": 2212,
      "எறி": 2213,
      "வதையும்": 2214,
      "ோரும்": 2215,
      "இப்றா": 2216,
      "இப்றாஹீ": 2217,
      "am": 2218,
      "காஃபிர்கள்": 2219,
      "விசார": 2220,
      "என்பது": 2221,
      "கூறுங்கள்": 2222,
      "ன்பு": 2223,
      "கின்றான்": 2224,
      "செவியே": 2225,
      "வேதம்": 2226,
      "தவறான": 2227,
      "கப்ப": 2228,
      "மண்ண": 2229,
      "ழும்": 2230,
      "சந்தேக": 2231,
      "DE": 2232,
      "த்தார்": 2233,
      "நீங்கள": 2234,
      "வானத்திலிருந்து": 2235,
      "தவறு": 2236,
      "போன்று": 2237,
      "செய்தோம்": 2238,
      "மையில்": 2239,
      "டெ": 2240,
      "தாகவும்": 2241,
      "ிருந்தே": 2242,
      "பயன்படுத்து": 2243,
      "மண": 2244,
      "வட்டை": 2245,
      "ாரும்": 2246,
      "ற்றல": 2247,
      "களுக்கும்": 2248,
      "போதிலும்": 2249,
      "காண்ப": 2250,
      "பவர்": 2251,
      "wor": 2252,
      "மூழ்க": 2253,
      "நம்ப": 2254,
      "இருவரும்": 2255,
      "செல்லும்": 2256,
      "ிடு": 2257,
      "ாகிய": 2258,
      "பகிரங்கமான": 2259,
      "இறக்கிய": 2260,
      "எவ்வாறு": 2261,
      "sh": 2262,
      "திருப்த": 2263,
      "சிறந்த": 2264,
      "அஞ்சு": 2265,
      "நிறுத்த": 2266,
      "இருக்கிறேன்": 2267,
      "தலைப்பு": 2268,
      "செய்யப்பட்ட": 2269,
      "மின்ன": 2270,
      "வேளை": 2271,
      "மனிதர்கள்": 2272,
      "சாரா": 2273,
      "வற்றில்": 2274,
      "ஒட்ட": 2275,
      "தங்களுடைய": 2276,
      "காட்டும்": 2277,
      "தேனும்": 2278,
      "ையாள": 2279,
      "மிகைத்தவன்": 2280,
      "சிறிது": 2281,
      "உதாரண": 2282,
      "பொய்யாக்கு": 2283,
      "ec": 2284,
      "லீ": 2285,
      "ெடு": 2286,
      "கொடுக்கப்பட்ட": 2287,
      "மனிதர்களுக்கு": 2288,
      "அப்படியல்ல": 2289,
      "்தாம்": 2290,
      "னே": 2291,
      "பண": 2292,
      "ின்று": 2293,
      "சேமிக்க": 2294,
      "மலக்குகள்": 2295,
      "சக்தி": 2296,
      "தரி": 2297,
      "நற்கூல": 2298,
      "கொண்டிருக்கிற": 2299,
      "மற்றொரு": 2300,
      "பதிவு": 2301,
      "டா": 2302,
      "Stenc": 2303,
      "Stencils": 2304,
      "ப்படுவீர்கள்": 2305,
      "ver": 2306,
      "சன்": 2307,
      "தண்ண": 2308,
      "நம்மை": 2309,
      "மறந்து": 2310,
      "எங்கே": 2311,
      "வழிகேட்ட": 2312,
      "பேசு": 2313,
      "மன்னிப்பவனாகவும்": 2314,
      "ஸுஜூ": 2315,
      "ஸுஜூது": 2316,
      "வாக்குறுதிய": 2317,
      "அவள": 2318,
      "க்கிறோம்": 2319,
      "ip": 2320,
      "அவர்களுக்காக": 2321,
      "கையில்": 2322,
      "em": 2323,
      "இல்லாத": 2324,
      "மூன்று": 2325,
      "படைத்தான்": 2326,
      "இஸ்ராய": 2327,
      "IN": 2328,
      "அதைக்": 2329,
      "உண்ட": 2330,
      "ஓடி": 2331,
      "யாதொரு": 2332,
      "தந்தைய": 2333,
      "ஆமா": 2334,
      "திரை": 2335,
      "செய்தான்": 2336,
      "ஆதல": 2337,
      "ாகவே": 2338,
      "பட்டியல்": 2339,
      "சேர்த்து": 2340,
      "பிரார்த்தனை": 2341,
      "க்கப்பட்டு": 2342,
      "கின்றன": 2343,
      "தெளிவாக": 2344,
      "அமல": 2345,
      "நிறுத்து": 2346,
      "ஃப": 2347,
      "அட்ட": 2348,
      "கொல்ல": 2349,
      "விடாதீர்கள்": 2350,
      "சால": 2351,
      "இவற்றை": 2352,
      "அவர்களைத்": 2353,
      "200": 2354,
      "ையெல்லாம்": 2355,
      "பூமியை": 2356,
      "பார்க்கவில்லையா": 2357,
      "அனுப்பிய": 2358,
      "ானா": 2359,
      "கெடு": 2360,
      "நிலையான": 2361,
      "அர்ரஹ்": 2362,
      "ஆண்": 2363,
      "சட்ட": 2364,
      "பம்": 2365,
      "வதும்": 2366,
      "ருக்க": 2367,
      "வாங்க": 2368,
      "தேடி": 2369,
      "மறைத்து": 2370,
      "யின்": 2371,
      "அவன்தான்": 2372,
      "ழிய": 2373,
      "விரும்பி": 2374,
      "ர்களும்": 2375,
      "ஏற்க": 2376,
      "வெகு": 2377,
      "அத்தாட்சிகளை": 2378,
      "வழங்கு": 2379,
      "ஒளி": 2380,
      "நினைவூ": 2381,
      "யாவும்": 2382,
      "தொடர்": 2383,
      "அப்பால்": 2384,
      "அத்தாட்சிகள்": 2385,
      "வார்த்தை": 2386,
      "ிருப்பு": 2387,
      "ஒருவராக": 2388,
      "அனுப்பு": 2389,
      "அவனைத்": 2390,
      "வரிசை": 2391,
      "விரண்ட": 2392,
      "வதில்": 2393,
      "மாறி": 2394,
      "வளி": 2395,
      "கூறுகின்றனர்": 2396,
      "அவர்களைக்": 2397,
      "அல்லாஹ்வுக்கும்": 2398,
      "?)": 2399,
      "ke": 2400,
      "ராஹீ": 2401,
      "ப்படுகிறது": 2402,
      "இப்ராஹீ": 2403,
      "எங்களுடைய": 2404,
      "எண்ணிக்கை": 2405,
      "ஏதேனும்": 2406,
      "ப்பார்கள்": 2407,
      "மேன்": 2408,
      "முன்னோ": 2409,
      "உறுதியான": 2410,
      "பவனாகவும்": 2411,
      "பெண்கள்": 2412,
      "நின்று": 2413,
      "இருக்கவில்லை": 2414,
      "அமர்": 2415,
      "ஸி": 2416,
      "க்கையை": 2417,
      "ோனாகவும்": 2418,
      "பயப்படு": 2419,
      "அவ்வாற": 2420,
      "கிறாரோ": 2421,
      "தூதர்களை": 2422,
      "நன்கறிந்தவன்": 2423,
      "குறு": 2424,
      "போய்": 2425,
      "முஃமினான": 2426,
      "வனாகவே": 2427,
      "பெருமைய": 2428,
      "கட்டளைய": 2429,
      "தவ்பா": 2430,
      "புத்த": 2431,
      "வலது": 2432,
      "கற்று": 2433,
      "வல்ல": 2434,
      "பிள": 2435,
      "செய்வதை": 2436,
      "்கிறேன்": 2437,
      "படிச்": 2438,
      "ட்சியை": 2439,
      "விரும்பிய": 2440,
      "மனைவி": 2441,
      "ate": 2442,
      "இயல": 2443,
      "கிருபை": 2444,
      "இழு": 2445,
      "ஏனென்றால்": 2446,
      "காட்சி": 2447,
      "சுழ": 2448,
      "யாவரும்": 2449,
      "காப்பாற்றி": 2450,
      "ada": 2451,
      "ல்லாமல்": 2452,
      "வெளிய": 2453,
      "உடன": 2454,
      "கொண்டான்": 2455,
      "செய்வான்": 2456,
      "புதல்": 2457,
      "ஒவ்": 2458,
      "விட்டன": 2459,
      "த்தோ": 2460,
      "அல்லர்": 2461,
      "சொற்ப": 2462,
      "ஆமாம்": 2463,
      "lo": 2464,
      "மிகக்": 2465,
      "நரகத்த": 2466,
      "தரு": 2467,
      "அவர்களுடன்": 2468,
      "நாளின்": 2469,
      "நெருப்பு": 2470,
      "சரியான": 2471,
      "ுண்டு": 2472,
      "சாராரும்": 2473,
      "anada": 2474,
      "கணக்கு": 2475,
      "ter": 2476,
      "நீக்க": 2477,
      "வியு": 2478,
      "விளையாட்டு": 2479,
      "நிழ": 2480,
      "வார்கள": 2481,
      "களே": 2482,
      "்த்து": 2483,
      "விடுவான்": 2484,
      "பிரவே": 2485,
      "சூழ்ச்சி": 2486,
      "க்குரிய": 2487,
      "மீறி": 2488,
      "அழைத்து": 2489,
      "கூறினர்": 2490,
      "தனையும்": 2491,
      "முகவரி": 2492,
      "முறையில்": 2493,
      "ஒது": 2494,
      "உங்களுடன்": 2495,
      "மர்ய": 2496,
      "தீர்ப்பளி": 2497,
      "அழிந்து": 2498,
      "மட்டு": 2499,
      "யை": 2500,
      "மிடையே": 2501,
      "அனுபவி": 2502,
      "பெருமை": 2503,
      "ஆக்கினோம்": 2504,
      "முஷ்": 2505,
      "கொண்டோம்": 2506,
      "வரின்": 2507,
      "முஷ்ரி": 2508,
      "வசதி": 2509,
      "எழுத்துரு": 2510,
      "முன்னால்": 2511,
      "ess": 2512,
      "வானங்களிலும்": 2513,
      "ஏழை": 2514,
      "மாட்டாது": 2515,
      "ச்சிய": 2516,
      "பேசி": 2517,
      "காஃபிர்களுக்கு": 2518,
      "கிடைத்தது": 2519,
      "ig": 2520,
      "nu": 2521,
      "யே": 2522,
      "for": 2523,
      "ஏழு": 2524,
      "க்களை": 2525,
      "சாய்": 2526,
      "னைய": 2527,
      "நிராகரித்து": 2528,
      "வணக்க": 2529,
      "வேதனையும்": 2530,
      "பெண்ண": 2531,
      "மட்ட": 2532,
      "தடுக்க": 2533,
      "டியோ": 2534,
      "கோப்பினை": 2535,
      "விரோ": 2536,
      "oun": 2537,
      "காட்டிய": 2538,
      "ஆரம்": 2539,
      "க்கொள்ள": 2540,
      "et": 2541,
      "சமீ": 2542,
      "அல்லாத": 2543,
      "அவர்களைச்": 2544,
      "அருட்கொடைகளில்": 2545,
      "சாராருடைய": 2546,
      "பொய்யாக்குவீர்கள்": 2547,
      "முதல": 2548,
      "ப்ரா": 2549,
      "ப்படைய": 2550,
      "நானும்": 2551,
      "ஒவ்வோர்": 2552,
      "ion": 2553,
      "சக்திய": 2554,
      "ிருங்கள்": 2555,
      "பலஹீ": 2556,
      "வணங்க": 2557,
      "ve": 2558,
      "ப்படுவார்கள்": 2559,
      "ிருப்பார்கள்": 2560,
      "பெயரை": 2561,
      "விலகிக்": 2562,
      "அக்கிரமக்கார": 2563,
      "தஸ்": 2564,
      "ஸ்பே": 2565,
      "குறிப்பிட": 2566,
      "அடைந்த": 2567,
      "இஸ்ராயீல": 2568,
      "அளித்த": 2569,
      "uck": 2570,
      "அடுத்த": 2571,
      "லே": 2572,
      "ளிய": 2573,
      "ப்பதற்க": 2574,
      "ங்கார": 2575,
      "ிருக்கிறான்": 2576,
      "உரியது": 2577,
      "னுக்கு": 2578,
      "வழங்க": 2579,
      "கேள": 2580,
      "கணின": 2581,
      "கொண்டு": 2582,
      "குழப்பம்": 2583,
      "Canada": 2584,
      "எடு": 2585,
      "தைத்": 2586,
      "க்கிறார்கள்": 2587,
      "கூடாது": 2588,
      "ஈஸா": 2589,
      "கொண்டது": 2590,
      "கேடுதான்": 2591,
      "ஈமான": 2592,
      "போன": 2593,
      "க்காதீர்கள்": 2594,
      "நுழைய": 2595,
      "ில்லை": 2596,
      "குறிப்பு": 2597,
      "ஏற்ற": 2598,
      "ஒப்ப": 2599,
      "பாதை": 2600,
      "போகிறேன்": 2601,
      "கற்பனை": 2602,
      "ay": 2603,
      "யாகும்": 2604,
      "இழிவு": 2605,
      "மேற்கு": 2606,
      "பழி": 2607,
      "விவரி": 2608,
      "பொழுது": 2609,
      "சிறிய": 2610,
      "தன்னுடைய": 2611,
      "மாட்டேன்": 2612,
      "தோட்ட": 2613,
      "கட்டி": 2614,
      "டியாக": 2615,
      "ஆக்கிய": 2616,
      "ருக்காக": 2617,
      "எளி": 2618,
      "ைப்": 2619,
      "செய்க": 2620,
      "குறிய": 2621,
      "கூறுவான்": 2622,
      "செயல்களை": 2623,
      "பற்றியும்": 2624,
      "மண்ட": 2625,
      "வுமில்லை": 2626,
      "காரணம்": 2627,
      "வண்ணம்": 2628,
      "விச": 2629,
      "க்ஸ்": 2630,
      "கூர்": 2631,
      "புள்ளி": 2632,
      "நெருப்ப": 2633,
      "ஜோ": 2634,
      "களைத்": 2635,
      "ப்பாள": 2636,
      "விளக்க": 2637,
      "க்கொண்டு": 2638,
      "உருவாக்க": 2639,
      "முஷ்ரிக்கு": 2640,
      "தூதருக்கும்": 2641,
      "ொருவர்": 2642,
      "குர்ஆன்": 2643,
      "புரிந்த": 2644,
      "பின்பற்றி": 2645,
      "எண்": 2646,
      "செய்வீராக": 2647,
      "பதிய": 2648,
      "ுடையவும்": 2649,
      "மனிதர்களில்": 2650,
      "ted": 2651,
      "இந்": 2652,
      "னோம்": 2653,
      "நெருங்கிய": 2654,
      "ையைக்": 2655,
      "அதுவே": 2656,
      "are": 2657,
      "டைந்து": 2658,
      "அவனிடமே": 2659,
      "பூமியிலும்": 2660,
      "நன்மாராயங்": 2661,
      "செயல்கள்": 2662,
      "நபிமா": 2663,
      "பகல": 2664,
      "பாவி": 2665,
      "ருள்": 2666,
      "ராகவும்": 2667,
      "மனிதர்களே": 2668,
      "தஸ்பீ": 2669,
      "ph": 2670,
      "பகுதிய": 2671,
      "குறித்து": 2672,
      "தவணை": 2673,
      "நன்றாக": 2674,
      "உயர்ந்த": 2675,
      "12": 2676,
      "மதிய": 2677,
      "சுற்றி": 2678,
      "சாதன": 2679,
      "கூறினோம்": 2680,
      "ப்படுத்திக்": 2681,
      "முன்னிருப்பு": 2682,
      "நல்லடிய": 2683,
      "கோப்புகளை": 2684,
      "திறக்க": 2685,
      "பற": 2686,
      "நிராகரித்த": 2687,
      "வெளிப்படுத்து": 2688,
      "தையே": 2689,
      "பின்பு": 2690,
      "தேர்ந்தெடுத்த": 2691,
      "ஆர்": 2692,
      "அவசர": 2693,
      "மறைவான": 2694,
      "ho": 2695,
      "ஆம்": 2696,
      "முஸ்லி": 2697,
      "தாய்": 2698,
      "டே": 2699,
      "நடு": 2700,
      "அல்லாஹ": 2701,
      "போரில்": 2702,
      "எல்லாவற்றையும்": 2703,
      "அவரது": 2704,
      "பெருமையடி": 2705,
      "ஸூ": 2706,
      "நற்கரு": 2707,
      "சமாதான": 2708,
      "தங்கி": 2709,
      "ப்பதில்": 2710,
      "தானிய": 2711,
      "யாரும்": 2712,
      "ையைப்": 2713,
      "நிரல்": 2714,
      "களிலும்": 2715,
      "அல்லாஹ்விடமே": 2716,
      "உணவளி": 2717,
      "ப்ர": 2718,
      "குஃப்": 2719,
      "age": 2720,
      "மஸ்": 2721,
      "்கூ": 2722,
      "ட்டின்": 2723,
      "சேர்ந்து": 2724,
      "பவர்களாக": 2725,
      "குரு": 2726,
      "பொருளை": 2727,
      "இரவு": 2728,
      "எண்ணு": 2729,
      "சூழ்ந்து": 2730,
      "ss": 2731,
      "வெற்று": 2732,
      "நல்லுபதேசம்": 2733,
      "ஒன்றை": 2734,
      "மாகவே": 2735,
      "கொள்ளாத": 2736,
      "சொல": 2737,
      "ியைக்": 2738,
      "ஞானமுடைய": 2739,
      "சங்க": 2740,
      "ீரா": 2741,
      "ங்கா": 2742,
      "உங்களைக்": 2743,
      "வெளியா": 2744,
      "தொலை": 2745,
      "சமுதாய": 2746,
      "சமீப": 2747,
      "சப்த": 2748,
      "த்தின": 2749,
      "முஃமின்களுக்கு": 2750,
      "சுவனபதி": 2751,
      "இயலவில்லை": 2752,
      "இனி": 2753,
      "உமது": 2754,
      "ப்பிடி": 2755,
      "குற்றம்": 2756,
      "சந்திர": 2757,
      "புகழ்": 2758,
      "ain": 2759,
      "மம்": 2760,
      "கணக்க": 2761,
      "பக": 2762,
      "ந்தால்": 2763,
      "அவர்களுக்குத்": 2764,
      "அறிவான்": 2765,
      "நன்மையை": 2766,
      "முஃமின்கள்": 2767,
      "உதவியாள": 2768,
      "சூனியக்கார": 2769,
      "ul": 2770,
      "அறு": 2771,
      "புரிய": 2772,
      "ர்த்தி": 2773,
      "(%": 2774,
      "அதாவது": 2775,
      "ஒன்ற": 2776,
      "ஹரா": 2777,
      "பெரி": 2778,
      "களைச்": 2779,
      "கருண": 2780,
      "அல்": 2781,
      "கவலை": 2782,
      "மய": 2783,
      "தர்க்கம்": 2784,
      "கத்தை": 2785,
      "வழிபடு": 2786,
      "வற்றிலிருந்து": 2787,
      "மேலா": 2788,
      "பலஹீன": 2789,
      "லான": 2790,
      "ென்று": 2791,
      "இருந்தனர்": 2792,
      "மாற": 2793,
      "வீர்": 2794,
      "நிராகரித்துக்": 2795,
      "சம்பாதித்த": 2796,
      "மட்டுமே": 2797,
      "பார்கள்": 2798,
      "தாமே": 2799,
      "தியான": 2800,
      "ஆன்": 2801,
      "பூமியிலுள்ள": 2802,
      "ந்தர": 2803,
      "விட்டார்": 2804,
      "con": 2805,
      "ஆண்டு": 2806,
      "பவர்கள்": 2807,
      "வய": 2808,
      "வம்": 2809,
      "செவியு": 2810,
      "காத்த": 2811,
      "அவனையன்றி": 2812,
      "நேர்வழியை": 2813,
      "பாவங்களை": 2814,
      "ener": 2815,
      "மன்னிப்புக்": 2816,
      "அங்கே": 2817,
      "ஆச்ச": 2818,
      "உங்களுக்குப்": 2819,
      "எண்ணிக்": 2820,
      "ரண": 2821,
      "மறுமையை": 2822,
      "வில்லையோ": 2823,
      "பொய்ப்பித்த": 2824,
      "ர்க": 2825,
      "இயக்க": 2826,
      "எவருமில்லை": 2827,
      "அவ்விருவரும்": 2828,
      "ுமாறு": 2829,
      "ையான": 2830,
      "நாடியிருந்தால்": 2831,
      "மன்னிப்பவன்": 2832,
      "ஒருவரு": 2833,
      "வைத்தான்": 2834,
      "உயிரு": 2835,
      "you": 2836,
      "லோ": 2837,
      "ச்சொ": 2838,
      "முன்னிருந்த": 2839,
      "பொருள்": 2840,
      "தனக்கு": 2841,
      "ஓதிக்": 2842,
      "எஸ்": 2843,
      "க்ள": 2844,
      "டிக்க": 2845,
      "ஆச்சரிய": 2846,
      "AR": 2847,
      "பிரா": 2848,
      "நரகம்": 2849,
      "பிரவேசி": 2850,
      "நிராகரிப்பவர்கள்": 2851,
      "ran": 2852,
      "அலங்கார": 2853,
      "அத்த": 2854,
      "உண்டாக்கு": 2855,
      "el": 2856,
      "தால்": 2857,
      "ப்பே": 2858,
      "மேலே": 2859,
      "முந்திய": 2860,
      "எவ்வ": 2861,
      "ரங்க": 2862,
      "கொண்டவர்கள்": 2863,
      "விடுகிறான்": 2864,
      "நேர்வழிய": 2865,
      "அலார": 2866,
      "வாக்களிக்கப்பட்ட": 2867,
      "ஆதலால்": 2868,
      "com": 2869,
      "நமது": 2870,
      "யும்": 2871,
      "ப்பதை": 2872,
      "வணங்குங்கள்": 2873,
      "சின்": 2874,
      "முக்கிய": 2875,
      "வெற்ற": 2876,
      "கூறுகிறான்": 2877,
      "தூய": 2878,
      "நகல": 2879,
      "கொண்டால்": 2880,
      "கோப்புகள்": 2881,
      "ஹார்ட்": 2882,
      "தஸ்பீஹு": 2883,
      "ஆவார்கள்": 2884,
      "பரிந்து": 2885,
      "ுக்கிடையே": 2886,
      "ஆட்சி": 2887,
      "விசால": 2888,
      "கழு": 2889,
      "உங்களுக்குத்": 2890,
      "ுள்ளோம்": 2891,
      "பின்பற்ற": 2892,
      "கொண்டோ": 2893,
      "நேரத்தில்": 2894,
      "முது": 2895,
      "ME": 2896,
      "இன்று": 2897,
      "நய": 2898,
      "பாதையை": 2899,
      "சோதி": 2900,
      "அல்லாஹ்தான்": 2901,
      "ஜா": 2902,
      "நடி": 2903,
      "வியை": 2904,
      "துணை": 2905,
      "மாட்டீர்": 2906,
      "சேவைய": 2907,
      "வந்தது": 2908,
      "di": 2909,
      "மணி": 2910,
      "ர்ட": 2911,
      "ுக்குரிய": 2912,
      "மேசை": 2913,
      "வெள்ள": 2914,
      "பாவம்": 2915,
      "மூஸாவே": 2916,
      "wh": 2917,
      "தப்பி": 2918,
      "விட்டனர்": 2919,
      "ிருப்போம்": 2920,
      "KDE": 2921,
      "இத்த": 2922,
      "ுடனும்": 2923,
      "ப்பதற்கு": 2924,
      "சமூகத்தா": 2925,
      "ht": 2926,
      "களுடன்": 2927,
      "கொள்ளாதீர்கள்": 2928,
      "நன்கறிவான்": 2929,
      "ஃபிர்அவ்ன்": 2930,
      "ஆத": 2931,
      "கேட்டு": 2932,
      "நரகத்தில்": 2933,
      "பேராற்றல": 2934,
      "பெண்களை": 2935,
      "நீரும்": 2936,
      "பயன்பாடு": 2937,
      ";,": 2938,
      "இல்": 2939,
      "அவருடன்": 2940,
      "குளி": 2941,
      "கடினமான": 2942,
      "'%": 2943,
      "ation": 2944,
      "எத்தன": 2945,
      "உண்மையில்": 2946,
      "this": 2947,
      "நிறம்": 2948,
      "த்திற்குரிய": 2949,
      "விஷயத்தில்": 2950,
      "அருட்கொடைய": 2951,
      "10": 2952,
      "tle": 2953,
      "எவன": 2954,
      "ெழு": 2955,
      "காச": 2956,
      "வையாக": 2957,
      "முஸ்லிம": 2958,
      "ப்படவில்லை": 2959,
      "தேர்ந்தெடுக்கப்பட்ட": 2960,
      "தீங்கி": 2961,
      "அனுப்பப்பட்ட": 2962,
      "அதைத்": 2963,
      "இருக்கிறோம்": 2964,
      "முன்னே": 2965,
      "அருளை": 2966,
      "பலன": 2967,
      "கூர்வீராக": 2968,
      "fi": 2969,
      "சபி": 2970,
      "த்தில": 2971,
      "இருப்பின்": 2972,
      "தண்ணீர்": 2973,
      "மலும்": 2974,
      "பூரண": 2975,
      "தூதரை": 2976,
      "தொலை": 2977,
      "சோதனை": 2978,
      "அவளை": 2979,
      "AT": 2980,
      "நட்ச": 2981,
      "வரலா": 2982,
      "நடப்பு": 2983,
      "ஆக்கிக்": 2984,
      "ளிக்": 2985,
      "ப்ராஸ": 2986,
      "வஞ்ச": 2987,
      "ஏற்பட்டு": 2988,
      "வசனங்களைப்": 2989,
      "சாட்சியாக": 2990,
      "வணை": 2991,
      "உம்மீது": 2992,
      "நடப்ப": 2993,
      "பக்கமே": 2994,
      "ஃபா": 2995,
      "மீறிய": 2996,
      "ஜீ": 2997,
      "ப்போதும்": 2998,
      "அல்லாஹ்வைத்": 2999,
      "விரைந்து": 3000,
      "()": 3001,
      "கொன்று": 3002,
      "காட்டி": 3003,
      "இவ்விரு": 3004,
      "வர்களைத்": 3005,
      "விதமான": 3006,
      "தூய்மையான": 3007,
      "இறக்கப்பட்ட": 3008,
      "இதைக்": 3009,
      "கட்டளையி": 3010,
      "ாமல": 3011,
      "முன்னரே": 3012,
      "யூத": 3013,
      "னோ": 3014,
      "ோடு": 3015,
      "சோலை": 3016,
      "சார்ந்த": 3017,
      "உங்களுக்குச்": 3018,
      "போதுமானவன்": 3019,
      "பொது": 3020,
      "இடது": 3021,
      "விரும்புகிறீர்களா": 3022,
      "ளம்": 3023,
      "காஃபிர்களை": 3024,
      "பார்த்துக்": 3025,
      "தீங்கிழை": 3026,
      "இவர்களுடைய": 3027,
      "பொருட்களையும்": 3028,
      "துவக்க": 3029,
      "இருதயங்கள்": 3030,
      "Re": 3031,
      "தமான": 3032,
      "ரூ": 3033,
      "அவரிடம்": 3034,
      "எந்தப்": 3035,
      "ஜகா": 3036,
      "உம்மைப்": 3037,
      "பைத்திய": 3038,
      "நூஹ": 3039,
      "பதிலாக": 3040,
      "தற்போதைய": 3041,
      "ஏய்": 3042,
      "ர்களுக்கும்": 3043,
      "விரைவில்": 3044,
      "காப்பாற்று": 3045,
      "நல்லுபதேச": 3046,
      "டின்": 3047,
      "இருந்தார்": 3048,
      "பக்கத்தில்": 3049,
      "எத்தனையோ": 3050,
      "SL": 3051,
      "மையா": 3052,
      "முறையாக": 3053,
      "கஷ்ட": 3054,
      "திட்டம்": 3055,
      "ஃபிர்அவ்ன": 3056,
      "eneric": 3057,
      "OR": 3058,
      "qu": 3059,
      "கொடைய": 3060,
      "ுடையோ": 3061,
      "தன்னை": 3062,
      "உரையா": 3063,
      "இயலாது": 3064,
      "ஒருவன": 3065,
      "நம்மிடம்": 3066,
      "ort": 3067,
      "நின்றும்": 3068,
      "மெரி": 3069,
      "நிலைத்த": 3070,
      "சமமாக": 3071,
      "பொருள": 3072,
      "னையை": 3073,
      "பரா": 3074,
      "ந்தும்": 3075,
      "இருந்தார்கள்": 3076,
      "மொழி": 3077,
      "ாதிரு": 3078,
      "ியுங்கள்": 3079,
      "இதுதான்": 3080,
      "காரம்": 3081,
      "நெருப்பை": 3082,
      "உடனே": 3083,
      "த்தினால்": 3084,
      "பார்க்கிற": 3085,
      "கொள்கிறார்கள்": 3086,
      "காண்பீர்": 3087,
      "but": 3088,
      "க்காது": 3089,
      "த்தைச்": 3090,
      "விட்டீர்கள்": 3091,
      "த்தாலும்": 3092,
      "க்கின்றனர்": 3093,
      "நான்கு": 3094,
      "கரி": 3095,
      "ல்கள": 3096,
      "களான": 3097,
      "செய்வோம்": 3098,
      "உண்மையை": 3099,
      "இயக்கி": 3100,
      "அஞ்சல்": 3101,
      "பயந்து": 3102,
      "தூதராக": 3103,
      "இதைப்": 3104,
      "அனுப்பினோம்": 3105,
      "சமூகத்தாரை": 3106,
      "தந்தை": 3107,
      "ஆறுகள்": 3108,
      "க்குப்": 3109,
      "முடன்": 3110,
      "களால்": 3111,
      "காற்று": 3112,
      "குறைந்த": 3113,
      "இவ்வுலகில்": 3114,
      "ாதே": 3115,
      "வுடன்": 3116,
      "வினர்": 3117,
      "முறைய": 3118,
      "இறக்குமதி": 3119,
      "அணி": 3120,
      "ிற்கும்": 3121,
      "க்கிறார்களோ": 3122,
      "பொருளையும்": 3123,
      "நீண்ட": 3124,
      "முறி": 3125,
      "அல்லாஹ்வையே": 3126,
      "விட்டுச்": 3127,
      "மாத": 3128,
      "கூட்டத்தார்": 3129,
      "பாக்கியம்": 3130,
      "கடவுச்சொ": 3131,
      "இஸ்ராயீலின்": 3132,
      "நயவஞ்ச": 3133,
      "pp": 3134,
      "ட்டிய": 3135,
      "பெறும்": 3136,
      "மகன்": 3137,
      "கூட்டத்தின": 3138,
      "yp": 3139,
      "அல்லாஹ்வையும்": 3140,
      "சாய": 3141,
      "வலி": 3142,
      "க்கொருவர்": 3143,
      "அல்லாஹ்வும்": 3144,
      "காரணத்தால்": 3145,
      "பொய்ப்பிக்க": 3146,
      "அட்டவணை": 3147,
      "ஒருவருக்கொருவர்": 3148,
      "(\"": 3149,
      "ஒருவனாக": 3150,
      "வீர்களாக": 3151,
      "வேதனையைக்": 3152,
      "மாதிரி": 3153,
      "அதிகமாக": 3154,
      "ஹாரூ": 3155,
      "உள்": 3156,
      "தேதி": 3157,
      "சுக": 3158,
      "வேதத்தையும்": 3159,
      "வர்களாகவே": 3160,
      "மரணம்": 3161,
      "எம்": 3162,
      "டான": 3163,
      "லின்": 3164,
      "ப்பொ": 3165,
      "இறைவனிடத்தில்": 3166,
      "நம்பிக்க": 3167,
      "--": 3168,
      "இல்லையா": 3169,
      "தமக்குத்": 3170,
      "IS": 3171,
      "மூஸாவுக்கு": 3172,
      "எறிய": 3173,
      "விற்க": 3174,
      "மானி": 3175,
      "முடியுமா": 3176,
      "அத்தாட்சிய": 3177,
      "ஸமூ": 3178,
      "க்கோ": 3179,
      "செய்தாலும்": 3180,
      "ங்களைக்": 3181,
      "ஸமூது": 3182,
      "tur": 3183,
      "லுள்ள": 3184,
      "்கிறது": 3185,
      "நெருக்க": 3186,
      "வணக்கத்திற்குரிய": 3187,
      "றித": 3188,
      "த்துச்": 3189,
      "காது": 3190,
      "ப்போர்": 3191,
      "வந்தார்கள்": 3192,
      "ஏற்படும்": 3193,
      "சேர்ந்த": 3194,
      "உதாரணம்": 3195,
      "அன்ப": 3196,
      "த்தே": 3197,
      "விடவும்": 3198,
      "பயனர்": 3199,
      "world": 3200,
      "ஸலாம்": 3201,
      "ருள": 3202,
      "கொழு": 3203,
      "களிடம்": 3204,
      "பயி": 3205,
      "வர்களைப்": 3206,
      "mb": 3207,
      "யஃ": 3208,
      "சிக்க": 3209,
      "சத்தியத்தை": 3210,
      "திடனாக": 3211,
      "CO": 3212,
      "fuck": 3213,
      "செய்வது": 3214,
      "ang": 3215,
      "அவரைப்": 3216,
      "நற்கூலி": 3217,
      "கற்றுக்": 3218,
      "Generic": 3219,
      "கொடிய": 3220,
      "வெளியேற்ற": 3221,
      "தகவல": 3222,
      "கத்தில்": 3223,
      "நன்கறிபவன்": 3224,
      "செயல்படுத்து": 3225,
      "இப்லீ": 3226,
      "ஒழுங்கு": 3227,
      "GenericName": 3228,
      "உம": 3229,
      "ராய்": 3230,
      "எரி": 3231,
      "மார்க்கத்தை": 3232,
      "முற்பட்ட": 3233,
      "நட்சத்திர": 3234,
      "gion": 3235,
      "id": 3236,
      "அதற்காக": 3237,
      "ங்களிலும்": 3238,
      "ங்களிலிருந்து": 3239,
      "எவ்வளவு": 3240,
      "ஹார்ட்ஸின்": 3241,
      "மோ": 3242,
      "பொருட்கள்": 3243,
      "im": 3244,
      "க்கப்பட்டுள்ள": 3245,
      "அவகாசம்": 3246,
      "வர்களுக்கும்": 3247,
      "ரியா": 3248,
      "கொண்டார்": 3249,
      "தொக": 3250,
      "அனைத்தையும்": 3251,
      "திரும்பு": 3252,
      "வெளிப்படைய": 3253,
      "அணுக": 3254,
      "ஸ்பேடின்": 3255,
      "பத்து": 3256,
      "முதலில்": 3257,
      "sp": 3258,
      "டக்கு": 3259,
      "இருங்கள்": 3260,
      "வானங்கள்": 3261,
      "்களைப்": 3262,
      "சான்றித": 3263,
      "அங்க": 3264,
      "இசை": 3265,
      "க்கொ": 3266,
      "உள்ளிட": 3267,
      "ங்களைப்": 3268,
      "பெற்றுக்": 3269,
      "நீக்கி": 3270,
      "சிர": 3271,
      "பெண்கள": 3272,
      "பந்த": 3273,
      "கிறார்": 3274,
      "கொண்டுள்ள": 3275,
      "அறிகிறான்": 3276,
      "வற்றையெல்லாம்": 3277,
      "அழித்த": 3278,
      "ஸுலை": 3279,
      "வாசிகள்": 3280,
      "br": 3281,
      "cr": 3282,
      "இருள": 3283,
      "புல": 3284,
      "பின்னால்": 3285,
      "ரான": 3286,
      "துடை": 3287,
      "தேர்ந்தெடுத்து": 3288,
      "அவற்றைப்": 3289,
      "கட்டுப்பா": 3290,
      "ஜினியா": 3291,
      "மண்டின்": 3292,
      "மஸ்ஜி": 3293,
      "பங்கு": 3294,
      "மழ": 3295,
      "மணம்": 3296,
      "வழு": 3297,
      "அவர்களோ": 3298,
      "வுகள்": 3299,
      "ரைக்": 3300,
      "மேயாகும்": 3301,
      "அலை": 3302,
      "அமெரி": 3303,
      "இறுதிய": 3304,
      "விற்": 3305,
      "ண்டை": 3306,
      "மீட்ட": 3307,
      "கூலியை": 3308,
      "உறவின": 3309,
      "ஆது": 3310,
      "ப்பதில்லை": 3311,
      "வாச": 3312,
      "உமக்குக்": 3313,
      "வசனங்கள்": 3314,
      "வேதனையைச்": 3315,
      "ஒப்பு": 3316,
      "அவர்களிடையே": 3317,
      "உண்மையைக்": 3318,
      "மின்றி": 3319,
      "அமல்கள்": 3320,
      "சத்த": 3321,
      "மரு": 3322,
      "வற்று": 3323,
      "ஸீ": 3324,
      "தவறி": 3325,
      "பிம்பத்தை": 3326,
      "தங்க": 3327,
      "ட்டுப்": 3328,
      "முஃமின்களாக": 3329,
      "கேட்டார்": 3330,
      "தெரியாது": 3331,
      "உன்னுடைய": 3332,
      "விற்ஜினியா": 3333,
      "மாக்கு": 3334,
      "தண்டி": 3335,
      "கண்டுபிடிக்க": 3336,
      "செவியுறு": 3337,
      "க்ளப்": 3338,
      "su": 3339,
      "மைப்பு": 3340,
      "ேயாகும்": 3341,
      "ஆதரவு": 3342,
      "ஜாக்": 3343,
      "லிய": 3344,
      "வோ": 3345,
      "வெறும்": 3346,
      "இருப்பீராக": 3347,
      "மறுமையிலும்": 3348,
      "மழை": 3349,
      "கார்": 3350,
      "ஆடு": 3351,
      "ஏவு": 3352,
      "பவனாக": 3353,
      "ையால்": 3354,
      "வீண்": 3355,
      "தீமையை": 3356,
      "இருக்கின்றோம்": 3357,
      "இயல்": 3358,
      "சமூகத்தாரிடம்": 3359,
      "கேட்பீராக": 3360,
      "அடு": 3361,
      "மன்": 3362,
      "வர்களா": 3363,
      "ியாயமாக": 3364,
      "உள்ளிடு": 3365,
      "தூர": 3366,
      "அநா": 3367,
      "திக்கும்": 3368,
      "நகல்": 3369,
      "தெரியாத": 3370,
      "மூழ்கடி": 3371,
      "பழைய": 3372,
      "ாவது": 3373,
      "டையும்": 3374,
      "செய்தார்கள்": 3375,
      "திரும்பிச்": 3376,
      "ஆல்": 3377,
      "வேள": 3378,
      "ஒருவன்": 3379,
      "பெற்றி": 3380,
      "போரி": 3381,
      "போருக்கு": 3382,
      "நெருப்பின்": 3383,
      "கால்நடை": 3384,
      "உடன்படி": 3385,
      "எப்போதும்": 3386,
      "விடுவீராக": 3387,
      "க்கப்பட்டால்": 3388,
      "செய்கிறார்கள்": 3389,
      "லாக": 3390,
      "ஸிய": 3391,
      "ொழு": 3392,
      "முழ": 3393,
      "புது": 3394,
      "வழிப்பட்ட": 3395,
      "க்கொள்": 3396,
      "UR": 3397,
      "வேக": 3398,
      "செயலை": 3399,
      "பின்னும்": 3400,
      "அந்தரங்க": 3401,
      "கண்கா": 3402,
      "காணும்": 3403,
      "முறைப்படி": 3404,
      ")\"": 3405,
      "இன": 3406,
      "கதை": 3407,
      "மல்ல": 3408,
      "பிரயா": 3409,
      "ent": 3410,
      "காணவில்லை": 3411,
      "உத": 3412,
      "ுக்கான": 3413,
      "அழைப்ப": 3414,
      "சாளரம்": 3415,
      "குடும்பத்தார": 3416,
      "நிறைவேற்று": 3417,
      "அர்ரஹ்மான": 3418,
      "ஆயி": 3419,
      "இப்படி": 3420,
      "பட்டி": 3421,
      "பட்ச": 3422,
      "வகைய": 3423,
      "மாளி": 3424,
      "னுடன்": 3425,
      "நிற்க": 3426,
      "கொள்ள": 3427,
      "உட்க": 3428,
      "ர்த": 3429,
      "வழக்க": 3430,
      "சுல": 3431,
      "கோப": 3432,
      "பிடித்து": 3433,
      "கவனித்த": 3434,
      "மின்னஞ்ச": 3435,
      "வழிகேட்டில்": 3436,
      "xt": 3437,
      "ஜெ": 3438,
      "க்கக்": 3439,
      "முண்டு": 3440,
      "நல்லது": 3441,
      "செய்பவற்றை": 3442,
      "சர்": 3443,
      "ஏற்படுத்திய": 3444,
      "லாண்ட்": 3445,
      "பூமியின்": 3446,
      "வடிகட்டி": 3447,
      "ஹி": 3448,
      "நீயே": 3449,
      "மைப்": 3450,
      "டைமண்டின்": 3451,
      "கோப்பை": 3452,
      "செல்லுங்கள்": 3453,
      "படியும்": 3454,
      "தெய்வங்களை": 3455,
      "மொழி": 3456,
      "யூஸுஃ": 3457,
      "அட": 3458,
      "தவண": 3459,
      "னவே": 3460,
      "தற்கா": 3461,
      "20": 3462,
      "ML": 3463,
      "இடையே": 3464,
      "மாகிய": 3465,
      "ers": 3466,
      "கொடுங்கள்": 3467,
      "கர்ப்ப": 3468,
      "லு": 3469,
      "வுக்கும்": 3470,
      "வீட்ட": 3471,
      "ப்படாதீர்": 3472,
      "காஃபிர்கள": 3473,
      "பைய": 3474,
      "அவர்களே": 3475,
      "குடி": 3476,
      "உள்ளீடு": 3477,
      "வழிகெ": 3478,
      "கொள்வீராக": 3479,
      "ீர்களானால்": 3480,
      "அனைத்தும்": 3481,
      "நாட்களில்": 3482,
      "இப்ராஹீம்": 3483,
      "அற்ப": 3484,
      "முத": 3485,
      "இருக்கின்றேன்": 3486,
      "அல்லாஹ்விடத்தில்": 3487,
      "பிரிவினர்": 3488,
      "CD": 3489,
      "ன்பது": 3490,
      "நகர்த்த": 3491,
      "மனிதர்களை": 3492,
      "ஏற்கனவே": 3493,
      "விவாக": 3494,
      "தோழ": 3495,
      "சமூகத்தாரே": 3496,
      "கடைப்பிடி": 3497,
      "எனக்கும்": 3498,
      "அவனைப்": 3499,
      "நற்கருமங்கள்": 3500,
      "கருணையுடைய": 3501,
      "இவைய": 3502,
      "மாக்கி": 3503,
      "அவனையே": 3504,
      "அனுமதிய": 3505,
      "தூதரும்": 3506,
      "அறிந்தவன்": 3507,
      "கடைசி": 3508,
      "இன்ப": 3509,
      "பண்": 3510,
      "பாதைய": 3511,
      "உங்களைச்": 3512,
      "மிக்கோ": 3513,
      "அனைவரும்": 3514,
      "jec": 3515,
      "அநே": 3516,
      "லேயே": 3517,
      "செய்தது": 3518,
      "title": 3519,
      "கொள்வதற்காக": 3520,
      "பயபக்தியுடன்": 3521,
      "ia_": 3522,
      "bo": 3523,
      "pr": 3524,
      "ஆவான்": 3525,
      "நல்": 3526,
      "புனி": 3527,
      "இருக்கின்றது": 3528,
      "அதற்குரிய": 3529,
      "த்துக்கு": 3530,
      "குமார": 3531,
      "க்காத": 3532,
      "இடைவெளி": 3533,
      "வடிவமைப்பு": 3534,
      "நின்றுமுள்ள": 3535,
      "up": 3536,
      "ஆகார": 3537,
      "இரவில்": 3538,
      "கொண்ட": 3539,
      "தடுத்துக்": 3540,
      "த்தவிர": 3541,
      "அவர்களுக்கும்": 3542,
      "களி": 3543,
      "தீமைய": 3544,
      "வேதத்த": 3545,
      "art": 3546,
      "ould": 3547,
      "vi": 3548,
      "இதனால்": 3549,
      "பண்ண": 3550,
      "முளை": 3551,
      "சிரி": 3552,
      "விட்டேன்": 3553,
      "translate": 3554,
      "உலகத்த": 3555,
      "கண்காணி": 3556,
      "எதனையும்": 3557,
      "புள்ள": 3558,
      "ங்களைச்": 3559,
      "படைத்தோம்": 3560,
      "புரிந்து": 3561,
      "மேயன்றி": 3562,
      "ருள்வாயாக": 3563,
      "க்கர": 3564,
      "துண்டு": 3565,
      "மால": 3566,
      "கிறி": 3567,
      "tin": 3568,
      "மன்னித்து": 3569,
      "கூட்டத்தா": 3570,
      "விருந்த": 3571,
      "பதிப்பு": 3572,
      "அவ்வாறாயின்": 3573,
      "ue": 3574,
      "மடைந்த": 3575,
      "இறைவனாகிய": 3576,
      "லிக": 3577,
      "நெடு": 3578,
      "பொத்தான": 3579,
      "உம்மைக்": 3580,
      "கேட்டான்": 3581,
      "யஃகூ": 3582,
      "we": 3583,
      "ையையும்": 3584,
      "விடுவேன்": 3585,
      "தியாக": 3586,
      "மிகப்": 3587,
      "சுமந்து": 3588,
      "குர": 3589,
      "ங்க்": 3590,
      "வருட": 3591,
      "அவ்வா": 3592,
      "ன்City": 3593,
      "வர்களிடம்": 3594,
      "செய்வார்கள்": 3595,
      "அளவை": 3596,
      "த்திற்காக": 3597,
      "ஓடிக்கொண்ட": 3598,
      "key": 3599,
      "ாவிட்டால்": 3600,
      "மூடு": 3601,
      "செய்யாதீர்கள்": 3602,
      "கடலில்": 3603,
      "முகம்": 3604,
      "விரும்பும்": 3605,
      "இலே": 3606,
      "கேட்கிறார்கள்": 3607,
      "நியாயத்": 3608,
      "நயவஞ்சக": 3609,
      "ஆகு": 3610,
      "வீணான": 3611,
      "ஐந்து": 3612,
      "மீள்": 3613,
      "வில்லைய": 3614,
      "இவ்வுல": 3615,
      "மறுமையின்": 3616,
      "சொடு": 3617,
      "தொடர்பு": 3618,
      "தர்க்கி": 3619,
      "bjec": 3620,
      "ரஸூ": 3621,
      "ழ்த்த": 3622,
      "ஸ்City": 3623,
      "வணக்கம்": 3624,
      "சீட்டு": 3625,
      "நன்மாராயம்": 3626,
      "செவியேற்ப": 3627,
      "தற்காலிக": 3628,
      "ரெ": 3629,
      "வியா": 3630,
      "த்தார்கள்": 3631,
      "ந்தான்": 3632,
      "க்ஸ": 3633,
      "வருடைய": 3634,
      "கேட்பார்கள்": 3635,
      "ப்ராஸரோ": 3636,
      "ew": 3637,
      "பணம்": 3638,
      "வேதத்தின்": 3639,
      "மன்னிப்போ": 3640,
      "தெரியுமா": 3641,
      "கொள்கிறார்களோ": 3642,
      "பொருட்களை": 3643,
      "பாகம்": 3644,
      "Th": 3645,
      "விலிருந்து": 3646,
      "பிண": 3647,
      "உம்முடன்": 3648,
      "இந்தப்": 3649,
      "இடத்தை": 3650,
      "வெளிப்படுத்த": 3651,
      "சிறிதும்": 3652,
      "ஒள": 3653,
      "யீ": 3654,
      "மூன்ற": 3655,
      "menu": 3656,
      "அவ்வூ": 3657,
      "செய்கிறாரோ": 3658,
      "ந்திக்": 3659,
      "மாற்றுக": 3660,
      "சனை": 3661,
      "உங்களைத்": 3662,
      "நெஞ்ச": 3663,
      "ந்திர": 3664,
      "நல்லுண": 3665,
      "ஆக்கு": 3666,
      "ரீ": 3667,
      "வகு": 3668,
      "ோரில்": 3669,
      "போதெல்லாம்": 3670,
      "அவர்களுக்குச்": 3671,
      "ப்படாத": 3672,
      "கைகளை": 3673,
      "பாதுகாப்பு": 3674,
      "திட்டத்தை": 3675,
      "பிம்பம்": 3676,
      "பயபக்தியுடையவர்களுக்கு": 3677,
      "இல்லாமல்": 3678,
      "தவ்ரா": 3679,
      "நரகத்தின்": 3680,
      "mon": 3681,
      "க்கலாம்": 3682,
      "க்கவில்லையா": 3683,
      "குற": 3684,
      "ிலிருந்தே": 3685,
      "கிள": 3686,
      "item": 3687,
      "நகர": 3688,
      "ஒவ்வொரு": 3689,
      "அடியார்களில்": 3690,
      "கத": 3691,
      "ல்களை": 3692,
      "மாடு": 3693,
      "வைக்கும்": 3694,
      "வீடுகளில்": 3695,
      "உரிமைய": 3696,
      "இங்க": 3697,
      "படும்": 3698,
      "யெல்லாம்": 3699,
      "ந்திய": 3700,
      "முனா": 3701,
      "மீன்": 3702,
      "சுட்டி": 3703,
      "தீர்ப்புச்": 3704,
      "இயலாத": 3705,
      "முனாஃபி": 3706,
      "புசி": 3707,
      "அழகா": 3708,
      "மாட்டீர்களா": 3709,
      "சந்ததி": 3710,
      "உண்டாக்கி": 3711,
      "செயல்படுத்த": 3712,
      "அச்சுப்பொ": 3713,
      "கிருபையுடையவன்": 3714,
      "தகுதிய": 3715,
      "மட": 3716,
      "ீர": 3717,
      "பேரீ": 3718,
      "மேலாள": 3719,
      "துக்க": 3720,
      "முனை": 3721,
      "செய்வோர்": 3722,
      "கொடுப்போம்": 3723,
      "விலக்கு": 3724,
      "கட்டளையை": 3725,
      "ப்பெய": 3726,
      "உண்மையாளர்களாக": 3727,
      "ாளி": 3728,
      "கைகள்": 3729,
      "ழ்ந்த": 3730,
      "இருப்பது": 3731,
      "க்கின்றோம்": 3732,
      "நினைக்கிறேன்": 3733,
      "நெருப்பில்": 3734,
      "பேராற்றலுடையவன்": 3735,
      "dis": 3736,
      "நோ": 3737,
      "ுமே": 3738,
      "த்திலிருந்தும்": 3739,
      "தியை": 3740,
      "இறங்கு": 3741,
      "விளக்கு": 3742,
      "ஸ்ட்": 3743,
      "கன்": 3744,
      "தடை": 3745,
      "வளை": 3746,
      "ியான": 3747,
      "விடியோ": 3748,
      "திசை": 3749,
      "இருந்தோம்": 3750,
      "பொருள்": 3751,
      "ீர்களே": 3752,
      "க்காமல்": 3753,
      "அருளிய": 3754,
      "சொன்னார்": 3755,
      "சுலப": 3756,
      "ந்திருப்ப": 3757,
      "ிலே": 3758,
      "கொள்ளவும்": 3759,
      "மனிதனை": 3760,
      "செவிம": 3761,
      "தர்ம": 3762,
      "உண்ண": 3763,
      "விலை": 3764,
      "ோமோ": 3765,
      "உள்ளங்களில்": 3766,
      "எதிரி": 3767,
      "த்திற்குப்": 3768,
      "bel": 3769,
      "இணைய": 3770,
      "தொடர்ந்து": 3771,
      "எவர்களை": 3772,
      "வாங்கி": 3773,
      "கொண்டுவர": 3774,
      "விட்டுத்": 3775,
      "உருவ": 3776,
      "உரிமை": 3777,
      "உங்களுக்கும்": 3778,
      "தவிர்த்து": 3779,
      "வேதனையுண்டு": 3780,
      "துன்பம்": 3781,
      "விரும்பினால்": 3782,
      "rance": 3783,
      "எடுக்க": 3784,
      "ஏவ": 3785,
      "கணி": 3786,
      "த்தள": 3787,
      "வாங்கு": 3788,
      "ஒருவரை": 3789,
      "மனிதனுக்கு": 3790,
      "தேர்ந்தெடுக்க": 3791,
      "எல்லோரும்": 3792,
      "நம்மிடமிருந்து": 3793,
      "அறிவுடைய": 3794,
      "The": 3795,
      "சதி": 3796,
      "கூடு": 3797,
      "போதுமான": 3798,
      "கொள்வீர்கள்": 3799,
      "விஷயம்": 3800,
      "lic": 3801,
      "ஊரை": 3802,
      "கொள்வதில்லை": 3803,
      "வெளியேற்றி": 3804,
      "இல்லாதிரு": 3805,
      "பொறுமையுடன்": 3806,
      "நல்லடியார்கள": 3807,
      "gre": 3808,
      "பழ": 3809,
      "உள்ளே": 3810,
      "சொல்ல": 3811,
      "சகோதரர்": 3812,
      "கண்ணியமான": 3813,
      "்கூறு": 3814,
      "Con": 3815,
      "li": 3816,
      "க்குள்": 3817,
      "வந்தபோது": 3818,
      "அழைப்பு": 3819,
      "பார்க்கவும்": 3820,
      "இப்பூ": 3821,
      "மரித்த": 3822,
      "பரிசுத்தமான": 3823,
      "பராமுக": 3824,
      "மஸ்ஜிது": 3825,
      "எல்": 3826,
      "கான": 3827,
      "ிடப்பட்ட": 3828,
      "கிழ": 3829,
      "ஏற்றுமதி": 3830,
      "இணையா": 3831,
      "தங்குமிட": 3832,
      "அழுத்த": 3833,
      "இப்றாஹீம்": 3834,
      "உபய": 3835,
      "யன்": 3836,
      "வயி": 3837,
      "க்குமாறு": 3838,
      "கொண்டனர்": 3839,
      "எச்சரிக்க": 3840,
      "கூலிய": 3841,
      "கிறிஸ்த": 3842,
      "னில்": 3843,
      "ப்பவர்": 3844,
      "நிச்சம": 3845,
      "தேட": 3846,
      "உள்ளமை": 3847,
      "முன்னரும்": 3848,
      "இரவின்": 3849,
      "நாடியவர்களை": 3850,
      "ஃபிர்அவ்னின்": 3851,
      "சின்ன": 3852,
      "அத": 3853,
      "இச்சை": 3854,
      "வோருக்கு": 3855,
      "சியுங்கள்": 3856,
      "அகலம்": 3857,
      "சுவனபதிய": 3858,
      "கரமாக": 3859,
      "உற்று": 3860,
      "சகி": 3861,
      "க்கிறார்": 3862,
      "அவ்விரண்ட": 3863,
      "try": 3864,
      "அவருக்குக்": 3865,
      "கேட்கும்": 3866,
      "விரும்பவில்லை": 3867,
      "க்கப்படுவார்கள்": 3868,
      "அதிகாரம்": 3869,
      "ஈமானை": 3870,
      "ிடமும்": 3871,
      "வைப்": 3872,
      "உள்ளடக்க": 3873,
      "வானம்": 3874,
      "நிறைய": 3875,
      "action": 3876,
      "புகுத்து": 3877,
      "த்தையே": 3878,
      "தாவூ": 3879,
      "உள்ளவையும்": 3880,
      "வெளியேறி": 3881,
      "சந்ததியின": 3882,
      "ன்ட்": 3883,
      "ின்றனர்": 3884,
      "நெருங்கி": 3885,
      "அறிந்தவனாக": 3886,
      "திருப்தி": 3887,
      "உபயோ": 3888,
      "கடன்": 3889,
      "னார்கள்": 3890,
      "முமில்லை": 3891,
      "மூட": 3892,
      "இருக்கின்றார்கள்": 3893,
      "பொருட்களின்": 3894,
      "எழுதக்கூடிய": 3895,
      "சரியாக": 3896,
      "அர்ஷ": 3897,
      "கேளும்": 3898,
      "டாது": 3899,
      "தினம்": 3900,
      "மாக்கிக்": 3901,
      "தாக்கு": 3902,
      "வோமா": 3903,
      "கணக்கி": 3904,
      "இணைவைப்ப": 3905,
      "எவருடைய": 3906,
      "சுவர்க்கத்தில்": 3907,
      "//": 3908,
      "தட்ட": 3909,
      "செங்கு": 3910,
      "ிருந்தது": 3911,
      "லிலும்": 3912,
      "சொல்லி": 3913,
      "கீழ்படி": 3914,
      "og": 3915,
      "தட்டு": 3916,
      "மாகப்": 3917,
      "தீங்கு": 3918,
      "மென்": 3919,
      "ிருக்கின்றன": 3920,
      "எழுதுதல்": 3921,
      "should": 3922,
      "க்ளப்ஸின்": 3923,
      "உப": 3924,
      "கொடுப்பான்": 3925,
      "நோக்கு": 3926,
      "வசனங்கள": 3927,
      "மாற்றம்": 3928,
      "ராயின்": 3929,
      "உபதேச": 3930,
      "ப்பதற்காகவும்": 3931,
      "அநாதை": 3932,
      "ர்ட்": 3933,
      "ியு": 3934,
      "பேச்ச": 3935,
      "வோனாகவும்": 3936,
      "நேர்ந்தது": 3937,
      "அனைவரையும்": 3938,
      "சீக்கிர": 3939,
      "சொருகு": 3940,
      "சகோதரி": 3941,
      "முழுமையாக": 3942,
      "மேலானவன்": 3943,
      "வேதத்தையுடைய": 3944,
      "கைப்ப": 3945,
      "ம்பை": 3946,
      "நகலெடு": 3947,
      "RO": 3948,
      "ase": 3949,
      "tor": 3950,
      "உற்ற": 3951,
      "ஓடு": 3952,
      "ில்லாத": 3953,
      "நிச்சயமாகக்": 3954,
      "வர்களுடன்": 3955,
      "கூறுவது": 3956,
      "ith": 3957,
      "சமூகத்தார்": 3958,
      "வீர்களானால்": 3959,
      "ணர": 3960,
      "நொ": 3961,
      "மானக்கே": 3962,
      "திருத்து": 3963,
      "பலனை": 3964,
      "விளங்கிக்": 3965,
      "கணினி": 3966,
      "60": 3967,
      "TR": 3968,
      "if": 3969,
      "இரா": 3970,
      "தியா": 3971,
      "த்தர": 3972,
      "இரண்டா": 3973,
      "தெளிவு": 3974,
      "செல்லு": 3975,
      "கூலியாக": 3976,
      "ag": 3977,
      "யோ": 3978,
      "ர்க்": 3979,
      "வடு": 3980,
      "நீக்கவும்": 3981,
      "பிள்ள": 3982,
      "பொழிய": 3983,
      "சேவ": 3984,
      "உயர்த்த": 3985,
      "கடமைய": 3986,
      "பின்னணி": 3987,
      "எங்களுக்காக": 3988,
      "குருட": 3989,
      "ton": 3990,
      "அதே": 3991,
      "ர்களாகவும்": 3992,
      "ட்டப்பட்ட": 3993,
      "கையின்": 3994,
      "நடக்க": 3995,
      "அடைந்து": 3996,
      "நாடியவர்களுக்கு": 3997,
      "கெட்டது": 3998,
      "சிந்தித்துப்": 3999,
      "இப்பூம": 4000,
      "HT": 4001,
      "ir": 4002,
      "ஆக்கினான்": 4003,
      "க்குறி": 4004,
      "தாகவே": 4005,
      "பெண்களும்": 4006,
      "நற்போ": 4007,
      "சொந்தம்": 4008,
      "crip": 4009,
      "MM": 4010,
      "ஆசை": 4011,
      "ப்பும்": 4012,
      "விடுகிறது": 4013,
      "org": 4014,
      "எப்படிய": 4015,
      "mo": 4016,
      "இவரை": 4017,
      "செருகு": 4018,
      "வுமே": 4019,
      "வலப்புற": 4020,
      "தயார": 4021,
      "அவற்றைக்": 4022,
      "தடுத்த": 4023,
      "ஹூ": 4024,
      "வரிட": 4025,
      "வந்துள்ள": 4026,
      "ப்பெற்ற": 4027,
      "அமைப்புகள்": 4028,
      "நிச்சமயாக": 4029,
      "இதோ": 4030,
      "னியா": 4031,
      "ள்க": 4032,
      "றுத்து": 4033,
      "பிரச்ச": 4034,
      "நோன்பு": 4035,
      "ிருக்கிறேன்": 4036,
      "யில்லை": 4037,
      "திருப்பிக்": 4038,
      "திருப்திய": 4039,
      "வாக்குறுதியை": 4040,
      "நினைவூட்டு": 4041,
      "எங்க": 4042,
      "ோரையும்": 4043,
      "உங்களிடையே": 4044,
      "சேத": 4045,
      "உம்மைத்": 4046,
      "தொடர": 4047,
      "விசாரணை": 4048,
      "த்துவ": 4049,
      "ஞானத்தையும்": 4050,
      "பொறுமையை": 4051,
      "பிரிந்து": 4052,
      "தேர்ந்தெடுக்கவும்": 4053,
      "அடியார்களை": 4054,
      "முந்தைய": 4055,
      "ோரின்": 4056,
      "பெட்ட": 4057,
      "வேதத்தில்": 4058,
      "கோண": 4059,
      "label": 4060,
      "அத்தாட்சியை": 4061,
      "இழந்து": 4062,
      "பறவை": 4063,
      "ளு": 4064,
      "ட்டாள": 4065,
      "ற்றும்": 4066,
      "ரியும்": 4067,
      "ஞ்சம்": 4068,
      "கருத்து": 4069,
      "அறிவித்தோம்": 4070,
      "பரிக": 4071,
      "பயன்பா": 4072,
      "அகிலங்களின்": 4073,
      "என்னுடன்": 4074,
      "சுமை": 4075,
      "ties": 4076,
      "அடிப்ப": 4077,
      "இவர்களில்": 4078,
      "ஆண்களும்": 4079,
      "சித்தம்": 4080,
      "ரஹ்மத்தை": 4081,
      "எவரை": 4082,
      "கும்": 4083,
      "ூத": 4084,
      "ோராக": 4085,
      "வேல": 4086,
      "குற்றமில்லை": 4087,
      "ஜிப்ர": 4088,
      "தங்குமிடம்": 4089,
      "angu": 4090,
      "களாகவும்": 4091,
      "வனுக்கு": 4092,
      "ஒருவேளை": 4093,
      "பெட்டி": 4094,
      "செய்தியை": 4095,
      "தவறிய": 4096,
      "சூழ": 4097,
      "மன்னிப்பும்": 4098,
      "நூஹ்": 4099,
      "இதயங்களில்": 4100,
      "நல்லுணர்வு": 4101,
      "எட்டு": 4102,
      "நாங்களும்": 4103,
      "என்னைப்": 4104,
      "கொள்கிறான்": 4105,
      "அதற்கவர்": 4106,
      "பதிலளி": 4107,
      "ING": 4108,
      "காப்பாற்றினோம்": 4109,
      "பிராணி": 4110,
      "மின்னஞ்சல்": 4111,
      "ியன்": 4112,
      "நாளி": 4113,
      "வனே": 4114,
      "செய்யலாம்": 4115,
      "யாருக்கு": 4116,
      "வசப்படுத்திக்": 4117,
      "ஏற்படுத்து": 4118,
      "செய்பவர்கள்": 4119,
      "வதைத்": 4120,
      "ist": 4121,
      "சாளரத்தை": 4122,
      "நீங்களே": 4123,
      "50": 4124,
      "pla": 4125,
      "அதன": 4126,
      "எவர்களுக்கு": 4127,
      "வாத": 4128,
      "கோபம்": 4129,
      "வலு": 4130,
      "கடந்து": 4131,
      "இதயங்கள்": 4132,
      "போலவே": 4133,
      "MB": 4134,
      "மிருந்தும்": 4135,
      "த்தம்": 4136,
      "ப்பேன்": 4137,
      "கூட்டு": 4138,
      "ற்றம்": 4139,
      "பிரிய": 4140,
      "புர": 4141,
      "ுள்ளது": 4142,
      "நெருங்க": 4143,
      "செயல்பாடு": 4144,
      "இத்தகையோர்": 4145,
      "ஓடிக்": 4146,
      "கண்": 4147,
      "ோனி": 4148,
      "காத்துக்": 4149,
      "ஓது": 4150,
      "மக்கா": 4151,
      "விவ": 4152,
      "வனா": 4153,
      "தேடிக்": 4154,
      "ிருந்தோம்": 4155,
      "இவ்விரண்ட": 4156,
      "தையோ": 4157,
      "சமூகத்தாருக்கு": 4158,
      "அன்": 4159,
      "பர்": 4160,
      "யத்தில்": 4161,
      "றியும்": 4162,
      "ஹம்": 4163,
      "வால்": 4164,
      "புகல": 4165,
      "வருந்து": 4166,
      "நன்மையான": 4167,
      "அதனைக்": 4168,
      "முழுவதும்": 4169,
      "tp": 4170,
      "xA": 4171,
      "வடை": 4172,
      "ீட்டு": 4173,
      "க்கப்பட்டுள்ளது": 4174,
      "erver": 4175,
      "நோய்": 4176,
      "மறைந்து": 4177,
      "செயல்கூறு": 4178,
      "ice": 4179,
      "star": 4180,
      "கனவு": 4181,
      "தேவையான": 4182,
      "எங்கு": 4183,
      "க்கள": 4184,
      "ரத்து": 4185,
      "முர": 4186,
      "இருப்பார்": 4187,
      "அழைக்கும்": 4188,
      "க்கொள": 4189,
      "காலையில்": 4190,
      "மார்க்கத்தில்": 4191,
      "மனைவியை": 4192,
      "anguage": 4193,
      "ல்லாது": 4194,
      "தின": 4195,
      "இருக்கு": 4196,
      "வரா": 4197,
      "கூறுவர்": 4198,
      "க்கிறீர்கள்": 4199,
      "பாரி": 4200,
      "அல்லாஹ்வுக்காக": 4201,
      "பண்பு": 4202,
      "அநேக": 4203,
      "இட்டுக்": 4204,
      "டாக": 4205,
      "மில்": 4206,
      "ப்பல": 4207,
      "கொதிக்கும்": 4208,
      "வாரா": 4209,
      "உங்களையும்": 4210,
      "அவனது": 4211,
      "வந்தால்": 4212,
      "பிரிவின": 4213,
      "வேறெதையும்": 4214,
      "தொகுப்பு": 4215,
      "ஸலா": 4216,
      "துற": 4217,
      "த்துடைய": 4218,
      "சிஸ்க": 4219,
      "ரைப்": 4220,
      "அப்பெ": 4221,
      "முன்பு": 4222,
      "அல்லாஹ்வுடன்": 4223,
      "அத்தாட்சிகளில்": 4224,
      "அத்தாட்சிகளைக்": 4225,
      "மூஸாவின்": 4226,
      "வதற்கும்": 4227,
      "ஓடிக்கொண்டிருக்கும்": 4228,
      "உலா": 4229,
      "விலக": 4230,
      "பலன்": 4231,
      "தனது": 4232,
      "கூட்டத்தினர்": 4233,
      "்கின்றனர்": 4234,
      "ஆயு": 4235,
      "அநியாயக்காரர்கள்": 4236,
      "விழுந்து": 4237,
      "நல": 4238,
      "பிடித்த": 4239,
      "நிரந்தர": 4240,
      "கேட்பான்": 4241,
      "பையன்": 4242,
      "துக்கப்பட": 4243,
      "மிகத்": 4244,
      "உண்டாவதாக": 4245,
      "ill": 4246,
      "வடிவம்": 4247,
      "வாயில": 4248,
      "தற்போது": 4249,
      "அமெரிக்கா": 4250,
      "ஹஜ்": 4251,
      "அவற்றிலிருந்து": 4252,
      "நாட்ட": 4253,
      "மிஸ்": 4254,
      "போய": 4255,
      "வேதத்தைக்": 4256,
      "செய்யவில்லை": 4257,
      "தன்மை": 4258,
      "இருந்தன": 4259,
      "நரகத்": 4260,
      "so": 4261,
      "லும்பு": 4262,
      "கொள்ளவில்லை": 4263,
      "ிருப்பதும்": 4264,
      "பின்பற்றிய": 4265,
      "கண்டி": 4266,
      "unit": 4267,
      "எறிந்த": 4268,
      "சாய்ந்து": 4269,
      "fucking": 4270,
      "விலும்": 4271,
      "நிறுவ": 4272,
      "க்கப்படவில்லை": 4273,
      "ுக்கிடையில்": 4274,
      "கருவிப்பட்ட": 4275,
      "ஏரி": 4276,
      "பத்தை": 4277,
      "அவர்களிலிருந்து": 4278,
      "வருவார்கள்": 4279,
      "சமூகத்தின": 4280,
      "ஆகியவற்றின்": 4281,
      "மன்னிப்புத்": 4282,
      "இப்பொழுது": 4283,
      "சிந்தித்து": 4284,
      "மீளு": 4285,
      "In": 4286,
      "யன்றி": 4287,
      "ஷு": 4288,
      "மீறு": 4289,
      "ஆகையால்": 4290,
      "அறிபவனாகவும்": 4291,
      "வையுங்கள்": 4292,
      "கொடு": 4293,
      "கொடுக்கப்படு": 4294,
      "வெற்றிகரமாக": 4295,
      "வார்களானால்": 4296,
      "உள்ளிடவும்": 4297,
      "இவ்வேதத்தை": 4298,
      "பிரதி": 4299,
      "படைத்துள்ள": 4300,
      "எனக்குக்": 4301,
      "translated": 4302,
      "பாவச்": 4303,
      "பெற்றோ": 4304,
      "அர்ரஹ்மான்": 4305,
      "AME": 4306,
      "எதனை": 4307,
      "ப்பின": 4308,
      "முத்திர": 4309,
      "மாகி": 4310,
      "வெண்": 4311,
      "இருந்தீர்கள்": 4312,
      "Region": 4313,
      "மானக்கேடான": 4314,
      "19": 4315,
      "ஆழ": 4316,
      "ங்களே": 4317,
      "ந்திருந்த": 4318,
      "வார": 4319,
      "மையிலும்": 4320,
      "தம்முடைய": 4321,
      "கொள்வது": 4322,
      "உணர்ந்து": 4323,
      "தொழுகை": 4324,
      "நேசிப்பதில்லை": 4325,
      "DV": 4326,
      "ER": 4327,
      "ap": 4328,
      "இதி": 4329,
      "பறி": 4330,
      "அவர்கள்தாம்": 4331,
      "பிக்": 4332,
      "முறைமை": 4333,
      "ஏற்படுத்திக்": 4334,
      "விசாரி": 4335,
      "கொழுந்து": 4336,
      "sy": 4337,
      "சீர்": 4338,
      "ெதி": 4339,
      "அவரையும்": 4340,
      "நிமிட": 4341,
      "ள்ளோம்": 4342,
      "ிடும்": 4343,
      "தீர்க்க": 4344,
      "கூட்டாளி": 4345,
      "கொடுக்கப்படும்": 4346,
      "சோதனை": 4347,
      "உபதேசம்": 4348,
      "யல்": 4349,
      "ோர": 4350,
      "நாம": 4351,
      "்க்கு": 4352,
      "கோரு": 4353,
      "உணர": 4354,
      "அடிமை": 4355,
      "மோசம்": 4356,
      "அனைத்துப்": 4357,
      "சக்ஸ": 4358,
      "வானங்களில்": 4359,
      "எங்களிடம்": 4360,
      "அடையாளம்": 4361,
      "ATOR": 4362,
      "சக்ஸோனி": 4363,
      "தல்ல": 4364,
      "காலை": 4365,
      "ிலு": 4366,
      "விடலாம்": 4367,
      "க்கின்றார்களோ": 4368,
      "பொய்ப்பிப்ப": 4369,
      "கல்வி": 4370,
      "பெற்றிரு": 4371,
      "பவராக": 4372,
      "மளி": 4373,
      "ின்றி": 4374,
      "தேயாகும்": 4375,
      "இருந்தாலும்": 4376,
      "கோப்பின்": 4377,
      "திருமணம்": 4378,
      "முஃமின்களை": 4379,
      "ப்பைத்": 4380,
      "தெய்வங்கள்": 4381,
      "அம்மா": 4382,
      "காட்டியாகவும்": 4383,
      "சிரம": 4384,
      "அச்சுப்பொறி": 4385,
      "TS": 4386,
      "ஒன்றும்": 4387,
      "கூறுப": 4388,
      "னுக்கும்": 4389,
      "செய்கிறேன்": 4390,
      "வரிச": 4391,
      "அதிகரி": 4392,
      "பயன்படுத்தி": 4393,
      "நொடி": 4394,
      "சிஸ்கொ": 4395,
      "OF": 4396,
      "அப்": 4397,
      "ப்படுத்திய": 4398,
      "தையெல்லாம்": 4399,
      "கூறியதை": 4400,
      "பின்பற்றுங்கள்": 4401,
      "உடன்படிக்கை": 4402,
      "Al": 4403,
      "எலும்பு": 4404,
      "சாக": 4405,
      "தள்ள": 4406,
      "வாகும்": 4407,
      "ங்களாக": 4408,
      "கொடை": 4409,
      "ானே": 4410,
      "தைச்": 4411,
      "மூடி": 4412,
      "தாம": 4413,
      "தொழ": 4414,
      "காலையிலும்": 4415,
      "கட்டளைகளை": 4416,
      "உலகில்": 4417,
      "ஆரம்பி": 4418,
      "புதுப்பி": 4419,
      "மாலையிலும்": 4420,
      "இட்டு": 4421,
      "இன்ற": 4422,
      "ஏரா": 4423,
      "ஏதும்": 4424,
      "ஒன்பது": 4425,
      "ுடன": 4426,
      "ப்பவனாக": 4427,
      "னுள்ள": 4428,
      "என்னையும்": 4429,
      "போகும்": 4430,
      "வந்ததும்": 4431,
      "out": 4432,
      "உண்டாக்கிய": 4433,
      "கெட்டதாகும்": 4434,
      "யூஸுஃப்": 4435,
      "பிளந்து": 4436,
      "ஏராள": 4437,
      "த்திலேயே": 4438,
      "சாலி": 4439,
      "கிரா": 4440,
      "http": 4441,
      "io": 4442,
      "ஏள": 4443,
      "ஏறி": 4444,
      "விப": 4445,
      "புசியுங்கள்": 4446,
      "தீண்ட": 4447,
      "ட்டிக்": 4448,
      "கொடுத்தான்": 4449,
      "ஒவ்வொ": 4450,
      "text": 4451,
      "செவியுறுவோனாகவும்": 4452,
      "உட்கார்": 4453,
      "ug": 4454,
      "அக்க": 4455,
      "ாயா": 4456,
      "த்தேன்": 4457,
      "ட்டம்": 4458,
      "ோனு": 4459,
      "விடுகின்றனர்": 4460,
      "பேணி": 4461,
      "இவ்வாற": 4462,
      "ெனக்": 4463,
      "அத்தாட்சிகளுடன்": 4464,
      "கிடைமட்ட": 4465,
      "சொல்": 4466,
      "காப்பாற்ற": 4467,
      "படைத்தவன்": 4468,
      "வானங்களிலுள்ள": 4469,
      "எறிந்து": 4470,
      "வருந்துகிறேன்": 4471,
      "DVD": 4472,
      "ஃபிர": 4473,
      "பரு": 4474,
      "முனைய": 4475,
      "சேவை": 4476,
      "ount": 4477,
      "அஞ்சிக்": 4478,
      "ஏற்பட்டால்": 4479,
      "தூய்மைய": 4480,
      "செய்வோருக்கு": 4481,
      "கடவுச்சொல்": 4482,
      "ோடு": 4483,
      "ப்பையும்": 4484,
      "கொண்டார்களோ": 4485,
      "சித": 4486,
      "வீட்டில்": 4487,
      "ராத": 4488,
      "நெறி": 4489,
      "அடைவை": 4490,
      "மக்களில்": 4491,
      "ஆன்மா": 4492,
      "குளிர்": 4493,
      "ொழுதும்": 4494,
      "பராமுகமாக": 4495,
      "Br": 4496,
      "ஐயா": 4497,
      "மத்": 4498,
      "டையிலும்": 4499,
      "எனும்": 4500,
      "விடப்": 4501,
      "த்திரை": 4502,
      "நிறுத்தி": 4503,
      "சமயம்": 4504,
      "அருளப்பட்ட": 4505,
      "ஷைத்தானின்": 4506,
      "வீர்களா": 4507,
      "புனித": 4508,
      "11": 4509,
      "ஆடை": 4510,
      "நிற்ப": 4511,
      "அல்லாமல்": 4512,
      "ள்ளா": 4513,
      "சிரம்": 4514,
      "தீங்கும்": 4515,
      "கொண்டிருந்தவை": 4516,
      "அறிவிக்கப்பட்ட": 4517,
      "காலத்தில்": 4518,
      "பிரித்த": 4519,
      "உண்டாக்கினான்": 4520,
      "கொள்க": 4521,
      "இருதயங்களில்": 4522,
      "த்திற்கும்": 4523,
      "ANSL": 4524,
      "மகிழ்ச்சி": 4525,
      "குறியீடு": 4526,
      "முஸ்லிம்கள": 4527,
      "TRANSL": 4528,
      "ATORS": 4529,
      "TRANSLATORS": 4530,
      "செவிட": 4531,
      "பிட்": 4532,
      "புகை": 4533,
      "சுற்று": 4534,
      "விடுகிறானோ": 4535,
      "க்கின்றன": 4536,
      "முற்படுத்த": 4537,
      "வெள்ளை": 4538,
      "அணுகக்கூடிய": 4539,
      "ந்தவர்களாக": 4540,
      "கிளை": 4541,
      "ப்போல்": 4542,
      "அமைக்கவும்": 4543,
      "stat": 4544,
      "உருவாக்குக": 4545,
      "ஒப்படை": 4546,
      "02": 4547,
      "ங்களுக்க": 4548,
      "டுக": 4549,
      "கோடு": 4550,
      "தீர்மானி": 4551,
      "வாழ்க்கையில்": 4552,
      "URL": 4553,
      "தாவூது": 4554,
      "ஷுஐ": 4555,
      "அப்பா": 4556,
      "ங்கை": 4557,
      "என்றார்": 4558,
      "அறிவித்த": 4559,
      "பரிகாசம்": 4560,
      "காண்கிற": 4561,
      "கேட்கின்றனர்": 4562,
      "நம்மிடமே": 4563,
      "வாரிசு": 4564,
      "செயல்களைச்": 4565,
      "how": 4566,
      "வழிபடுங்கள்": 4567,
      "உயிருள்ள": 4568,
      "லுக்கு": 4569,
      "ிட்ட": 4570,
      "த்தலை": 4571,
      "இரக்க": 4572,
      "தானே": 4573,
      "செலுத்தும்": 4574,
      "படுத்தி": 4575,
      "uss": 4576,
      "நிர்வாக": 4577,
      "புத்தக": 4578,
      "file": 4579,
      "துடைக்க": 4580,
      "பரிகசி": 4581,
      "உத்தர": 4582,
      "த்தத்தை": 4583,
      "டியை": 4584,
      "தாழ்த்த": 4585,
      "இருந்தான்": 4586,
      "காஃபிர்களின்": 4587,
      "அலட்சிய": 4588,
      "பட்டியலை": 4589,
      "பிரவேசிக்கச்": 4590,
      "கவனித்தீர்களா": 4591,
      "ow": 4592,
      "க்குத்": 4593,
      "கைகளையும்": 4594,
      "ப்பாக்கி": 4595,
      "நடந்த": 4596,
      "அவரைக்": 4597,
      "காணமாட்டீர்": 4598,
      "நாடியவரை": 4599,
      "அக்கிரமம்": 4600,
      "தீர்ப்புக்குரிய": 4601,
      "பொழியச்": 4602,
      "Sh": 4603,
      "ஜனா": 4604,
      "க்கிட": 4605,
      "செய்வாயாக": 4606,
      "வைப்போ": 4607,
      "படிக்க": 4608,
      "prov": 4609,
      "ஞானமுடையவனாகவும்": 4610,
      "ஆட": 4611,
      "ப்பார்": 4612,
      "வித்த": 4613,
      "விகி": 4614,
      "க்ளிக்": 4615,
      "மிகு": 4616,
      "பற்றிக்": 4617,
      "எழுப்பு": 4618,
      "தானாக": 4619,
      "state": 4620,
      "குறைவாக": 4621,
      "திருப்பொரு": 4622,
      "மாறாக": 4623,
      "முதுகு": 4624,
      "வாதி": 4625,
      "வைக்": 4626,
      "வெட்டு": 4627,
      "இறைவனால்": 4628,
      "கூறப்பட்டால்": 4629,
      "பார்வைய": 4630,
      "மோச": 4631,
      "தந்தையே": 4632,
      "பொய்யான": 4633,
      "இம்மையில்": 4634,
      "விவரம்": 4635,
      "பல்": 4636,
      "ரற்ற": 4637,
      "ப்ள": 4638,
      "அவற்றி": 4639,
      "வரில்": 4640,
      "இருக்கலாம்": 4641,
      "கூறுவதை": 4642,
      "விடுகிறார்கள்": 4643,
      "படைத்து": 4644,
      "அதற்குப்": 4645,
      "பொருள்களையும்": 4646,
      "ஆண்கள்": 4647,
      "தகவலை": 4648,
      "பணிந்து": 4649,
      "செய்வோரை": 4650,
      "கூட்டத்தாரை": 4651,
      "தூதர்களைப்": 4652,
      "நுழையுங்கள்": 4653,
      "ain_": 4654,
      "Language": 4655,
      "னான்": 4656,
      "ப்பிய": 4657,
      "றிவு": 4658,
      "நிச்சயமாகப்": 4659,
      "பேர்": 4660,
      "கொண்டிருந்தீர்கள்": 4661,
      "mage": 4662,
      "அமர்வு": 4663,
      "மழையை": 4664,
      "ting": 4665,
      "min": 4666,
      "இடி": 4667,
      "படம்": 4668,
      "நிச்சயமாகத்": 4669,
      "உங்களுக்கே": 4670,
      "கேட்டுக்": 4671,
      "சேகரி": 4672,
      "escrip": 4673,
      "ere": 4674,
      "நோக்கிய": 4675,
      "அடையும்": 4676,
      "அப்படிச்": 4677,
      "கட்டளையிட்ட": 4678,
      "பதவி": 4679,
      "ப்புக்கு": 4680,
      "கொண்டவர்களை": 4681,
      "சொத்து": 4682,
      "வேதனையில்": 4683,
      "பெயரி": 4684,
      "வெளியேறு": 4685,
      "செலுத்துகிறான்": 4686,
      "ொருள்": 4687,
      "அதற்கவர்கள்": 4688,
      "மர்யமுடைய": 4689,
      "கேளுங்கள்": 4690,
      "உரையாடல்": 4691,
      "PI": 4692,
      "ex": 4693,
      "france": 4694,
      "தடம்": 4695,
      "பவர்களில்": 4696,
      "யில்": 4697,
      "ொண்டு": 4698,
      "க்வா": 4699,
      "ிருப்போ": 4700,
      "நபிய": 4701,
      "ிருப்பான்": 4702,
      "பொய்யாக": 4703,
      "வில்லையே": 4704,
      "விரும்புகிறேன்": 4705,
      "வதற்கான": 4706,
      "யாரை": 4707,
      "நஷ்டவாளி": 4708,
      "kde": 4709,
      "அசை": 4710,
      "டச்": 4711,
      "்களிலும்": 4712,
      "ருகி": 4713,
      "சுரு": 4714,
      "வானத்தின்": 4715,
      "சேரும்": 4716,
      "int": 4717,
      "நிலையை": 4718,
      "குர்பான": 4719,
      "பொருளை": 4720,
      "ஒட்டகம்": 4721,
      "பெருமையடித்துக்": 4722,
      "சூனியக்காரர்கள்": 4723,
      "எல்லை": 4724,
      "ிரிய": 4725,
      "துர்": 4726,
      "ல்லர்": 4727,
      "நீதி": 4728,
      "கிரி": 4729,
      "மெல்லாம்": 4730,
      "கண்கள்": 4731,
      "அல்லாஹ்வைப்": 4732,
      "வைத்திருப்ப": 4733,
      "னாகிய": 4734,
      "வேதனையிலிருந்து": 4735,
      "ஆத்மாவும்": 4736,
      "பொத்தானை": 4737,
      "ெதிராக": 4738,
      "அடக்க": 4739,
      "இதற்காக": 4740,
      "கலை": 4741,
      "பள்ள": 4742,
      "மாகச்": 4743,
      "கூறுகின்ற": 4744,
      "ராஜா": 4745,
      "முடையவன்": 4746,
      "உண்டாக்கினோம்": 4747,
      "இவர்களின்": 4748,
      "இல்லைய": 4749,
      "நிர்ண": 4750,
      "பகலை": 4751,
      "விசாலமான": 4752,
      "முதலா": 4753,
      "இன்றைய": 4754,
      "_B": 4755,
      "coun": 4756,
      "மஹ": 4757,
      "ன்ஸ்": 4758,
      "புயல்": 4759,
      "அறிக்கை": 4760,
      "ராட்": 4761,
      "ப்பைக்": 4762,
      "ஷைத்தானை": 4763,
      "த்திற்கான": 4764,
      "நிகழ்வு": 4765,
      "த்தாரிடம்": 4766,
      "ஒன்றாக": 4767,
      "விவாகம்": 4768,
      "இதிலிருந்து": 4769,
      "எலி": 4770,
      "லெ": 4771,
      "ோனும்": 4772,
      "த்துத்": 4773,
      "பாட": 4774,
      "வீடியோ": 4775,
      "கொள்ளலாம்": 4776,
      "மற்றவர்களை": 4777,
      "இருப்பதை": 4778,
      "இயக்கு": 4779,
      "கொண்டிருந்தது": 4780,
      "வெளியேற்று": 4781,
      "அனுப்பவில்லை": 4782,
      "எவருக்கு": 4783,
      "எப்போ": 4784,
      "கொல்லப்பட்ட": 4785,
      "can": 4786,
      "lin": 4787,
      "அபி": 4788,
      "கற்": 4789,
      "டோ": 4790,
      "ல்லாஹ்": 4791,
      "குடிய": 4792,
      "தீவிர": 4793,
      "இறைவனும்": 4794,
      "கருதி": 4795,
      "புகழை": 4796,
      "பொய்ப்பித்தனர்": 4797,
      "ங்களுக்கெல்லாம்": 4798,
      "gr": 4799,
      "வதெல்லாம்": 4800,
      "ாமலும்": 4801,
      "துன்பு": 4802,
      "ங்களைத்": 4803,
      "பிறந்த": 4804,
      "நிராகரிப்போர்": 4805,
      "தோல்": 4806,
      "ப்பாளர்": 4807,
      "சுவனபதிகளில்": 4808,
      "செல்லுபடிய": 4809,
      "அப்பெண": 4810,
      "இட்டுக்க": 4811,
      "LE": 4812,
      "pre": 4813,
      "ஈடு": 4814,
      "மாய": 4815,
      "ிருந்தார்கள்": 4816,
      "விடுவீர்கள்": 4817,
      "est": 4818,
      "இருப்பர்": 4819,
      "தூதரையும்": 4820,
      "சிலவற்றை": 4821,
      "சோதன": 4822,
      "திடீர": 4823,
      "பிரார்த்தித்தார்": 4824,
      "இப்போ": 4825,
      "கிருபையுடையவனாகவும்": 4826,
      "மன்னிப்போனாகவும்": 4827,
      "மாய்": 4828,
      "விட்டெ": 4829,
      "அதைச்": 4830,
      "dow": 4831,
      "கீழ்படிய": 4832,
      "துவக்கு": 4833,
      "பெறுவதற்காக": 4834,
      "பைத்தியக்கார": 4835,
      "der": 4836,
      "நிய": 4837,
      "னார்": 4838,
      "oper": 4839,
      "ப்படுத்தும்": 4840,
      "காஃபிர்களாக": 4841,
      "தாரண": 4842,
      "தேர்வுகள்": 4843,
      "விரும்புகிறார்கள்": 4844,
      "புகழும்": 4845,
      "நினைவூட்டும்": 4846,
      "ஜோடி": 4847,
      "month": 4848,
      "ஜனாதி": 4849,
      "um": 4850,
      "எக்கா": 4851,
      "ஜு": 4852,
      "மன்ன": 4853,
      "மடி": 4854,
      "லோ": 4855,
      "ிலெல்லாம்": 4856,
      "அநியாயமாக": 4857,
      "all": 4858,
      "கோரி": 4859,
      "அழைக்க": 4860,
      "கேட்டார்கள்": 4861,
      "காரியத்தை": 4862,
      "பட்டியலில்": 4863,
      "பிரார்த்தித்துக்": 4864,
      "மலைகளை": 4865,
      "அவ்வாறி": 4866,
      "சுலபமான": 4867,
      "ஏராளமான": 4868,
      "உட": 4869,
      "ற்றில்": 4870,
      "சுமையை": 4871,
      "நினைவ": 4872,
      "இடங்களில்": 4873,
      "நுட்": 4874,
      "அறியமாட்டார்கள்": 4875,
      "ஏற்படுத்தி": 4876,
      "escription": 4877,
      "co": 4878,
      "ஒத்தி": 4879,
      "கையாள": 4880,
      "பந்து": 4881,
      "ியி": 4882,
      "கைசேத": 4883,
      "ீர்களாயின்": 4884,
      "அவனைக்": 4885,
      "தலைமுறைய": 4886,
      "நன்மையாகும்": 4887,
      "cla": 4888,
      "ஆசி": 4889,
      "வறு": 4890,
      "வேற்று": 4891,
      "ார்களானால்": 4892,
      "செய்பவன்": 4893,
      "வேண்டுமே": 4894,
      "கொள்கிறோம்": 4895,
      "தொடர": 4896,
      "button": 4897,
      "தேர்ந்தெடுத்துக்": 4898,
      "provin": 4899,
      "இக்": 4900,
      "ஒளிய": 4901,
      "பத்": 4902,
      "க்கத்": 4903,
      "அவர்களையும்": 4904,
      "மில்லாத": 4905,
      "ினார்": 4906,
      "இருக்கிறதா": 4907,
      "செய்கிறானோ": 4908,
      "கொடுக்கப்பட": 4909,
      "படுத்தும்": 4910,
      "புகழ": 4911,
      "அரபி": 4912,
      "நிர்ப்ப": 4913,
      "counties": 4914,
      "மகா": 4915,
      "ப்புகள்": 4916,
      "ற்படுத்த": 4917,
      "உயரம்": 4918,
      "விளக்கம்": 4919,
      "செய்பவர்": 4920,
      "கிருபையாள": 4921,
      "விதித்த": 4922,
      "கப்பலில்": 4923,
      "பயப்படுகிறேன்": 4924,
      "ங்காட்டி": 4925,
      ",%": 4926,
      "_C": 4927,
      "வகையை": 4928,
      "ீட்டை": 4929,
      "அவருக்காக": 4930,
      "ற்பு": 4931,
      "ினாலும்": 4932,
      "தாள்": 4933,
      "இருக்கின்றீர்கள்": 4934,
      "நன்கறிகிறான்": 4935,
      "கொள்க": 4936,
      "தெரிந்து": 4937,
      "உரையை": 4938,
      "இறக்கியருள": 4939,
      "உயர்ந்தவன்": 4940,
      "மஸ்ஜிதுல்": 4941,
      "ஸலாமுன்": 4942,
      "ஆலோ": 4943,
      "்களிலிருந்து": 4944,
      "திரிய": 4945,
      "உங்களிரு": 4946,
      "பொய": 4947,
      "வீட்டை": 4948,
      "மிகப்பெ": 4949,
      "ard": 4950,
      "வைப்போம்": 4951,
      "அவளுக்கு": 4952,
      "ype": 4953,
      "ஸுலைமான": 4954,
      "Coun": 4955,
      "SI": 4956,
      "அலி": 4957,
      "கச்": 4958,
      "பிய": 4959,
      "அவற்று": 4960,
      "ிறது": 4961,
      "போக்கி": 4962,
      "தீண்டு": 4963,
      "செய்யாத": 4964,
      "வழிபட்ட": 4965,
      "எழுதி": 4966,
      "கொண்டிருந்தீர்களோ": 4967,
      "பயன்படும்": 4968,
      "பெண்களையும்": 4969,
      "எல்லாக்": 4970,
      "லூத்துடைய": 4971,
      "ஆண்டுகள்": 4972,
      "தூயவன்": 4973,
      "Country": 4974,
      "ai": 4975,
      "uer": 4976,
      "xE": 4977,
      "கிய": 4978,
      "கங்கள்": 4979,
      "கவல": 4980,
      "நம": 4981,
      "கொண்டேன்": 4982,
      "காவல்": 4983,
      "செய்வதற்காக": 4984,
      "பயப்பட": 4985,
      "ிருப்பின்": 4986,
      "நடத்து": 4987,
      "என்பதைத்": 4988,
      "சியம்": 4989,
      "rom": 4990,
      "உயிர்களை": 4991,
      "எச்சரிப்ப": 4992,
      "பயபக்தி": 4993,
      "பயன்படுத்தப்படும்": 4994,
      "க்கப்படுகிறது": 4995,
      "பயனளி": 4996,
      "நிர்ணயி": 4997,
      "IM": 4998,
      "NAME": 4999,
      "எவரிட": 5000,
      "பாணி": 5001,
      "மைக்": 5002,
      "மையம்": 5003,
      "ினரை": 5004,
      "ளிலிருந்து": 5005,
      "கொள்ளட்டும்": 5006,
      "ுள்ளான்": 5007,
      "என்னைக்": 5008,
      "க்கூடும்": 5009,
      "விரிவா": 5010,
      "அஞ்சுங்கள்": 5011,
      "xE0": 5012,
      "ta": 5013,
      "கப்": 5014,
      "குண": 5015,
      "தூர்": 5016,
      "இருந்தும்": 5017,
      "இருக்கிறீர்கள்": 5018,
      "இந்திரிய": 5019,
      "இரண்ட": 5020,
      "மெது": 5021,
      "சொல்லிக்": 5022,
      "மன்னிப்பான்": 5023,
      "னால": 5024,
      "கட்டளைக்கு": 5025,
      "குழப்பத்தை": 5026,
      "திருப்பப்படு": 5027,
      "இறுதியில்": 5028,
      "ஸிய்": 5029,
      "துக்கப்படவும்": 5030,
      "வசித்த": 5031,
      "விட்": 5032,
      "மீதுள்ள": 5033,
      "நோயா": 5034,
      "அமைக்க": 5035,
      "என்பதைப்": 5036,
      "கோண": 5037,
      "முகங்கள்": 5038,
      "மாற்றங்கள்": 5039,
      "திறந்த": 5040,
      "உதவியும்": 5041,
      "விளைச்ச": 5042,
      "எழுப்பப்படு": 5043,
      "உண்டாக": 5044,
      "தூய்மையானவன்": 5045,
      "by": 5046,
      "பன": 5047,
      "வசி": 5048,
      "ர்களோ": 5049,
      "காலி": 5050,
      "புதி": 5051,
      "ிலி": 5052,
      "விடுகிறோம்": 5053,
      "வருவ": 5054,
      "உயர்": 5055,
      "கண்டார்": 5056,
      "ஜிம்": 5057,
      "வாங்கினோம்": 5058,
      "ப்பெயர்": 5059,
      "செங்குத்து": 5060,
      "AS": 5061,
      "ஆர்ட": 5062,
      "சியா": 5063,
      "ரமான": 5064,
      "வேகம்": 5065,
      "வர்களுடைய": 5066,
      "க்கிரம்": 5067,
      "வருகிறது": 5068,
      "இரட்டி": 5069,
      "கொண்டிருந்தார்கள்": 5070,
      "அறியவில்லையா": 5071,
      "சொன்னார்கள்": 5072,
      "ையிட்டு": 5073,
      "பூமிக்கும்": 5074,
      "மொத்த": 5075,
      "முளைப்பி": 5076,
      "மேலாளர்": 5077,
      "val": 5078,
      "ணியை": 5079,
      "ாகப்": 5080,
      "விற": 5081,
      "திராட்": 5082,
      "மீண்டு": 5083,
      "கேப": 5084,
      "இருக்கின்றீர்": 5085,
      "சாத்திய": 5086,
      "அழைத்துக்": 5087,
      "பூமியிலிருந்து": 5088,
      "தலாக்": 5089,
      "பொருள்களை": 5090,
      "எங்களைப்": 5091,
      "பொறுமையாள": 5092,
      "உண்மையானது": 5093,
      "சூரியன்": 5094,
      "அவ்வாறல்ல": 5095,
      "கவலைப்பட": 5096,
      "வெற்றியாள": 5097,
      "திராட்சை": 5098,
      "with": 5099,
      "will": 5100,
      "உட்": 5101,
      "கழி": 5102,
      "துப்பாக்கி": 5103,
      "ற்றல்": 5104,
      "ரைத்": 5105,
      "கென்": 5106,
      "நிலைநிறுத்து": 5107,
      "கடந்த": 5108,
      "ப்பைப்": 5109,
      "சீக்கிரம்": 5110,
      "சொந்தமாக்கிக்": 5111,
      "உயிர்ப்பித்து": 5112,
      "தேவையற்ற": 5113,
      "வெளிப்படையான": 5114,
      "இங்கிருந்து": 5115,
      "பிள்ளை": 5116,
      "UN": 5117,
      "ையில": 5118,
      "ப்பணி": 5119,
      "வரும்போது": 5120,
      "தூதருக்கு": 5121,
      "வர்களாகி": 5122,
      "அழித்தோம்": 5123,
      "கூறப்பட்ட": 5124,
      "மறையா": 5125,
      "பேசும்": 5126,
      "தடுக்கப்பட்ட": 5127,
      "குற்றவாளிகள்": 5128,
      "மூழ்கி": 5129,
      "சுழற்சி": 5130,
      "உயிருடன்": 5131,
      "ff": 5132,
      "ஆல": 5133,
      "எதன்": 5134,
      "சன": 5135,
      "முக்கு": 5136,
      "மாட்டார்": 5137,
      "இருப்பவர்கள்": 5138,
      "அமைத்து": 5139,
      "மதிப்பை": 5140,
      "தலைவர்கள்": 5141,
      "வியுங்கள்": 5142,
      "குற்றங்களை": 5143,
      "வழியாகும்": 5144,
      "இஸ்லா": 5145,
      "நிறைந்த": 5146,
      "விளைவு": 5147,
      "சமுதா": 5148,
      "HTML": 5149,
      "\".": 5150,
      "அட்டை": 5151,
      "ஓத": 5152,
      "சதா": 5153,
      "மஞ்ச": 5154,
      "ாக்கு": 5155,
      "அவர்களுக்கிடையே": 5156,
      "கூர்ந்து": 5157,
      "க்கிறானோ": 5158,
      "இருக்கின்றாய்": 5159,
      "பிரகாச": 5160,
      "போட்ட": 5161,
      "அறிவிக்க": 5162,
      "ஆணவ": 5163,
      "வழியைக்": 5164,
      "உறுதிப்படுத்து": 5165,
      "நஷ்டமடைந்த": 5166,
      "ஹுல்": 5167,
      "நற்கூலிய": 5168,
      "Ad": 5169,
      "விடிய": 5170,
      "நித்திய": 5171,
      "செயலா": 5172,
      "மில்ல": 5173,
      "வர்களான": 5174,
      "பாய்": 5175,
      "சுருக்க": 5176,
      "வானத்தை": 5177,
      "அதிர்": 5178,
      "பரிகார": 5179,
      "கூறப்பட்டது": 5180,
      "பாதுகாப்ப": 5181,
      "இறுதித்": 5182,
      "கண்டுபிடி": 5183,
      "ஆவணத்தை": 5184,
      "அமல்களை": 5185,
      "great": 5186,
      "MAN": 5187,
      "ger": 5188,
      "வட்டில்": 5189,
      "மையுடைய": 5190,
      "நேரி": 5191,
      "சாதாரண": 5192,
      "கிலும்": 5193,
      "எழுந்த": 5194,
      "உயர்த்தி": 5195,
      "உணர்வு": 5196,
      "ஆகிவிட": 5197,
      "பூமியிலுள்ளவையும்": 5198,
      "வானங்களிலுள்ளவையும்": 5199,
      "Image": 5200,
      "Server": 5201,
      "பது": 5202,
      "ஷா": 5203,
      "ியம்": 5204,
      "றுத்தும்": 5205,
      "வரம்பை": 5206,
      "கிறார்களா": 5207,
      "வருகிறேன்": 5208,
      "end": 5209,
      "குறைத்து": 5210,
      "வண்ணத்தை": 5211,
      "உன்னிடம்": 5212,
      "வீர்களாயின்": 5213,
      "கொண்டிருக்கிறார்களோ": 5214,
      "நபிமார்களை": 5215,
      "வகையான": 5216,
      "கடமையாகும்": 5217,
      "ஈடே": 5218,
      "ஓய்": 5219,
      "தக்வா": 5220,
      "ல்ஸ்": 5221,
      "வாரும்": 5222,
      "களையே": 5223,
      "கொண்டவர்களுக்கு": 5224,
      "ரிய்": 5225,
      "இருக்கிறாய்": 5226,
      "புறங்காட்டி": 5227,
      "lec": 5228,
      "பொருத்த": 5229,
      "செய்திகளை": 5230,
      "பாதுகாவலன்": 5231,
      "ஆவணம்": 5232,
      "ஒழுங்க": 5233,
      "\")": 5234,
      "நீதிய": 5235,
      "நேச": 5236,
      "யாரு": 5237,
      "பேச்சு": 5238,
      "அதைப்பற்றி": 5239,
      "ind": 5240,
      "இரவையும்": 5241,
      "சமூகத்தவர்களே": 5242,
      "பொறுப்பே": 5243,
      "அதனைப்": 5244,
      "சமயத்தில்": 5245,
      "பாலோர்": 5246,
      "வளவு": 5247,
      "ஓதிக்கா": 5248,
      "விரோதி": 5249,
      "ஆரம்ப": 5250,
      "பிரயாணம்": 5251,
      "விலைக்கு": 5252,
      "ஏடு": 5253,
      "சைய": 5254,
      "பவர்களுக்கு": 5255,
      "ென்ன": 5256,
      "விகள்": 5257,
      "செவ்": 5258,
      "ிருவரும்": 5259,
      "ரிமை": 5260,
      "மீற": 5261,
      "கிளிக்": 5262,
      "நடக்கும்": 5263,
      "செல்கின்ற": 5264,
      "தயார்": 5265,
      "தோன்ற": 5266,
      "பாவத்தின்": 5267,
      "ary": 5268,
      "கேட்கவில்லை": 5269,
      "எதிர்பார்த்த": 5270,
      "தேடுகிறேன்": 5271,
      "சுவர்க்கச்": 5272,
      "வேறெவரையும்": 5273,
      "வாழ்வில்": 5274,
      "ipp": 5275,
      "அலிஃப்": 5276,
      "*.": 5277,
      "இத்தா": 5278,
      "க்ட": 5279,
      "ஞா": 5280,
      "த்தவர்களாக": 5281,
      "கொண்டேய": 5282,
      "கொண்டிருங்கள்": 5283,
      "சொல்லை": 5284,
      "பற்றிப்": 5285,
      "வையாகும்": 5286,
      "அல்லாஹ்வுக்குப்": 5287,
      "காட்டுக": 5288,
      "விஷயத்": 5289,
      "எவருக்கும்": 5290,
      "யூஸுஃப": 5291,
      "உரையாட": 5292,
      "த்தேர்வு": 5293,
      "This": 5294,
      "கேபசூ": 5295,
      "_S": 5296,
      "க்குகள்": 5297,
      "பூர்த்தி": 5298,
      "விட்டுப்": 5299,
      "itain_": 5300,
      "செல்கிற": 5301,
      "அழைத்த": 5302,
      "அழிக்க": 5303,
      "ஒவ்வொருவருக்கும்": 5304,
      "அறிந்தவனாகவும்": 5305,
      "ack": 5306,
      "தீங்கிழைத்துக்": 5307,
      "britain_": 5308,
      "பொறுமையைக்": 5309,
      "ிலுமுள்ள": 5310,
      "class": 5311,
      ".%": 5312,
      "dr": 5313,
      "அறை": 5314,
      "அசத்திய": 5315,
      "ஆதரி": 5316,
      "வகி": 5317,
      "ஹெ": 5318,
      "ையைத்": 5319,
      "தூரம்": 5320,
      "பற்றித்": 5321,
      "ிருப்பதை": 5322,
      "வெளிச்ச": 5323,
      "பயன்படுத்தவும்": 5324,
      "வகைகள்": 5325,
      "சித்தப்படுத்தி": 5326,
      "மரிக்கச்": 5327,
      "ult": 5328,
      "த்திலுள்ள": 5329,
      "அவரு": 5330,
      "முன": 5331,
      "முடக்கு": 5332,
      "வாங்கிய": 5333,
      "மார்": 5334,
      "உங்களால்": 5335,
      "எனக்கே": 5336,
      "தூதர்களில்": 5337,
      "படைக்கப்பட்ட": 5338,
      "வெளியில்": 5339,
      "மாற்றும்": 5340,
      "சமூகத்தாரும்": 5341,
      "அடியார்கள்": 5342,
      "நானே": 5343,
      "சந்தேகத்த": 5344,
      "மூலமாக": 5345,
      "பாவிகளாக": 5346,
      "சொல்கிறார்கள்": 5347,
      "distr": 5348,
      "புகைப்பட": 5349,
      "CK": 5350,
      "ஹலா": 5351,
      "த்தப்பட்ட": 5352,
      "ப்பவனாகவும்": 5353,
      "விழ": 5354,
      "நீங்க": 5355,
      "ாரை": 5356,
      "மையினால்": 5357,
      "ன்றால்": 5358,
      "க்கிறாரோ": 5359,
      "மற்றவர்கள்": 5360,
      "படிப்பினை": 5361,
      "வேதனையின்": 5362,
      "அத்தாட்சிகளையும்": 5363,
      "மேல்மேசை": 5364,
      "நிரப்ப": 5365,
      "க்கப்படாத": 5366,
      "அடியார்களுக்கு": 5367,
      "தங்கியிருப்பார்கள்": 5368,
      "செய்கை": 5369,
      "ஊத": 5370,
      "படைய": 5371,
      "ாதா": 5372,
      "ல்லாதீர்கள்": 5373,
      "கொண்டவர்களாக": 5374,
      "tic": 5375,
      "ஞ்சு": 5376,
      "கடல்": 5377,
      "செய்கிறோம்": 5378,
      "வெளியேற": 5379,
      "சொல்லும்": 5380,
      "திறந்து": 5381,
      "ஷைத்தான்கள்": 5382,
      "நாட்கள்": 5383,
      "வழிகேட்டிலேயே": 5384,
      "கொண்டோரே": 5385,
      "மிக்கோன்": 5386,
      "நினைவூட்டுவீராக": 5387,
      "எத்த": 5388,
      "ோமா": 5389,
      "காப்பு": 5390,
      "லைப்": 5391,
      "தற்கும்": 5392,
      "உள்ளச்ச": 5393,
      "பேரி": 5394,
      "கோப்பில்": 5395,
      "ite": 5396,
      "மறைக்க": 5397,
      "சிறை": 5398,
      "கண்டேன்": 5399,
      "000": 5400,
      "வைத்துள்ளோம்": 5401,
      "வேறெது": 5402,
      "ரஹ்மத்த": 5403,
      "தண்ணீ": 5404,
      "மர்யமின்": 5405,
      "வயது": 5406,
      "bject": 5407,
      "ஜனாதிபதி": 5408,
      "ஃபொ": 5409,
      "ஏற்றி": 5410,
      "ஜின்": 5411,
      "பவர்களை": 5412,
      "விக்": 5413,
      "காத": 5414,
      "வனு": 5415,
      "இன்னொரு": 5416,
      "வந்தார்": 5417,
      "பொத்தான்": 5418,
      "கொண்டிருந்தார்களோ": 5419,
      "அதிகம்": 5420,
      "துவங்கு": 5421,
      "வேண்டுமென்று": 5422,
      "முறித்து": 5423,
      "ஜிப்ரயீ": 5424,
      "You": 5425,
      "po": 5426,
      "உடை": 5427,
      "ுமில்லை": 5428,
      "க்கட்டும்": 5429,
      "விலா": 5430,
      "ong": 5431,
      "பயணம்": 5432,
      "இருப்பினும்": 5433,
      "அமைதி": 5434,
      "முகத்தை": 5435,
      "சொல்லுங்கள்": 5436,
      "சந்தேகம்": 5437,
      "சொல்வதை": 5438,
      "உலோ": 5439,
      "எத்தகையோர": 5440,
      "கணக்குக்": 5441,
      "எத்தகையோரென்றால்": 5442,
      "ஏமாற்றி": 5443,
      "லிருந்தும்": 5444,
      "வற்றி": 5445,
      "வையில்": 5446,
      "ம்ம்": 5447,
      "மாகத்": 5448,
      "வாதம்": 5449,
      "மாவது": 5450,
      "மிரா": 5451,
      "சிந்த": 5452,
      "பொறா": 5453,
      "தாழ்ந்த": 5454,
      "விடுவி": 5455,
      "கைத்த": 5456,
      "விட்டுக்": 5457,
      "வணங்கிக்": 5458,
      "தாகக்": 5459,
      "அதிகப்படுத்து": 5460,
      "அவருக்குப்": 5461,
      "காரியங்கள்": 5462,
      "வாசிகளும்": 5463,
      "சொன்னோம்": 5464,
      "அநியாயக்காரர்களுக்கு": 5465,
      "தங்களுக்குள்": 5466,
      "சேர்க்கும்": 5467,
      "ஜோடியாக": 5468,
      "இயல்பான": 5469,
      "கடைப்பிடித்து": 5470,
      "box": 5471,
      "உபயோகி": 5472,
      "od": 5473,
      "இச்ச": 5474,
      "உவ": 5475,
      "லையும்": 5476,
      "வஸிய்": 5477,
      "த்தக்க": 5478,
      "முன்ப": 5479,
      "நாட்டு": 5480,
      "ச்சா": 5481,
      "அல்லாஹ்வி": 5482,
      "மாபெரும்": 5483,
      "புணர": 5484,
      "இருக்கிறீர்களா": 5485,
      "உறுப்பு": 5486,
      "முடிந்தது": 5487,
      "நம்பிக்கைக்குரிய": 5488,
      "உணவும்": 5489,
      "கிடைத்து": 5490,
      "விளையாடு": 5491,
      "விருப்பங்கள்": 5492,
      "கவனிப்பீராக": 5493,
      "பேசிக்": 5494,
      "கண்டிப்பாக": 5495,
      "வஸிய்ய": 5496,
      "ஆன": 5497,
      "கற": 5498,
      "மறி": 5499,
      "ரத்": 5500,
      "்களாக": 5501,
      "த்திலோ": 5502,
      "துண்டி": 5503,
      "ோரே": 5504,
      "நீள்": 5505,
      "நீலம்": 5506,
      "நிரம்": 5507,
      "தினால்": 5508,
      "வாள": 5509,
      "குறும்": 5510,
      "பாடல்": 5511,
      "இருக்கின்றார்": 5512,
      "சாம்ப": 5513,
      "அதுதான்": 5514,
      "ines": 5515,
      "மனிதர்": 5516,
      "கொடுப்பதில்": 5517,
      "படைக்கவில்லை": 5518,
      "நேரத்தை": 5519,
      "செயல்களின்": 5520,
      "ிருக்கக்": 5521,
      "இவர்களும்": 5522,
      "பொய்யர்கள்": 5523,
      "சூழ்ந்த": 5524,
      "செய்வதில்": 5525,
      "நாளிலும்": 5526,
      "ளும்": 5527,
      "றிவி": 5528,
      "அவர்களிடத்தில்": 5529,
      "கொண்டிருக்க": 5530,
      "சுட்ட": 5531,
      "கூறிக்": 5532,
      "பாரும்": 5533,
      "தூதர்களையும்": 5534,
      "வணங்கி": 5535,
      "தொகுதி": 5536,
      "that": 5537,
      "ரிடமும்": 5538,
      "மொழ": 5539,
      "எப்போதும்": 5540,
      "புணர்கிறேன்": 5541,
      ")!": 5542,
      "ON": 5543,
      "மடைய": 5544,
      "ுரை": 5545,
      "ட்டா": 5546,
      "ச்சியாக": 5547,
      "கேடிய": 5548,
      "கிளி": 5549,
      "எழுதிய": 5550,
      "நினைவில்": 5551,
      "நரகவாசி": 5552,
      "சந்திக்கும்": 5553,
      "வேதனையு": 5554,
      "இழிவான": 5555,
      "எப்பொழுது": 5556,
      "குடும்பத்தாரையும்": 5557,
      "ஒத்திசை": 5558,
      "Col": 5559,
      "நற்ப": 5560,
      "பளு": 5561,
      "ஷி": 5562,
      "ெடுக்க": 5563,
      "ப்பதும்": 5564,
      "கையே": 5565,
      "சம்பந்த": 5566,
      "விலேயே": 5567,
      "வேண்டியது": 5568,
      "நிரப்பு": 5569,
      "ilipp": 5570,
      "மலக்குகளை": 5571,
      "நாடினால": 5572,
      "வட்டுக்கு": 5573,
      "வாய்ப்பு": 5574,
      "நன்றிய": 5575,
      "philipp": 5576,
      "கீழ்படியுங்கள்": 5577,
      "நாடினாலன்றி": 5578,
      "philippines": 5579,
      "அரி": 5580,
      "ப்லா": 5581,
      "ங்களுக்காக": 5582,
      "டையேய": 5583,
      "ாரா": 5584,
      "ரியர்": 5585,
      "செய்யுமாறு": 5586,
      "வானவர்கள்": 5587,
      "ையாவது": 5588,
      "செய்கிறீர்கள்": 5589,
      "செய்பவர்களை": 5590,
      "ட்சியும்": 5591,
      "பகலையும்": 5592,
      "சந்திரனையும்": 5593,
      "ப்பலகை": 5594,
      "status": 5595,
      "\";": 5596,
      "பசு": 5597,
      "பத்தி": 5598,
      "ஸை": 5599,
      "நீள": 5600,
      "வைக்கிறான்": 5601,
      "செய்தல்": 5602,
      "indow": 5603,
      "நாளாகும்": 5604,
      "அளித்துள்ள": 5605,
      "நன்கறிபவனாகவும்": 5606,
      "விருப்பம்": 5607,
      "பின்பற்றுகிறார்கள்": 5608,
      "அநியாயக்காரன்": 5609,
      "நண்பர்கள்": 5610,
      "மணந்து": 5611,
      "word": 5612,
      "சான்றிதழ்": 5613,
      "ஸுலைமான்": 5614,
      "az": 5615,
      "ஆற்றல": 5616,
      "ையுங்கள்": 5617,
      "மேக": 5618,
      "போட்ட": 5619,
      "போதி": 5620,
      "வைப்பாயாக": 5621,
      "வென்று": 5622,
      "லாமா": 5623,
      "அதைவிட": 5624,
      "பொருட்டும்": 5625,
      "வோரில்": 5626,
      "கொடுக்கிறான்": 5627,
      "கட்டிய": 5628,
      "மறுத்து": 5629,
      "அழைக்கின்ற": 5630,
      "செய்கிறது": 5631,
      "நாடியவருக்கு": 5632,
      "தொழுகைய": 5633,
      "வானங்களுடையவும்": 5634,
      "மாற்றிக்": 5635,
      "உண்மையாளராக": 5636,
      "கட்டளையிட": 5637,
      "வியாபார": 5638,
      "திடீரென": 5639,
      "pi": 5640,
      "str": 5641,
      "ஆதர": 5642,
      "சனி": 5643,
      "ஜ்தா": 5644,
      "பவர்களும்": 5645,
      "யான": 5646,
      "ஸஜ்தா": 5647,
      "ரிலிருந்து": 5648,
      "மீட்க": 5649,
      "நினைத்துப்": 5650,
      "தெளிவா": 5651,
      "வரிடம்": 5652,
      "தாராள": 5653,
      "சமமா": 5654,
      "எங்களுக்குக்": 5655,
      "ரோடு": 5656,
      "முற்படு": 5657,
      "பேரொ": 5658,
      "அகிலங்களுக்கெல்லாம்": 5659,
      "முஸ்லீ": 5660,
      "யூஸுஃபை": 5661,
      "செவிமடு": 5662,
      "கிராம": 5663,
      "விட்டெரியும்": 5664,
      "ணும்": 5665,
      "பவ": 5666,
      "க்கோ": 5667,
      "க்கில்": 5668,
      "ியல்": 5669,
      "ிருக்கவும்": 5670,
      "மாறும்": 5671,
      "காளை": 5672,
      "அழையுங்கள்": 5673,
      "திருத்த": 5674,
      "மன்னிக்கவும்": 5675,
      "தோல்": 5676,
      "அறிவிப்பு": 5677,
      "பூமியிலோ": 5678,
      "பெருங்": 5679,
      "மனதில்": 5680,
      "சரியா": 5681,
      "சாட்சியம்": 5682,
      "செய்கின்றனர்": 5683,
      "அவளுடைய": 5684,
      "விசையை": 5685,
      "இப்லீஸ்": 5686,
      "ஹிஜ்": 5687,
      "CH": 5688,
      "_D": 5689,
      "land": 5690,
      "அன்று": 5691,
      "கில்": 5692,
      "பள்ளி": 5693,
      "ொப்ப": 5694,
      "ப்பர்": 5695,
      "ாகச்": 5696,
      "ோருக்கும்": 5697,
      "வாங்கிக்": 5698,
      "வழங்கிய": 5699,
      "கொடுக்கும்": 5700,
      "தேர்வை": 5701,
      "மகனே": 5702,
      "நடக்கிறது": 5703,
      "பரிகாச": 5704,
      "அழகாக": 5705,
      "யிற்று": 5706,
      "ments": 5707,
      "கலந்து": 5708,
      "இஸ்ஹா": 5709,
      "தெரிந்த": 5710,
      "தனிப்ப": 5711,
      "சோதிப்பதற்காக": 5712,
      "குறுக்கு": 5713,
      "இவ்வாறாக": 5714,
      "போட்டோ": 5715,
      "HS": 5716,
      "av": 5717,
      "her": 5718,
      "ஆள": 5719,
      "ளவில்": 5720,
      "்கி": 5721,
      "த்திற": 5722,
      "மாற்றிய": 5723,
      "போதே": 5724,
      "ியைப்": 5725,
      "வானங்களுக்கும்": 5726,
      "எதிர்பார்க்க": 5727,
      "சிலரைவிட": 5728,
      "வரலாற்றை": 5729,
      "கூடுதல்": 5730,
      "வயிறு": 5731,
      "அகல": 5732,
      "எக்ஸ்": 5733,
      "பச்சை": 5734,
      "ரர்": 5735,
      "ஸல்": 5736,
      "த்திருந்த": 5737,
      "ையிலிருந்து": 5738,
      "பிணை": 5739,
      "மிச்சி": 5740,
      "காய்": 5741,
      "அவனன்றி": 5742,
      "கொள்ளாமல்": 5743,
      "முடியா": 5744,
      "கையொப்ப": 5745,
      "சிலருக்கு": 5746,
      "தனியாக": 5747,
      "நிறுவன": 5748,
      "மன்னிப்பளி": 5749,
      "விளையாட்டை": 5750,
      "தண்டனையை": 5751,
      "அரசா": 5752,
      "ெழுத்து": 5753,
      "மிச்சிகென்": 5754,
      "per": 5755,
      "ww": 5756,
      "சவன": 5757,
      "ணு": 5758,
      "கொடி": 5759,
      "டையாது": 5760,
      "பொழி": 5761,
      "அருமை": 5762,
      "கூட்டம்": 5763,
      "போன்ற": 5764,
      "அவ்விருவருக்கும்": 5765,
      "நற்கூலியை": 5766,
      "சமாதானம்": 5767,
      "iB": 5768,
      "பட்": 5769,
      "ல்களையும்": 5770,
      "வலக்கர": 5771,
      "செய்பவர்களுக்கு": 5772,
      "செய்பவனாக": 5773,
      "வசனங்களையும்": 5774,
      "அடித்துக்": 5775,
      "திரும்பும்": 5776,
      "உருவாக்கி": 5777,
      "மையாக்கிய": 5778,
      "கட்டுப்பாடு": 5779,
      "புள்ளியை": 5780,
      "மஞ்சள்": 5781,
      "GL": 5782,
      "உழை": 5783,
      "எடுத்த": 5784,
      "றேன்": 5785,
      "ர்களிடம்": 5786,
      "கூறுவ": 5787,
      "உள்ளதா": 5788,
      "அதிலுள்ள": 5789,
      "நாளையும்": 5790,
      "நினைத்தேன்": 5791,
      "அவரைத்": 5792,
      "உயிர்களையும்": 5793,
      "போன்றது": 5794,
      "மக்களே": 5795,
      "மிகைத்தவனாகவும்": 5796,
      "இறைவனைப்": 5797,
      "தங்களைத்": 5798,
      "இவற்றைப்": 5799,
      "சக்தியற்ற": 5800,
      "நற்கரும": 5801,
      "மாளிகை": 5802,
      "களிமண்ண": 5803,
      "முத்திரையிட்டு": 5804,
      "பொய்யாகக்": 5805,
      "ஹிஜ்ரத்": 5806,
      "14": 5807,
      "DPI": 5808,
      "ஜமான": 5809,
      "ர்களான": 5810,
      "வாலி": 5811,
      "க்கும்போது": 5812,
      "க்கிழ": 5813,
      "இவ்வூ": 5814,
      "இவ்வேதம்": 5815,
      "கிப்லா": 5816,
      "வைத்திருக்க": 5817,
      "வாழ்க்கையின்": 5818,
      "அரச": 5819,
      "விழுங்க": 5820,
      "அகிலத்தா": 5821,
      "மகிழ்ச்சிய": 5822,
      "பலஹீனமான": 5823,
      "போரிடு": 5824,
      "ஆயிற்று": 5825,
      "ber": 5826,
      "ன்கள்": 5827,
      "பற்று": 5828,
      "ழந்த": 5829,
      "ுள்": 5830,
      "்கோ": 5831,
      "நீத": 5832,
      "காவல": 5833,
      "பெத்": 5834,
      "ப்புல": 5835,
      "மனிதனும்": 5836,
      "இரட்டை": 5837,
      "த்திக்": 5838,
      "சொல்லப்படும்": 5839,
      "ாலோ": 5840,
      "மனம்": 5841,
      "சேமித்து": 5842,
      "che": 5843,
      "முஷ்ரிக்குகள்": 5844,
      "குஃப்ரை": 5845,
      "ஆதமுடைய": 5846,
      "இல்லாதிருந்தால்": 5847,
      "list": 5848,
      "ub": 5849,
      "எஜமான": 5850,
      "ருந்தும்": 5851,
      "விசு": 5852,
      "திக்": 5853,
      "ஹ்ரா": 5854,
      "ட்டுமா": 5855,
      "வெடி": 5856,
      "விட்டதோ": 5857,
      "தாக்கி": 5858,
      "னில்லை": 5859,
      "மாட்டா": 5860,
      "இருக்கிறார்": 5861,
      "சேர்த்த": 5862,
      "மனிதனே": 5863,
      "கேட்கப்படும்": 5864,
      "விஷயங்களை": 5865,
      "அஞ்சங்கள்": 5866,
      "இம்மையிலும்": 5867,
      "கூட்டத்தாரும்": 5868,
      "உபதேசி": 5869,
      "நெருப்புக்": 5870,
      "மூழ்கடித்தோம்": 5871,
      "இவ்வுலகிலும்": 5872,
      "செவியேற்பவன்": 5873,
      "சகித்துக்": 5874,
      "அடிப்படை": 5875,
      "type": 5876,
      "வானத்தில்": 5877,
      "கைகள": 5878,
      "வோரும்": 5879,
      "பிரமுக": 5880,
      "நடந்தது": 5881,
      "பூமியின": 5882,
      "எதிர்த்து": 5883,
      "அளிக்கப்பட்ட": 5884,
      "பெண்களுக்கு": 5885,
      "மக்களின்": 5886,
      "படவில்லை": 5887,
      "வதற்காகவே": 5888,
      "விருப்பத்தேர்வு": 5889,
      "ஸ்டன்": 5890,
      "நிறைவேற்ற": 5891,
      "கடவுள": 5892,
      "சூரியனையும்": 5893,
      "தவ்பாவை": 5894,
      "ஸூர்": 5895,
      "வலிமை": 5896,
      "af": 5897,
      "அச": 5898,
      "செக்": 5899,
      "வுடைய": 5900,
      "கின்றோம்": 5901,
      "அறிவில்லாத": 5902,
      "மூஸாவை": 5903,
      "அளித்தான்": 5904,
      "விலக்கப்பட்ட": 5905,
      "பாதுகாத்துக்": 5906,
      "பொய்யை": 5907,
      "சொல்வீராக": 5908,
      "மலைகள்": 5909,
      "தெரிகிறது": 5910,
      "புத்தகம்": 5911,
      "நன்மையைக்": 5912,
      "இவ்விருவரும்": 5913,
      "வழக்கமான": 5914,
      "சீக்கிரத்தில்": 5915,
      "30": 5916,
      "AP": 5917,
      "IL": 5918,
      "ோட": 5919,
      "ருகூ": 5920,
      "அவதூ": 5921,
      "ந்தனர்": 5922,
      "அவர்களிடமிருந்து": 5923,
      "புரு": 5924,
      "தாங்களே": 5925,
      "சுகம்": 5926,
      "விடாது": 5927,
      "கொள்வோம்": 5928,
      "பதிவே": 5929,
      "மறைத்துக்": 5930,
      "செய்திகள்": 5931,
      "நேசிக்கின்றான்": 5932,
      "ஏற்பட்டது": 5933,
      "வெற்றியாகும்": 5934,
      "குறைந்தபட்ச": 5935,
      "ஃபிரான": 5936,
      "அசைவூ": 5937,
      "ருகூஃ": 5938,
      "80": 5939,
      "OP": 5940,
      "ces": 5941,
      "part": 5942,
      "ையின": 5943,
      "வரே": 5944,
      "மீம்": 5945,
      "எனது": 5946,
      "வர்ணி": 5947,
      "நபியின்": 5948,
      "சாந்த": 5949,
      "வோடு": 5950,
      "இரட்சி": 5951,
      "ுக்கோ": 5952,
      "நேர்மையான": 5953,
      "கட்டமை": 5954,
      "த்தினை": 5955,
      "இணைப்பை": 5956,
      "ந்திரம்": 5957,
      "நாயனில்லை": 5958,
      "வீடுகளை": 5959,
      "வாயில்": 5960,
      "சாதனம்": 5961,
      "யூதர்கள்": 5962,
      "இன்பம்": 5963,
      "ஹம்து": 5964,
      "புகழைக்": 5965,
      ")?": 5966,
      "AL": 5967,
      "ஃபூ": 5968,
      "பன்": 5969,
      "த்துல்": 5970,
      "மாண": 5971,
      "வுன்": 5972,
      "என்றுங்": 5973,
      "ின்றும்": 5974,
      "க்கும்படி": 5975,
      "தற்காகவும்": 5976,
      "இயங்கும்": 5977,
      "சமூகத்திற்கு": 5978,
      "வலக்க": 5979,
      "அநியாயக்": 5980,
      "வதைப்": 5981,
      "அதிகபட்ச": 5982,
      "காட்டுகிறான்": 5983,
      "குறிப்பிடு": 5984,
      "வார்ப்பு": 5985,
      "கடினமாக": 5986,
      "அருட்கொடைகளை": 5987,
      "க்கொள்ளும்": 5988,
      "அடுக்கு": 5989,
      "இவையெல்லாம்": 5990,
      "இரண்டாவது": 5991,
      "இதிலே": 5992,
      "25": 5993,
      "CR": 5994,
      "ஆற": 5995,
      "ஊட": 5996,
      "எங்களில்": 5997,
      "ஓர": 5998,
      "ஜோ": 5999,
      "ஜீல": 6000,
      "பவனை": 6001,
      "லிருந்தே": 6002,
      "வையை": 6003,
      "முதன்": 6004,
      "களா": 6005,
      "செய்வதற்கு": 6006,
      "போரிட": 6007,
      "வழியாக": 6008,
      "கொடுக்கிறோம்": 6009,
      "lation": 6010,
      "அமைத்தான்": 6011,
      "குறித்த": 6012,
      "என்றே": 6013,
      "அத்தாட்சிகள": 6014,
      "விலக்கி": 6015,
      "our": 6016,
      "அடிப்படைய": 6017,
      "ஏழைகளுக்கும்": 6018,
      "சொல்கிற": 6019,
      "some": 6020,
      "(#": 6021,
      "US": 6022,
      "ok": 6023,
      "அபய": 6024,
      "இத": 6025,
      "இளை": 6026,
      "ஒற்றை": 6027,
      "நாய்": 6028,
      "லைக்": 6029,
      "கூறுவார்": 6030,
      "அதுவும்": 6031,
      "பாரா": 6032,
      "உண்மையாக": 6033,
      "க்காதே": 6034,
      "வெளிப்பட்டு": 6035,
      "பாதுகாப்பான": 6036,
      "பிரிவு": 6037,
      "சொல்லு": 6038,
      "ico": 6039,
      "அருளும்": 6040,
      "யாராவது": 6041,
      "கழுத்து": 6042,
      "எச்சரிக்கையாக": 6043,
      "24": 6044,
      "Vi": 6045,
      "port": 6046,
      "ொட": 6047,
      "ையிட": 6048,
      "துரு": 6049,
      "ற்கு": 6050,
      "வழிபட்டு": 6051,
      "நிராகரிக்க": 6052,
      "என்றாலும்": 6053,
      "அடைவில்": 6054,
      "lease": 6055,
      "அறப்போர்": 6056,
      "பொய்யெனக்": 6057,
      "விரைவிலேயே": 6058,
      "நாடுகிறான்": 6059,
      "கடுமையானவன்": 6060,
      "ust": 6061,
      "ஒட்டு": 6062,
      "ஸர்": 6063,
      "நீயும்": 6064,
      "செய்தவர்கள்": 6065,
      "நபியாக": 6066,
      "பொருட்": 6067,
      "வந்தாலும்": 6068,
      "இரவிலும்": 6069,
      "கருது": 6070,
      "கருணை": 6071,
      "அறிவித்தது": 6072,
      "அளிக்க": 6073,
      "அளித்தோம்": 6074,
      "icts": 6075,
      "அழகாகக்": 6076,
      "நாள்வரை": 6077,
      "கெட்டவர்கள்": 6078,
      "மிகைத்து": 6079,
      "எழுதப்பட்டது": 6080,
      "பெரும்பாலான": 6081,
      "இலவச": 6082,
      "பகிரங்கமாக": 6083,
      "மேயே": 6084,
      "நிர்வகி": 6085,
      "நம்புகிறேன்": 6086,
      "ஆதலின்": 6087,
      "நரகத்திற்கு": 6088,
      "ஃபிர்அவ்னுடைய": 6089,
      "இலேசா": 6090,
      "இப்பூமியில்": 6091,
      "units": 6092,
      "மத்யன்": 6093,
      "முஸ்லீம": 6094,
      ";\"": 6095,
      "ml": 6096,
      "object": 6097,
      "அண்": 6098,
      "மஸீ": 6099,
      "ுடை": 6100,
      "நாங்கள": 6101,
      "டித்": 6102,
      "வெட்க": 6103,
      "சுற்றிய": 6104,
      "தூதன்": 6105,
      "வழிப்படு": 6106,
      "சேரு": 6107,
      "அருட்": 6108,
      "உருப்படி": 6109,
      "பிரித்து": 6110,
      "சமூகத்தாரின்": 6111,
      "யாரையும்": 6112,
      "தங்கியிருந்த": 6113,
      "சட்டம்": 6114,
      "வரலாறு": 6115,
      "நிற்கும்": 6116,
      "அழுத்தவும்": 6117,
      "சேவகன்": 6118,
      "அவற்றுக்கு": 6119,
      "தோன்றல்கள": 6120,
      "அமையும்": 6121,
      "ஊற்று": 6122,
      "ாக்க": 6123,
      "்கொ": 6124,
      "ியால்": 6125,
      "னைப்": 6126,
      "மாமி": 6127,
      "மீதி": 6128,
      "ண்மையை": 6129,
      "மையையும்": 6130,
      "விடாதீர்": 6131,
      "வருவோம்": 6132,
      "கோணம்": 6133,
      "ுக்கெதிராக": 6134,
      "கின்றது": 6135,
      "அறிவிப்பான்": 6136,
      "முகங்களை": 6137,
      "எதைச்": 6138,
      "நிலையிலும்": 6139,
      "உறுதிமொழி": 6140,
      "முயல": 6141,
      "பொறுமையுடைய": 6142,
      "செவிப்புல": 6143,
      "அத்தூத": 6144,
      "அலாரம்": 6145,
      "சொருகுப்ப": 6146,
      "தாழ்த்திக்": 6147,
      "எலிச": 6148,
      "அரசாங்க": 6149,
      "Do": 6150,
      "ஆணை": 6151,
      "தலும்": 6152,
      "ெடுத்து": 6153,
      "க்கர்": 6154,
      "த்ததும்": 6155,
      "துல": 6156,
      "தூது": 6157,
      "என்னையே": 6158,
      "விடுதலை": 6159,
      "இருக்கிறார்களோ": 6160,
      "இந்தக்": 6161,
      "நன்மையாக": 6162,
      "நிராகரிக்கின்றார்களோ": 6163,
      "கணவன்": 6164,
      "நிறங்கள்": 6165,
      "அத்தாட்சிகளைப்": 6166,
      "அளித்து": 6167,
      "முஃமின்களில்": 6168,
      "கிடைத்த": 6169,
      "தங்களிடம்": 6170,
      "அப்படியிருந்தும்": 6171,
      "உயிர்ப்பிக்கிறான்": 6172,
      "புரியுங்கள்": 6173,
      "ஏளன": 6174,
      "எலிசபெத்": 6175,
      ",\"": 6176,
      "__": 6177,
      "par": 6178,
      "ீஸ்": 6179,
      "துர": 6180,
      "செரு": 6181,
      "வேடிக்க": 6182,
      "மீட்டு": 6183,
      "சுவைத்து": 6184,
      "mess": 6185,
      "இறைவனாக": 6186,
      "இரத்த": 6187,
      "வேதனைக்கு": 6188,
      "மாற்றப்பட்ட": 6189,
      "வைத்திருந்த": 6190,
      "எதைக்": 6191,
      "நிலையிலேயே": 6192,
      "நிகரற்ற": 6193,
      "எண்ணிக்கையை": 6194,
      "உருவாக்குகிறது": 6195,
      "நியாயமான": 6196,
      "ாமலிருக்க": 6197,
      "ஜகாத்தும்": 6198,
      "முழக்கம்": 6199,
      "அர்ஷின்": 6200,
      "தாமத": 6201,
      "விபசார": 6202,
      "SIG": 6203,
      "districts": 6204,
      "கேடியி": 6205,
      "CT": 6206,
      "இவற்றில்": 6207,
      "கழ": 6208,
      "ப்பவர்களாக": 6209,
      "வரவில்லையா": 6210,
      "மேம்": 6211,
      "பாழ": 6212,
      "பாத்திய": 6213,
      "அறிபவன்": 6214,
      "வழிகாட்டியாகவும்": 6215,
      "க்காதிரு": 6216,
      "அளவுக்கு": 6217,
      "மாற்றங்களை": 6218,
      "விளையாட்ட": 6219,
      "நிராகரிப்போருக்கு": 6220,
      "பலனளி": 6221,
      "பெண்களுக்கும்": 6222,
      "புதிதாக": 6223,
      "PS": 6224,
      "அக்கா": 6225,
      "அடர்": 6226,
      "பவர்கள": 6227,
      "ஸின": 6228,
      "்களுக்கும்": 6229,
      "ையாகவும்": 6230,
      "கிண": 6231,
      "மனிதர": 6232,
      "நினைத்து": 6233,
      "சைமன்": 6234,
      "எந்தத்": 6235,
      "அளவற்ற": 6236,
      "முஃமின்களான": 6237,
      "அலு": 6238,
      "முயல்": 6239,
      "பாதுகாவலனாக": 6240,
      "முன்னோக்கி": 6241,
      "புள்ளிகள்": 6242,
      "பகலில்": 6243,
      "சோலைகளில்": 6244,
      "பாதையிலிருந்து": 6245,
      "ஞாப": 6246,
      "dpi": 6247,
      "fa": 6248,
      "ror": 6249,
      "இனிய": 6250,
      "பவியுங்கள்": 6251,
      "நாட்டை": 6252,
      "வைத்": 6253,
      "ய்ஸிய": 6254,
      "அவனுடன்": 6255,
      "வேண்டி": 6256,
      "உள்ளட": 6257,
      "சாஸ": 6258,
      "கிட்ட": 6259,
      "என்பதற்காக": 6260,
      "அருகே": 6261,
      "கொடுமை": 6262,
      "ப்படுத்தப்பட்ட": 6263,
      "வற்றைச்": 6264,
      "ாயி": 6265,
      "தானா": 6266,
      "க்கூட்ட": 6267,
      "மார்க்கத்திற்கு": 6268,
      "உரியன": 6269,
      "தவறச்": 6270,
      "லூய்ஸிய": 6271,
      "தடத்தை": 6272,
      "amount": 6273,
      "ஒப்பந்த": 6274,
      "விசன": 6275,
      "அவசரப்படு": 6276,
      "your": 6277,
      "மெதுவாக": 6278,
      "லூய்ஸியானா": 6279,
      "360": 6280,
      "cess": 6281,
      "iz": 6282,
      "ஜை": 6283,
      "தரா": 6284,
      "வடக்கு": 6285,
      "்களால்": 6286,
      "க்கென": 6287,
      "ப்பொரு": 6288,
      "கிறதோ": 6289,
      "கிறாய்": 6290,
      "ராணி": 6291,
      "காரணி": 6292,
      "முன்னு": 6293,
      "வந்துள்ளது": 6294,
      "காரணத்தினால்": 6295,
      "காண்பிக்க": 6296,
      "முறையை": 6297,
      "குறைந்தது": 6298,
      "மேலானது": 6299,
      "மேலானதாகும்": 6300,
      "நூலக": 6301,
      "தன்னிடமிருந்து": 6302,
      "பாதுகாவலர்களாக": 6303,
      "எழுப்பப்படும்": 6304,
      "வார்களா": 6305,
      "வார்களாயின்": 6306,
      "அக்கிரமக்காரர்கள்": 6307,
      "வேளையில்": 6308,
      "லாண்ட்ஸ்": 6309,
      "யஃகூப்": 6310,
      "சொடுக்கவும்": 6311,
      "பேரீத்த": 6312,
      "எத்தனை": 6313,
      "சனிக்கிழ": 6314,
      "அன்பு": 6315,
      "ப்பக்க": 6316,
      "கொண்டீர்கள்": 6317,
      "கொண்டவர்களையும்": 6318,
      "அறிவோம்": 6319,
      "கிடையாது": 6320,
      "பொருந்திக்": 6321,
      "இருப்போம்": 6322,
      "ீர்களாக": 6323,
      "பிரார்த்தனையை": 6324,
      "ட்சியாள": 6325,
      "காண்பித்து": 6326,
      "stel": 6327,
      "வில்லையானால்": 6328,
      "ஏவப்பட்டுள்ள": 6329,
      "EX": 6330,
      "_R": 6331,
      "ஆடைய": 6332,
      "ந்ததும்": 6333,
      "பயப்படாதீர்": 6334,
      "லிஃபொ": 6335,
      "சாம்": 6336,
      "வருவதற்கு": 6337,
      "எழுதும்": 6338,
      "எந்தக்": 6339,
      "கெலிஃபொ": 6340,
      "சியாக": 6341,
      "அச்சம": 6342,
      "அவனைச்": 6343,
      "கொடுக்க": 6344,
      "பொறுமையாக": 6345,
      "போன்றே": 6346,
      "காரியம்": 6347,
      "அனுமதிக்கப்பட்ட": 6348,
      "தோற்ற": 6349,
      "உண்டாகும்": 6350,
      "வேகமாக": 6351,
      "bjects": 6352,
      "உபகாரம்": 6353,
      "xAE": 6354,
      "கெலிஃபொனியா": 6355,
      "தகு": 6356,
      "த்தனம்": 6357,
      "ப்போ": 6358,
      "ல்லவா": 6359,
      "வரியை": 6360,
      "ிடத்திலும்": 6361,
      "மூச்சு": 6362,
      "ிருந்தோ": 6363,
      "வரைபட": 6364,
      "அமைப்பை": 6365,
      "அனைவருக்கும்": 6366,
      "பெயர்களை": 6367,
      "க்கூடாது": 6368,
      "கொடுக்கப்": 6369,
      "போகலாம்": 6370,
      "மெய்ப்பி": 6371,
      "ஆகிவிடு": 6372,
      "இத்தகையோருக்கு": 6373,
      "வேதனையான": 6374,
      "சம்பாதித்துக்": 6375,
      "நுழைந்து": 6376,
      "குழந்தைகள்": 6377,
      "ஆதாரம்": 6378,
      "வெற்றியடை": 6379,
      "உறவு": 6380,
      "பகுதியை": 6381,
      "தப்பித்துக்": 6382,
      "அருட்கொடையை": 6383,
      "நூஹுடைய": 6384,
      "உமக்காக": 6385,
      "உள்ளிடுக": 6386,
      "இராது": 6387,
      "முற்படுத்தி": 6388,
      "stellation": 6389,
      "gro": 6390,
      "no": 6391,
      "கயி": 6392,
      "பகி": 6393,
      "மடை": 6394,
      "வகையில்": 6395,
      "ஸன்": 6396,
      "செல்லாத": 6397,
      "வாக்கிய": 6398,
      "வனின்": 6399,
      "ிடத்திலிருந்து": 6400,
      "ிடமுள்ள": 6401,
      "உள்ளவற்றையும்": 6402,
      "பயந்த": 6403,
      "ப்பிடு": 6404,
      "கூறினாள்": 6405,
      "கருத": 6406,
      "அவனுக்குப்": 6407,
      "ிருக்கின்றேன்": 6408,
      "சந்திக்க": 6409,
      "மலக்குகளும்": 6410,
      "கூறியபோது": 6411,
      "set": 6412,
      "அவ்விருவரின்": 6413,
      "கூடாதா": 6414,
      "ரஹ்மத்தில்": 6415,
      "செல்வமும்": 6416,
      "அல்ஹம்து": 6417,
      "நடிக": 6418,
      "what": 6419,
      "Constellation": 6420,
      "1ஐ": 6421,
      "720": 6422,
      "app": 6423,
      "sa": 6424,
      "மிரு": 6425,
      "ல்லன்": 6426,
      "களுக்கான": 6427,
      "ின்றன": 6428,
      "ராகி": 6429,
      "....": 6430,
      "வற்றையே": 6431,
      "நன்மையும்": 6432,
      "முன்னும்": 6433,
      "எழுந்து": 6434,
      "தொழுது": 6435,
      "வேறுபாடு": 6436,
      "அந்தப்": 6437,
      "வசதிய": 6438,
      "கெடுத்த": 6439,
      "தோர்": 6440,
      "எண்ணிய": 6441,
      "பாவங்களின்": 6442,
      "arch": 6443,
      "தலைமுறை": 6444,
      "சேர்ப்பான்": 6445,
      "இவர்களே": 6446,
      "தீர்ப்புக்": 6447,
      "வேதனையையும்": 6448,
      "mail": 6449,
      "mber": 6450,
      "கூலியாகும்": 6451,
      "ஆலோசனை": 6452,
      "சகல": 6453,
      "நியாயமாக": 6454,
      "ப்பதாக": 6455,
      "ந்தார்கள்": 6456,
      "சுத்திய": 6457,
      "செய்யாது": 6458,
      "செய்யப்படும்": 6459,
      "உள்ளவற்றை": 6460,
      "வழிகளில்": 6461,
      "ania": 6462,
      "க்கப்பட்டனர்": 6463,
      "பலகை": 6464,
      "இடத்திற்கு": 6465,
      "அளபுரு": 6466,
      "ாயினும்": 6467,
      "அளிக்காது": 6468,
      "பெருங்க": 6469,
      "ஒவ்வொருவரும்": 6470,
      "அகற்றி": 6471,
      "சூனியம்": 6472,
      "அதிகாரமும்": 6473,
      "இன்ஜீல": 6474,
      "சமுதாயத்த": 6475,
      "தியானி": 6476,
      "பைத்தியம்": 6477,
      "பொருளின்": 6478,
      "யஃகூப": 6479,
      "பிணைய": 6480,
      "அலுவல": 6481,
      "Fuck": 6482,
      "மிருந்தே": 6483,
      "ங்களிலுள்ள": 6484,
      "ட்டப்படும்": 6485,
      "காப்ப": 6486,
      "புகட்ட": 6487,
      "ிருந்தாலும்": 6488,
      "சாந்தி": 6489,
      "கத்தின்": 6490,
      "திருப்பு": 6491,
      "கட்டட": 6492,
      "சிறப்பு": 6493,
      "வியல்": 6494,
      "நன்கறிவோம்": 6495,
      "அதனைச்": 6496,
      "காட்டுகிறது": 6497,
      "சமமானது": 6498,
      "திரும்பக்": 6499,
      "டனேயே": 6500,
      "ஷைத்தான்களை": 6501,
      "நிராகரிப்பவர்களுக்கு": 6502,
      "கேட்கிற": 6503,
      "சான்று": 6504,
      "வெளியாக்கு": 6505,
      "நடிகர்": 6506,
      "க்கொள்ள": 6507,
      "போருக்குச்": 6508,
      "ஆயிரம்": 6509,
      "கான்கொ": 6510,
      "கூலியாகக்": 6511,
      "நற்போதனை": 6512,
      "இப்போது": 6513,
      "provinces": 6514,
      "வேதனையுமுண்டு": 6515,
      "\",": 6516,
      "Ont": 6517,
      "ile": 6518,
      "இறு": 6519,
      "இவருடைய": 6520,
      "சரம்": 6521,
      "க்குக்": 6522,
      "றிந்து": 6523,
      "ள்ளே": 6524,
      "காற்றை": 6525,
      "போட": 6526,
      "செய்ததை": 6527,
      "செய்தனர்": 6528,
      "எனக்காக": 6529,
      "இறக்க": 6530,
      "முன்னமேயே": 6531,
      "இருப்பீர்கள்": 6532,
      "நல்லறிவு": 6533,
      "அமைத்துக்": 6534,
      "பொழுது": 6535,
      "அச்சம்": 6536,
      "பார்க்கும்": 6537,
      "able": 6538,
      "அவருக்குத்": 6539,
      "rec": 6540,
      "கண்டோம்": 6541,
      "காரியங்களை": 6542,
      "பெற்றோர்": 6543,
      "சாளரத்தின்": 6544,
      "வேண்டுமென": 6545,
      "செவியேற்க": 6546,
      "ure": 6547,
      "ஆக்க": 6548,
      "ஆங்க": 6549,
      "சவாரி": 6550,
      "மஹ்": 6551,
      "ூன்": 6552,
      "ூர்": 6553,
      "விண்": 6554,
      "நீரை": 6555,
      "அவர்களிலிருந்தே": 6556,
      "களாகும்": 6557,
      "வரப்படும்": 6558,
      "தீனா": 6559,
      "இருக்கிறதோ": 6560,
      "inmenu": 6561,
      "பூமியும்": 6562,
      "த்தாய்": 6563,
      "ிற்குமிடையே": 6564,
      "அச்சிடு": 6565,
      "பிறி": 6566,
      "பொருள்கள்": 6567,
      "சிந்திக்க": 6568,
      "ஆத்மாவுக்கும்": 6569,
      "etc": 6570,
      "பரிந்துரை": 6571,
      "வர்களாவார்கள்": 6572,
      "MD": 6573,
      "ns": 6574,
      "russ": 6575,
      "use": 6576,
      "ஏற்": 6577,
      "ஏஸ்": 6578,
      "ில்ல": 6579,
      "இருப்போ": 6580,
      "பிள்": 6581,
      "டிபி": 6582,
      "பொழு": 6583,
      "தாள": 6584,
      "ியைத்": 6585,
      "தோற்க": 6586,
      "நரகமே": 6587,
      "மலையின்": 6588,
      "கடமை": 6589,
      "முடிவில்": 6590,
      "தானாகவே": 6591,
      "சாரார்": 6592,
      "நிறுவு": 6593,
      "நிரலை": 6594,
      "காண்பிக்கப்பட்டால்": 6595,
      "ப்பட்டுள்ளன": 6596,
      "ஃபிர்அவ்னும்": 6597,
      "வழியைப்": 6598,
      "விசைப்பலகை": 6599,
      "காண்பீர்கள்": 6600,
      "த்தோடு": 6601,
      "உண்ணுங்கள்": 6602,
      "பள்ளத்தா": 6603,
      "russia_": 6604,
      "Po": 6605,
      "came": 6606,
      "rare": 6607,
      "window": 6608,
      "தந்து": 6609,
      "ரொ": 6610,
      "ோன்": 6611,
      "நீங்கி": 6612,
      "நிச்சய": 6613,
      "மில்லாமல்": 6614,
      "டியில்": 6615,
      "தேடும்": 6616,
      "வெப்ப": 6617,
      "பின்புற": 6618,
      "நம்பாத": 6619,
      "அவர்களுக்குரிய": 6620,
      "time": 6621,
      "நெதர்": 6622,
      "ிருப்பவன்": 6623,
      "படைக்க": 6624,
      "ario": 6625,
      "அறிவித்து": 6626,
      "அடிச்சு": 6627,
      "வைப்பதையும்": 6628,
      "சந்தித்த": 6629,
      "விருப்பப்படி": 6630,
      "கவனித்துக்": 6631,
      "அப்படியானால்": 6632,
      "குடும்பத்தின": 6633,
      "வெறுத்த": 6634,
      "நிராகரிப்போரின்": 6635,
      "கட்டளையிடு": 6636,
      "வற்றுக்கும்": 6637,
      "அனுமதியின்றி": 6638,
      "சுவனபதியில்": 6639,
      "கைப்பற்று": 6640,
      "40": 6641,
      "fil": 6642,
      "nn": 6643,
      "ஓட்ட": 6644,
      "நர்": 6645,
      "பவர்களாகவும்": 6646,
      "க்கையும்": 6647,
      "போட்டு": 6648,
      "எனவும்": 6649,
      "ராகவே": 6650,
      "ிலான": 6651,
      "செய்யமாட்டான்": 6652,
      "ப்பிரி": 6653,
      "கொள்ளமாட்டார்கள்": 6654,
      "சாப்பிட": 6655,
      "யாவருக்கும்": 6656,
      "நிராகரிப்பு": 6657,
      "trol": 6658,
      "ன்றிரு": 6659,
      "பொறுத்த": 6660,
      "வேண்டியிருக்கிறது": 6661,
      "இவர்களிடம்": 6662,
      "படியே": 6663,
      "மிகைத்தவனும்": 6664,
      "விழுங்கி": 6665,
      "கடவுள்": 6666,
      "பார்வைகளையும்": 6667,
      "முன்னோர்களின்": 6668,
      "அல்லாதவற்றை": 6669,
      "எளிதாக": 6670,
      "புகலிடம்": 6671,
      "ஆசிரியர்": 6672,
      "ரஹ்மத்தாகவும்": 6673,
      "வார்ப்புரு": 6674,
      "சுற்றியுள்ள": 6675,
      "Ontario": 6676,
      "16": 6677,
      "100": 6678,
      "Cog": 6679,
      "cal": 6680,
      "அன": 6681,
      "ஏமாற்ற": 6682,
      "ஞர்": 6683,
      "னாலும்": 6684,
      "லவ்": 6685,
      "ினை": 6686,
      "ீன்": 6687,
      "முந்தி": 6688,
      "செயலி": 6689,
      "கூற்று": 6690,
      "ற்றது": 6691,
      "பிளவு": 6692,
      "இருக்காது": 6693,
      "அவனிடத்தில்": 6694,
      "மானம்": 6695,
      "அறிவீ": 6696,
      "ற்பட்ட": 6697,
      "என்பதைக்": 6698,
      "needs": 6699,
      "ாளன்": 6700,
      "திட்டமி": 6701,
      "செல்வந்த": 6702,
      "உறுதியுடன்": 6703,
      "அருளாளன்": 6704,
      "ஆணையாக": 6705,
      "படுத்திக்": 6706,
      "சூழ்ச்ச": 6707,
      "அப்படியாயின்": 6708,
      "பயபக்தியுடையவர்கள்": 6709,
      "ரஹ்மத்தும்": 6710,
      "சிலரைத்": 6711,
      "தளம்": 6712,
      "கட்டளையினால்": 6713,
      "rarely": 6714,
      "Cogl": 6715,
      "wat": 6716,
      "அரியா": 6717,
      "ஏட்டில்": 6718,
      "சாக்": 6719,
      "தந்திர": 6720,
      "மில்லா": 6721,
      "சிம்": 6722,
      "உள்ளிட்ட": 6723,
      "தூள": 6724,
      "நிராகரிக்கும்": 6725,
      "நடவடி": 6726,
      "த்திரம்": 6727,
      "தலையும்": 6728,
      "region": 6729,
      "விரும்புகிறாரோ": 6730,
      "காண்பித்தோம்": 6731,
      "ஆண்களையும்": 6732,
      "துன்பத்தை": 6733,
      "ound": 6734,
      "முறையாகக்": 6735,
      "கூட்டத்தாருக்கு": 6736,
      "மூன்றில்": 6737,
      "தவிர்த்துக்": 6738,
      "நிரந்தரமாக": 6739,
      "சுவைத்துப்": 6740,
      "ian": 6741,
      "அக்கு": 6742,
      "அர்த்த": 6743,
      "அசுத்த": 6744,
      "உங்க": 6745,
      "உறை": 6746,
      "ர்களா": 6747,
      "ப்பதையும்": 6748,
      "ப்பவர்களில்": 6749,
      "ட்டே": 6750,
      "வேட்ட": 6751,
      "நிமி": 6752,
      "பொக்கி": 6753,
      "ற்படுத்து": 6754,
      "மென": 6755,
      "கட்டாய": 6756,
      "பரிசத்த": 6757,
      "ree": 6758,
      "நிரல": 6759,
      "ஆணவம்": 6760,
      "வைப்பீராக": 6761,
      "வரையறு": 6762,
      "வரையறை": 6763,
      "அன்புடையோ": 6764,
      "உதவும்": 6765,
      "Short": 6766,
      "விகிதம்": 6767,
      "நிர்ப்பந்தி": 6768,
      "முன்பும்": 6769,
      "பொக்கிஷ": 6770,
      "Ne": 6771,
      "ib": 6772,
      "mm": 6773,
      "எடை": 6774,
      "டய": 6775,
      "பவு": 6776,
      "ஹார்": 6777,
      "ுமாகும்": 6778,
      "நிந்தி": 6779,
      "ள்ளான்": 6780,
      "பொது": 6781,
      "அவனோ": 6782,
      "கூறுகின்றான்": 6783,
      "ன்பதை": 6784,
      "மனிதர்களுக்காக": 6785,
      "புறத்திலிருந்து": 6786,
      "நன்கொ": 6787,
      "மரங்களும்": 6788,
      "தெரியவில்லை": 6789,
      "வராகவே": 6790,
      "வேதனையைத்": 6791,
      "அருளினான்": 6792,
      "படுத்திய": 6793,
      "க்கப்படுவீர்கள்": 6794,
      "அறியாமல்": 6795,
      "கேட்பவனாகவும்": 6796,
      "கால்சியம்": 6797,
      "பார்ப்பவனாகவும்": 6798,
      "சரண": 6799,
      "ப்புறம்": 6800,
      "ஸ்கி": 6801,
      "குறிப்பிடப்பட்ட": 6802,
      "முஷ்ரிக்குகளில்": 6803,
      "பகுதியில்": 6804,
      "பயிற்சி": 6805,
      "இப்லீஸை": 6806,
      "உதவு": 6807,
      "தர்க்கித்துக்": 6808,
      "வெற்றியாளர்கள்": 6809,
      "வேறெதுவும்": 6810,
      "res": 6811,
      "மதீனா": 6812,
      "அவரும்": 6813,
      "அல்லாஹ்வோ": 6814,
      "சிலை": 6815,
      "உள்ளவர்களும்": 6816,
      "அனுபவியுங்கள்": 6817,
      "படைக்கிறான்": 6818,
      "வையெல்லாம்": 6819,
      "நகற்று": 6820,
      "ிருக்கின்றனர்": 6821,
      "மக்களையும்": 6822,
      "அனுப்பிவைத்தோம்": 6823,
      "\\\\\\\\": 6824,
      "சுவனச்": 6825,
      "கேடே": 6826,
      "மரணத்தை": 6827,
      "மேன்மை": 6828,
      "மனைவிமா": 6829,
      "சோதிக்கவும்": 6830,
      "நடிகரு": 6831,
      "சேவையகம்": 6832,
      "ஃபிர்அவ்னிடம்": 6833,
      "விற்கு": 6834,
      "subjects": 6835,
      "ஏவப்பட்ட": 6836,
      "சந்தேகத்திலேயே": 6837,
      "சவனபதி": 6838,
      "இவருக்கு": 6839,
      "எளிய": 6840,
      "எவர்களுடைய": 6841,
      "சக்த": 6842,
      "தற்": 6843,
      "விளி": 6844,
      "விடை": 6845,
      "காலா": 6846,
      "கேமிரா": 6847,
      "சாப": 6848,
      "இவ்வா": 6849,
      "பொலாண்ட்": 6850,
      "என்னைச்": 6851,
      "பாவத்தை": 6852,
      "மூஸாவுக்கும்": 6853,
      "விரண்டு": 6854,
      "கேட்டால்": 6855,
      "பெண்களின்": 6856,
      "மறக்க": 6857,
      "bet": 6858,
      "மரித்து": 6859,
      "நிறைவேற்றி": 6860,
      "பரிசுத்தமானவன்": 6861,
      "அழித்திருக்கிறோம்": 6862,
      "வடிகட்டிName": 6863,
      "02i": 6864,
      "சொருகுப்பொருள்": 6865,
      "_A": 6866,
      "உரோ": 6867,
      "டொ": 6868,
      "தத்தை": 6869,
      "மத்த": 6870,
      "ரார்": 6871,
      "லர்": 6872,
      "துறை": 6873,
      "ார்க்": 6874,
      "உங்களிலிருந்து": 6875,
      "பாங்க": 6876,
      "டைந்தது": 6877,
      "வெட்டி": 6878,
      "அவனிடமிருந்து": 6879,
      "தீரும்": 6880,
      "சாபம்": 6881,
      "தூதரின்": 6882,
      "மதிப்ப": 6883,
      "உண்மையே": 6884,
      "கொடுத்திருந்தோம்": 6885,
      "பிரிவா": 6886,
      "நன்மைகள்": 6887,
      "தேடுங்கள்": 6888,
      "படுத்துகிறது": 6889,
      "செய்கின்றன": 6890,
      "AND": 6891,
      "அனுப்பியுள்ளோம்": 6892,
      "வார்த்தைகள்": 6893,
      "பெரிதும்": 6894,
      "ஃபாஸி": 6895,
      "வணக்கத்திற்குரியவன்": 6896,
      "நல்லடியார்களில்": 6897,
      "திருப்பொருத்தத்தை": 6898,
      "இச்": 6899,
      "எண": 6900,
      "ரால்": 6901,
      "வட்டி": 6902,
      "வில்லாத": 6903,
      "ந்தீர்": 6904,
      "சென்ட்": 6905,
      "கொன்ற": 6906,
      "கூடி": 6907,
      "ஒருபோதும்": 6908,
      "ிட்": 6909,
      "செய்துவிட": 6910,
      "அல்லவா": 6911,
      "தம்மை": 6912,
      "நல்லோ": 6913,
      "தவிர்க்க": 6914,
      "செல்கிறேன்": 6915,
      "ஏற்படு": 6916,
      "அவனைத்தவிர": 6917,
      "இதைவிட": 6918,
      "ாயே": 6919,
      "செய்பவை": 6920,
      "அடித்தள": 6921,
      "நற்பாக்கிய": 6922,
      "கூலியும்": 6923,
      "ஜூடித்": 6924,
      "தர்மம்": 6925,
      "செவியேற்ற": 6926,
      "பகலின்": 6927,
      "குமாரர்": 6928,
      "whats": 6929,
      "Dis": 6930,
      "MiB": 6931,
      "ஆதி": 6932,
      "இவற்றின்": 6933,
      "ரான்": 6934,
      "ல்களில்": 6935,
      "ஹே": 6936,
      "்தி": 6937,
      "அவர்களால்": 6938,
      "குவா": 6939,
      "வரக்கூடிய": 6940,
      "வைக்கப்பட்ட": 6941,
      "வழியும்": 6942,
      "பொருத்த": 6943,
      "க்கின்றார்கள்": 6944,
      "மிக்கோனாகவும்": 6945,
      "கொள்வதில்": 6946,
      "நோய": 6947,
      "ore": 6948,
      "பெயரிட": 6949,
      "மாறுபாடு": 6950,
      "அறிவிக்கும்": 6951,
      "மரக்க": 6952,
      "பெண்களில்": 6953,
      "தேர்வுசெய்": 6954,
      "லூத்": 6955,
      "ஆர்ஐ": 6956,
      "வறுமை": 6957,
      "வலக்கரங்கள்": 6958,
      "check": 6959,
      "whatsthis": 6960,
      "அம": 6961,
      "கங்கள": 6962,
      "வதா": 6963,
      "வையா": 6964,
      "ஹை": 6965,
      "த்திருக்கின்றோம்": 6966,
      "துண்ட": 6967,
      "மாலை": 6968,
      "மாக்கிய": 6969,
      "இருக்கின்றானா": 6970,
      "வானாக": 6971,
      "லில்லாஹ்": 6972,
      "அவ்வேதனை": 6973,
      "வசப்படுத்தி": 6974,
      "குறிப்பை": 6975,
      "other": 6976,
      "அழைப்பை": 6977,
      "ங்களுக்குச்": 6978,
      "நிலைமை": 6979,
      "போல": 6980,
      "காலியான": 6981,
      "திரும்பச்": 6982,
      "கவனிக்கவில்லையா": 6983,
      "ாகிவிடும்": 6984,
      "பார்ப்பார்கள்": 6985,
      "உனக்குக்": 6986,
      "னின்று": 6987,
      "சான்றிதழை": 6988,
      "மாமிச": 6989,
      "ID": 6990,
      "PP": 6991,
      "cre": 6992,
      "uk": 6993,
      "கதி": 6994,
      "ரவு": 6995,
      "ையுமே": 6996,
      "ங்களுடன்": 6997,
      "ட்டால்": 6998,
      "ஒருவரைய": 6999,
      "தற்கான": 7000,
      "க்கிடையிலும்": 7001,
      "தூண்டு": 7002,
      "வோராகவும்": 7003,
      "கொள்வதற்காகவும்": 7004,
      "இயந்திரம்": 7005,
      "பட்டோ": 7006,
      "ெனவே": 7007,
      "நாடியோருக்கு": 7008,
      "சமூகத்தாரையும்": 7009,
      "குர்ஆனில்": 7010,
      "நேசிக்க": 7011,
      "கண்ணியம்": 7012,
      "தரவுத்தள": 7013,
      "செய்கின்றான்": 7014,
      "தாயின்": 7015,
      "த்துள்ளான்": 7016,
      "சந்தேகத்தில்": 7017,
      "கடவுச்சொல்லை": 7018,
      "நிமிடங்கள்": 7019,
      "பளுவான": 7020,
      "pl": 7021,
      "அமல்": 7022,
      "உதி": 7023,
      "சோர்": 7024,
      "ஜே": 7025,
      "பளி": 7026,
      "வதே": 7027,
      "ாம்": 7028,
      "ையாகும்": 7029,
      "வித்து": 7030,
      "நிச்சயம்": 7031,
      "காட்சியை": 7032,
      "ராக்": 7033,
      "ட்City": 7034,
      "கோப்ப": 7035,
      "இருப்பதற்காக": 7036,
      "படைப்பு": 7037,
      "மென்ப": 7038,
      "கடும்": 7039,
      "காலியாக": 7040,
      "செல்ப": 7041,
      "உரியதாகும்": 7042,
      "உடையவன்": 7043,
      "நண்பர்": 7044,
      "திரையை": 7045,
      "அட்டவண": 7046,
      "விரோத": 7047,
      "இத்தூத": 7048,
      "பண்புகள்": 7049,
      "நற்பே": 7050,
      "ஊடக": 7051,
      "சிம்லி": 7052,
      "அணை": 7053,
      "கறு": 7054,
      "தகுதி": 7055,
      "னுடைய": 7056,
      "பச": 7057,
      "மலி": 7058,
      "ழையும்": 7059,
      "வதாகவும்": 7060,
      "ீல்": 7061,
      "ையுள்ள": 7062,
      "ட்டர்": 7063,
      "கூடும்": 7064,
      "ரிப்": 7065,
      "கொண்டவர்கள": 7066,
      "ஒருக்கா": 7067,
      "ிடச்": 7068,
      "போவதில்லை": 7069,
      "அவனும்": 7070,
      "உண்ப": 7071,
      "வரைப்பட": 7072,
      "பட்டது": 7073,
      "roon": 7074,
      "new": 7075,
      "கிடக்கின்றன": 7076,
      "மரணி": 7077,
      "செலுத்தி": 7078,
      "பொருளும்": 7079,
      "நம்மிடத்தில்": 7080,
      "வேண்டுமென்றும்": 7081,
      "அத்தகையோருக்கு": 7082,
      "தொடங்க": 7083,
      "வல்லமை": 7084,
      "ஒதுங்கு": 7085,
      "தாய்மா": 7086,
      "முற்பட்டனர்": 7087,
      "தோழர்களே": 7088,
      "அவருக்கே": 7089,
      "மொழியில்": 7090,
      "தொழுகையையும்": 7091,
      "dat": 7092,
      "கவும்": 7093,
      "லின": 7094,
      "வப்பு": 7095,
      "ருளை": 7096,
      "செயற்க": 7097,
      "ரிலும்": 7098,
      "வெரு": 7099,
      "வின்சென்ட்": 7100,
      "ப்பிராய": 7101,
      "யாருடைய": 7102,
      "தூதர்களாக": 7103,
      "தூதர்களுக்கு": 7104,
      "வையாகவும்": 7105,
      "அமைக்கிறது": 7106,
      "மறைந்த": 7107,
      "போலி": 7108,
      "உணர்ந்த": 7109,
      "ich": 7110,
      "மக்களும்": 7111,
      "யூஆர்ஐ": 7112,
      "பார்த்தீரா": 7113,
      "சமூகத்தாராகவே": 7114,
      "இதற்குப்": 7115,
      "பயன்படுத்தும்": 7116,
      "பரவா": 7117,
      "குதிரை": 7118,
      "வெறுப்ப": 7119,
      "டக்கொட": 7120,
      "சோதித்தோம்": 7121,
      "செய்யப்படவும்": 7122,
      "hel": 7123,
      "number": 7124,
      "அபிப்பிராய": 7125,
      "செக்சம்": 7126,
      "Fucking": 7127,
      "ஒருக்காலும்": 7128,
      "A1": 7129,
      "De": 7130,
      "அத்": 7131,
      "இள": 7132,
      "ஊர்": 7133,
      "பசி": 7134,
      "வற்பு": 7135,
      "மேய்": 7136,
      "ுடையவனாக": 7137,
      "பின்தோன்றல்கள": 7138,
      "விட்டாலும்": 7139,
      "தாக்க": 7140,
      "முன்னிருப்ப": 7141,
      "ப்பட்டுக்": 7142,
      "ஏற்பட": 7143,
      "அழிந்த": 7144,
      "சொருகி": 7145,
      "எழுதப்பட்ட": 7146,
      "நிகழ": 7147,
      "சகோதரர்கள்": 7148,
      "அநியாயக்காரர்களாக": 7149,
      "சந்தேகி": 7150,
      "தெரிவி": 7151,
      "புத்தகத்தில்": 7152,
      "இச்சைகளை": 7153,
      "அநாதைகளுக்கும்": 7154,
      "பிரச்சனை": 7155,
      "நினைவகம்": 7156,
      "தனிப்பயன்": 7157,
      "திக்ரு": 7158,
      "cameroon": 7159,
      "நெதர்லாண்ட்ஸ்": 7160,
      "வற்புறு": 7161,
      "cameroon_": 7162,
      "ஆவார்": 7163,
      "எதில்": 7164,
      "யோ": 7165,
      "ங்களா": 7166,
      "நாமும்": 7167,
      "குனி": 7168,
      "கூறுகிற": 7169,
      "வழிப்போ": 7170,
      "இறைய": 7171,
      "என்பதில்": 7172,
      "ital": 7173,
      "பிரதான": 7174,
      "கொள்வாயாக": 7175,
      "நடமா": 7176,
      "தீர்ந்து": 7177,
      "நிலைக்கு": 7178,
      "போர்ட்": 7179,
      "நேரங்களில்": 7180,
      "செயல்கள": 7181,
      "ங்கியது": 7182,
      "மார்க்கமாகும்": 7183,
      "அடியார்": 7184,
      "நற்செய்தி": 7185,
      "நிகழும்": 7186,
      "தங்களுக்குத்": 7187,
      "பூமிக்கு": 7188,
      "வேறெவரும்": 7189,
      "நற்கூலியும்": 7190,
      "இழுத்துச்": 7191,
      "முரண்": 7192,
      "ஒப்படைத்து": 7193,
      "பெயரிடு": 7194,
      "செல்லுபடியாக": 7195,
      "ஊதப்படும்": 7196,
      "அசைவூட்ட": 7197,
      "வழிப்போக்க": 7198,
      "பான்": 7199,
      "பருகு": 7200,
      "ரொ": 7201,
      "ிலை": 7202,
      "ெல்": 7203,
      "ப்பவர்கள்": 7204,
      "ோட": 7205,
      "ண்டோ": 7206,
      "நீரூ": 7207,
      "முட": 7208,
      "மாதிரிய": 7209,
      "தைரிய": 7210,
      "இருக்கட்டும்": 7211,
      "வேதமுடைய": 7212,
      "one": 7213,
      "ையைச்": 7214,
      "வருவான்": 7215,
      "இருந்திருக்க": 7216,
      "மற்றோர்": 7217,
      "இருப்பதாக": 7218,
      "உறுதியா": 7219,
      "நரகத்தை": 7220,
      "செய்பவன": 7221,
      "வெளிப்படுத்தி": 7222,
      "முஃமின்களும்": 7223,
      "எடுத்துரை": 7224,
      "வைத்திருக்கின்றான்": 7225,
      "ர்க்கும்": 7226,
      "bec": 7227,
      "நஷ்டம்": 7228,
      "ப்பற்றிக்": 7229,
      "சந்ததியினர்": 7230,
      "பகைவர்கள்": 7231,
      "தங்களைப்": 7232,
      "பார்வைகள்": 7233,
      "ques": 7234,
      "இறுதியாக": 7235,
      "ers_": 7236,
      "அவ்வாறில்லை": 7237,
      "எக்காளம்": 7238,
      "waters_": 7239,
      "நடவடிக்கை": 7240,
      "அர்த்தம்": 7241,
      "நீரூற்று": 7242,
      "TP": 7243,
      "ave": 7244,
      "bug": 7245,
      "்த்": 7246,
      "ையுடன்": 7247,
      "விற்று": 7248,
      "ண்மை": 7249,
      "உள்ளவை": 7250,
      "கொள்ளாவிட்டால்": 7251,
      "என்பதைச்": 7252,
      "பிடித்தோம்": 7253,
      "இதைப்பற்றி": 7254,
      "செய்பவற்றையெல்லாம்": 7255,
      "மரத்தை": 7256,
      "பெறவில்லை": 7257,
      "பொய்ப்பித்துக்": 7258,
      "வாசிகளை": 7259,
      "பரப்பு": 7260,
      "பணிமே": 7261,
      "சிறுவன்": 7262,
      "கொண்டிருப்பார்கள்": 7263,
      "நிகழ்ச்சி": 7264,
      "ஒட்டகை": 7265,
      "2002": 7266,
      "சேவையக": 7267,
      "அவ்வூர்": 7268,
      "அநேகரை": 7269,
      "விலகிய": 7270,
      "மஹ்ஃபூ": 7271,
      "லவ்ஹுல்": 7272,
      "Quer": 7273,
      "ie": 7274,
      "nam": 7275,
      "அடுத்து": 7276,
      "இக்கு": 7277,
      "எறியும்": 7278,
      "கான்": 7279,
      "ஜன்ன": 7280,
      "மனு": 7281,
      "ாடி": 7282,
      "வனிடம்": 7283,
      "பெய்": 7284,
      "போடு": 7285,
      "ன்றையும்": 7286,
      "மூடிக்": 7287,
      "க்கித்": 7288,
      "செய்யப்படு": 7289,
      "வழிபட": 7290,
      "ழ்ந்து": 7291,
      "ஞ்சிய": 7292,
      "மன்னிப்பாயாக": 7293,
      "நினைக்கவில்லை": 7294,
      "கூட்டமாக": 7295,
      "இதைச்": 7296,
      "அஞ்சிய": 7297,
      "ick": 7298,
      "சமமான": 7299,
      "அளவுரு": 7300,
      "வழியையும்": 7301,
      "எங்களுக்கும்": 7302,
      "நாடா": 7303,
      "வெறுக்க": 7304,
      "பொய்யாக்கிக்": 7305,
      "சிலரைச்": 7306,
      "நன்மையுடைய": 7307,
      "கனிவர்க்க": 7308,
      "ஹராம்": 7309,
      "தியானம்": 7310,
      "அத்தியாய": 7311,
      "மீட்டப்படுவீர்கள்": 7312,
      "அர்ரஹ்மானுக்கு": 7313,
      "வழிகெடுத்து": 7314,
      "கருணையுடையவனாகவும்": 7315,
      "நின்றுமுள்ளவர்": 7316,
      "ரஸூல": 7317,
      "அறிவுடையோருக்கு": 7318,
      "சீக்கிரமே": 7319,
      "_BAR": 7320,
      "பனூ": 7321,
      "பொறாமை": 7322,
      "Query": 7323,
      "):": 7324,
      "day": 7325,
      "ob": 7326,
      "அன்ன": 7327,
      "ஆவேன்": 7328,
      "உடல்": 7329,
      "கல்ல": 7330,
      "்கால": 7331,
      "க்குவ": 7332,
      "திக": 7333,
      "திடுக்க": 7334,
      "இருப்பு": 7335,
      "மாக்க": 7336,
      "கொண்டபின்": 7337,
      "சிபாரி": 7338,
      "பென்": 7339,
      "யாது": 7340,
      "சேர": 7341,
      "தம்மிடம்": 7342,
      "இரவை": 7343,
      "ிருப்பதைக்": 7344,
      "நோக்க": 7345,
      "நம்பிக்கையை": 7346,
      "ழிந்து": 7347,
      "உணவை": 7348,
      "செயல்பட": 7349,
      "வழியிலிருந்து": 7350,
      "வேறொரு": 7351,
      "தனிப்பட்ட": 7352,
      "தொழுகையைக்": 7353,
      "நெருக்கமான": 7354,
      "சமுதாயம்": 7355,
      "regions": 7356,
      "அடுக்க": 7357,
      "சதோ": 7358,
      "்கே": 7359,
      "வாண்ட்": 7360,
      "னைத்தும்": 7361,
      "தீமையும்": 7362,
      "சுருக்கு": 7363,
      "விடவில்லை": 7364,
      "க்கிறாய்": 7365,
      "விடுகிறேன்": 7366,
      "அவ்வேளை": 7367,
      "கத்தி": 7368,
      "இறங்கி": 7369,
      "கிடக்கும்": 7370,
      "ஞானத்தைக்": 7371,
      "பாதுகாக்க": 7372,
      "க்காகவே": 7373,
      "rep": 7374,
      "விளையாட்டாள": 7375,
      "selec": 7376,
      "செலுத்துவதில்லை": 7377,
      "எப்பொரு": 7378,
      "நண்பர்களாக": 7379,
      "உண்டான": 7380,
      "ஸ்பேட்": 7381,
      "கழுதை": 7382,
      "த்திலே": 7383,
      "பிரயாண": 7384,
      "தயாரி": 7385,
      "தீண்டிய": 7386,
      "ஜிப்ரயீல்": 7387,
      "அண்மையில்": 7388,
      "600": 7389,
      "Description": 7390,
      "PG": 7391,
      "ஐரோ": 7392,
      "டான்": 7393,
      "ாரோ": 7394,
      "வரவில்லை": 7395,
      "மையே": 7396,
      "தீவினை": 7397,
      "அறிவீர்கள்": 7398,
      "பயமு": 7399,
      "ற்பனை": 7400,
      "யாதோர்": 7401,
      "அதைவிட்டு": 7402,
      "இரவும்": 7403,
      "கொடுக்கின்ற": 7404,
      "நேர்மையாக": 7405,
      "மன்னிக்க": 7406,
      "உண்மையாகும்": 7407,
      "அதற்குக்": 7408,
      "கண்களை": 7409,
      "அழிவு": 7410,
      "என்னைத்": 7411,
      "பெயரில்": 7412,
      "எடுத்துச்": 7413,
      "முறைகள்": 7414,
      "பார்த்தேன்": 7415,
      "பார்த்தீர்களா": 7416,
      "சீக்கர": 7417,
      "விஷயங்கள்": 7418,
      "காரியத்தில்": 7419,
      "இஸ்லாம்": 7420,
      "ஆகியவற்றை": 7421,
      "பட்டுள்ளது": 7422,
      "பேராற்றல்": 7423,
      "மணமுடி": 7424,
      "வெளியீடு": 7425,
      "புதல்விய": 7426,
      "குறிப்புகள்": 7427,
      "ஹாரூன்": 7428,
      "spac": 7429,
      "தீமையோ": 7430,
      "இணையாக்கு": 7431,
      "கற்பி": 7432,
      "சுமையைச்": 7433,
      "குறும்பட": 7434,
      "அடர்ந்த": 7435,
      "சாஸன": 7436,
      "பரவாயில்லை": 7437,
      "_BAR_": 7438,
      "Go": 7439,
      "GRO": 7440,
      "ணர்": 7441,
      "தரம்": 7442,
      "மத்திய": 7443,
      "ர்தான்": 7444,
      "ர்களிலும்": 7445,
      "்டர்": 7446,
      "செவ்வ": 7447,
      "மாகாது": 7448,
      "மையின்": 7449,
      "சுட்டு": 7450,
      "வருகின்றனர்": 7451,
      "பொருட்டே": 7452,
      "வந்திருக்கிற": 7453,
      "க்கின்றீர்கள்": 7454,
      "வையிலும்": 7455,
      "அமைவு": 7456,
      "அமைத்தோம்": 7457,
      "கெடுத்து": 7458,
      "அல்லாஹ்விடமிருந்தே": 7459,
      "கிடைக்க": 7460,
      "சொல்லப்பட்டால்": 7461,
      "எச்சரிக்கப்பட்ட": 7462,
      "ட்சியில்": 7463,
      "பொய்யுரை": 7464,
      "துவங்க": 7465,
      "கவனிக்க": 7466,
      "பிரார்த்தித்த": 7467,
      "செல்வத்தை": 7468,
      "மரணத்திற்குப்": 7469,
      "கூட்டத்தாரிடம்": 7470,
      "எவராலும்": 7471,
      "நிழல்": 7472,
      "வெளியாக்கி": 7473,
      "cont": 7474,
      "அமெரிக்க": 7475,
      "பறவைகள்": 7476,
      "க்கொள்கிற": 7477,
      "ஷுஐபை": 7478,
      "சேகரித்து": 7479,
      "மடையச்": 7480,
      "ublic": 7481,
      "பூமியினுடையவும்": 7482,
      "ey": 7483,
      "அக்கூட்ட": 7484,
      "அப்புறம்": 7485,
      "னான": 7486,
      "செடி": 7487,
      "ச்சார": 7488,
      "பிந்திய": 7489,
      "பிற்படுத்த": 7490,
      "வரியில்": 7491,
      "காட்சிய": 7492,
      "பாட்டை": 7493,
      "வ்வாறு": 7494,
      "ிலையில்": 7495,
      "கூறிவிடும்": 7496,
      "ப்படமாட்டாது": 7497,
      "கொள்ளாது": 7498,
      "விடுமோ": 7499,
      "முன்னிலையில்": 7500,
      "க்கின்றீர்களா": 7501,
      "நகர்": 7502,
      "பாவங்களையும்": 7503,
      "arn": 7504,
      "மனிதர்களிடம்": 7505,
      "உணர்": 7506,
      "கவனித்து": 7507,
      "சுவர்க்கம்": 7508,
      "சேர்க்கவும்": 7509,
      "ருக்கெல்லாம்": 7510,
      "ஆச்சரியமான": 7511,
      "idge": 7512,
      "வசனங்களாகும்": 7513,
      "கொடுக்கப்பட்ட": 7514,
      "group": 7515,
      "ஃபாஸிக்கு": 7516,
      "GROAN": 7517,
      "13": 7518,
      "17": 7519,
      "EE": 7520,
      "Ma": 7521,
      "aw": 7522,
      "fol": 7523,
      "ive": 7524,
      "yle": 7525,
      "அத்துடன்": 7526,
      "இஹ்ரா": 7527,
      "பனி": 7528,
      "ையு": 7529,
      "துளி": 7530,
      "ொண்ட": 7531,
      "ுடையவர்கள்": 7532,
      "அல்லன்": 7533,
      "பூர்த்த": 7534,
      "கார்ட": 7535,
      "அதிலேயே": 7536,
      "இரவில": 7537,
      "கருப்பு": 7538,
      "தலைவர்களை": 7539,
      "அதிகமதி": 7540,
      "அதிகமாக்கு": 7541,
      "மேலோ": 7542,
      "தலத்தில்": 7543,
      "இவ்வுண்மையை": 7544,
      "பக்கமும்": 7545,
      "குறைவு": 7546,
      "பொருட": 7547,
      "தொழுகையின்": 7548,
      "ஸ்டர்": 7549,
      "வாக்களித்த": 7550,
      "எழுதுகிறது": 7551,
      "நன்மையின்": 7552,
      "இரகசியம்": 7553,
      "உதாரணமாக": 7554,
      "தீர்ப்பளிப்பான்": 7555,
      "நெருப்பிலிருந்து": 7556,
      "நிலைத்திருக்கும்": 7557,
      "ween": 7558,
      "இலேசாக": 7559,
      "நுட்ப": 7560,
      "தலைமுறையினரை": 7561,
      "string": 7562,
      "between": 7563,
      "15": 7564,
      "ஜக": 7565,
      "தப்ப": 7566,
      "பழு": 7567,
      "ளையும்": 7568,
      "த்தொ": 7569,
      "ப்பதைப்": 7570,
      "திடு": 7571,
      "த்துடனும்": 7572,
      "கூள": 7573,
      "மாதம்": 7574,
      "சிவப்பு": 7575,
      "போக்கு": 7576,
      "செய்தார்களோ": 7577,
      "ினார்கள்": 7578,
      "வழிப்பட்டு": 7579,
      "ங்குகிறது": 7580,
      "இதுவரை": 7581,
      "அதிகாலையில்": 7582,
      "மன்னித்தான்": 7583,
      "கொள்வான்": 7584,
      "வேதனையாக": 7585,
      "கெடுக்க": 7586,
      "வர்களுக்குப்": 7587,
      "நிலைத்து": 7588,
      "மனிதர்களிடையே": 7589,
      "முஃமின்களையும்": 7590,
      "விளையாடி": 7591,
      "tool": 7592,
      "பாக்கியமுள்ள": 7593,
      "விதிக்கப்பட்ட": 7594,
      "கண்ணியமிக்க": 7595,
      "உன்னைப்": 7596,
      "நன்மையோ": 7597,
      "கப்பல்": 7598,
      "ழியம்": 7599,
      "சொற்பமாகவே": 7600,
      "ters": 7601,
      "வெளிப்படுத்துவதையும்": 7602,
      "மயக்கி": 7603,
      "ஆதமுக்கு": 7604,
      "ப்ராஸாரோ": 7605,
      "mbol": 7606,
      "கூறுபவராகவும்": 7607,
      "ஏறிச்": 7608,
      "வைப்போரில்": 7609,
      "மஹரை": 7610,
      "வேற்றுமை": 7611,
      "நோயாளி": 7612,
      "யாருமில்லை": 7613,
      "பட்சம்": 7614,
      "NO": 7615,
      "எந்": 7616,
      "கம்ப": 7617,
      "ஞர்கள்": 7618,
      "பத்திர": 7619,
      "மாயின்": 7620,
      "ிடம": 7621,
      "எனப்": 7622,
      "கேட்டை": 7623,
      "ிருந்தனர்": 7624,
      "உம்மிட": 7625,
      "பேச்சை": 7626,
      "வருமாறு": 7627,
      "இறக்கப்பட": 7628,
      "இருப்பதே": 7629,
      "பிரெ": 7630,
      "வதுமில்லை": 7631,
      "அச்சந்தீர்": 7632,
      "about": 7633,
      "பாவத்திலிருந்து": 7634,
      "உண்டாக்கிக்": 7635,
      "விளையாட": 7636,
      "urr": 7637,
      "நாடுகிறானோ": 7638,
      "நீங்களிருவரும்": 7639,
      "கொண்டிருக்கிறார்கள்": 7640,
      "வீட்டிற்கு": 7641,
      "மன்னிப்போனும்": 7642,
      "மன்னப்பவன்": 7643,
      "பொய்க்": 7644,
      "ஒருவரையொருவர்": 7645,
      "New": 7646,
      "XML": 7647,
      "ud": 7648,
      "ஆவோம்": 7649,
      "பவர": 7650,
      "துண": 7651,
      "கொஞ்சம்": 7652,
      "வாரம்": 7653,
      "அவர்களி": 7654,
      "கூச்ச": 7655,
      "குப்பை": 7656,
      "ராகிய": 7657,
      "அவனிட": 7658,
      "சுவைக்க": 7659,
      "நம்மில்": 7660,
      "திருநாம": 7661,
      "அருகில்": 7662,
      "ிருப்பது": 7663,
      "பொதி": 7664,
      "என்றான்": 7665,
      "தொடக்க": 7666,
      "உமக்குத்": 7667,
      "தலைவர்": 7668,
      "வசனங்களின்": 7669,
      "சீர்த": 7670,
      "எங்களுக்குத்": 7671,
      "அகற்ற": 7672,
      "வழியிலும்": 7673,
      "ஆகிவிட்டனர்": 7674,
      "வழியைத்": 7675,
      "நூறு": 7676,
      "நன்கறிந்தவனாக": 7677,
      "ஆதாரங்கள்": 7678,
      "கனிவகை": 7679,
      "கெடுதி": 7680,
      "க்கொள்ளுங்கள்": 7681,
      "சக்தியுடையவன்": 7682,
      "விளக்கத்தை": 7683,
      "க்கப்பட்டுள்ளன": 7684,
      "இருள்களில்": 7685,
      "வழிகெடுத்த": 7686,
      "தயாராக": 7687,
      "பொய்ப்பிப்பவர்களுக்கு": 7688,
      "உட்கார்ந்து": 7689,
      "ோனுமாக": 7690,
      "சுருக்கியும்": 7691,
      "மலில்லை": 7692,
      ")-": 7693,
      "Co": 7694,
      "Long": 7695,
      "சட்டை": 7696,
      "யாரோ": 7697,
      "ங்களிலிருந்தும்": 7698,
      "களோ": 7699,
      "கொண்டிருக்கின்றன": 7700,
      "ங்கால": 7701,
      "செய்வதற்காகவும்": 7702,
      "தியில்": 7703,
      "வற்றையா": 7704,
      "any": 7705,
      "இறங்கும்": 7706,
      "என்பதற்கு": 7707,
      "திருடிய": 7708,
      "ிருப்பார்": 7709,
      "வரைப்": 7710,
      "தரவை": 7711,
      "இயற்க": 7712,
      "பார்க்கலாம்": 7713,
      "நகரம்": 7714,
      "பாவத்தையும்": 7715,
      "இவ்வாறுதான்": 7716,
      "காரியங்களும்": 7717,
      "பயபக்தியுடையவர்கள": 7718,
      "வட்டின்": 7719,
      "மின்னெழுத்து": 7720,
      "த்தோடும்": 7721,
      "ight": 7722,
      "ஞானமுடையோனாகவும்": 7723,
      "சந்திரன்": 7724,
      "மணிக்கு": 7725,
      "சோதனைக்கு": 7726,
      "நயவஞ்சகர்கள்": 7727,
      "கதவை": 7728,
      "கணக்கிடு": 7729,
      "படைத்துள்ளான்": 7730,
      "pref": 7731,
      "ஸினாய்": 7732,
      "-(": 7733,
      "=\\\\\\\\": 7734,
      "Op": 7735,
      "னையில்": 7736,
      "வதையே": 7737,
      "ப்பார": 7738,
      "ாகம்": 7739,
      "களத்தில்": 7740,
      "ஒருத்திய": 7741,
      "ட்ரி": 7742,
      "சுதந்திர": 7743,
      "அழகு": 7744,
      "மற்றெ": 7745,
      "திருந்த": 7746,
      "நாள்கா": 7747,
      "பூமியுடையவும்": 7748,
      "retur": 7749,
      "சேர்ப்பி": 7750,
      "இதற்குள்": 7751,
      "எதுவுமில்லை": 7752,
      "களுக்குப்": 7753,
      "அவ்விருவரையும்": 7754,
      "சொந்தமான": 7755,
      "எல்லோரையும்": 7756,
      "செய்வதெல்லாம்": 7757,
      "ஹுது": 7758,
      "வாரிச": 7759,
      "சன்மார்க்க": 7760,
      "புதல்வர்களையும்": 7761,
      "சந்திரனும்": 7762,
      "அங்கேயே": 7763,
      "மடங்கு": 7764,
      "காண்கிறோம்": 7765,
      "இரட்டிப்பா": 7766,
      "பரிகாரமாக": 7767,
      "பாவிகளாகவே": 7768,
      "ஒருத்தியாக": 7769,
      "MA": 7770,
      "Que": 7771,
      "RE": 7772,
      "UCK": 7773,
      "sw": 7774,
      "ser": 7775,
      "ஈட": 7776,
      "சலா": 7777,
      "பட்டுக்": 7778,
      "ரன்": 7779,
      "ீரோ": 7780,
      "்து": 7781,
      "ப்பதெல்லாம்": 7782,
      "நிஃ": 7783,
      "முட்ட": 7784,
      "ாரிடம்": 7785,
      "பிழ": 7786,
      "தாலும்": 7787,
      "உம்மையும்": 7788,
      "உள்ளனர்": 7789,
      "இருக்கின்றார்களா": 7790,
      "இருப்பதில்லை": 7791,
      "அருந்து": 7792,
      "நேர்ந்து": 7793,
      "பலசாலி": 7794,
      "உயரமான": 7795,
      "குறிப்பட்ட": 7796,
      "ப்படுத்தல்": 7797,
      "பூமியிலுமுள்ள": 7798,
      "தலைப்பை": 7799,
      "செய்பவராக": 7800,
      "பிற்கால": 7801,
      "முஃமின்களின்": 7802,
      "பொருத்து": 7803,
      "தங்களையே": 7804,
      "ந்நரகத்": 7805,
      "பிரார்த்தித்து": 7806,
      "குறிப்பிட்டு": 7807,
      "தவறாக": 7808,
      "பயபக்தியுடையோருக்கு": 7809,
      "depart": 7810,
      "வீணாக்க": 7811,
      "ஒருவராகி": 7812,
      "பகலிலும்": 7813,
      "எவனுடைய": 7814,
      "ாதிருக்க": 7815,
      "முற்பட்டார்கள்": 7816,
      "விருந்தின": 7817,
      "ுடனே": 7818,
      "இல்லையென்றால்": 7819,
      "தேவையற்றவன்": 7820,
      "ரிய்யா": 7821,
      "ஏவப்பட்டுள்ளேன்": 7822,
      "இன்ஜீலையும்": 7823,
      "ஜகரிய்யா": 7824,
      "Quebec": 7825,
      "departments": 7826,
      "@}": 7827,
      "En": 7828,
      "Please": 7829,
      "க்கத்தை": 7830,
      "ாகவோ": 7831,
      "ோருடன்": 7832,
      "உங்களிடமிருந்து": 7833,
      "புலம்": 7834,
      "பெல்": 7835,
      "தூதை": 7836,
      "வருந்தி": 7837,
      "முன்னதாகவே": 7838,
      "erb": 7839,
      "error": 7840,
      "நெடிய": 7841,
      "படைகள்": 7842,
      "மன்னித்த": 7843,
      "வணங்கிய": 7844,
      "படிப்ப": 7845,
      "மாரி": 7846,
      "சத்தியத்தைக்": 7847,
      "தானம்": 7848,
      "அளிக்கும்": 7849,
      "அதிகப்படுத்தி": 7850,
      "ிருக்கின்றது": 7851,
      "கொடுத்த": 7852,
      "அதனைத்": 7853,
      "பார்த்தால்": 7854,
      "கொள்கிறீர்கள்": 7855,
      "விதியா": 7856,
      "எங்களைத்": 7857,
      "பொய்யர்களாக": 7858,
      "ஆகிவிட்ட": 7859,
      "திரும்பிய": 7860,
      "இலக்கு": 7861,
      "சாளரத்தில்": 7862,
      "கல்விய": 7863,
      "விரிப்பாக": 7864,
      "வட்டால்": 7865,
      "இவர்களைப்": 7866,
      "பணத்தை": 7867,
      "ஆச்சரியப்படு": 7868,
      "வெளிப்படையாக": 7869,
      "சீட்டுகளை": 7870,
      "கோணத்தை": 7871,
      "நிரந்தரமான": 7872,
      "symbol": 7873,
      "மிகுந்த": 7874,
      "துன்புறு": 7875,
      "காய்ந்து": 7876,
      "வாலிப": 7877,
      "If": 7878,
      "{@}": 7879,
      "இடையில்": 7880,
      "க்களையும்": 7881,
      "தள்ளி": 7882,
      "பங்கி": 7883,
      "பகல்": 7884,
      "ளியாக": 7885,
      "வியும்": 7886,
      "ும": 7887,
      "க்City": 7888,
      "கொண்டிருப்போ": 7889,
      "குh": 7890,
      "புற்ப": 7891,
      "செய்திருக்கின்றான்": 7892,
      "ளித்தோம்": 7893,
      "வ்வேதத்": 7894,
      "தீச்": 7895,
      "செய்யவோ": 7896,
      "தூண்டி": 7897,
      "விடுகிறீர்கள்": 7898,
      "திருத்தி": 7899,
      "்களைத்": 7900,
      "பிரே": 7901,
      "உயர்த்து": 7902,
      "கட்டப்பட்ட": 7903,
      "சமூகத்தை": 7904,
      "உண்மையாகவே": 7905,
      "அதிகமாகக்": 7906,
      "செல்லவும்": 7907,
      "நாடியவர்களைத்": 7908,
      "செயலில்": 7909,
      "நுழையும்": 7910,
      "வணங்குகிறீர்கள்": 7911,
      "வடிவத்தை": 7912,
      "விரைவாக": 7913,
      "மனோ": 7914,
      "வரம்புகளை": 7915,
      "தேடுவீராக": 7916,
      "இதயம்": 7917,
      "இறைவனைத்": 7918,
      "கொண்டிருப்பது": 7919,
      "காத்திருக்க": 7920,
      "ப்போக": 7921,
      "அணிவி": 7922,
      "தவ்ராத்": 7923,
      "நோக்கி": 7924,
      "கொண்டுவரப்படுவார்கள்": 7925,
      "நலமாக": 7926,
      "மீளுதல்": 7927,
      "பிரித்தறிவி": 7928,
      "LES": 7929,
      "பைத்தியக்காரர்": 7930,
      "வஸிய்யத்து": 7931,
      "சாம்பல்": 7932,
      "returns": 7933,
      "புற்பூ": 7934,
      "G_": 7935,
      "ஓட": 7936,
      "வணி": 7937,
      "வொரு": 7938,
      "ப்பரி": 7939,
      "களம்": 7940,
      "களையுடைய": 7941,
      "தீங்கை": 7942,
      "விடவுமில்லை": 7943,
      "விடுமானால்": 7944,
      "மனிதனின்": 7945,
      "்களைக்": 7946,
      "மகனை": 7947,
      "கொள்வீர்களாக": 7948,
      "கட்டமைப்பு": 7949,
      "நடத்த": 7950,
      "அமைவுகள்": 7951,
      "பதிவிற": 7952,
      "net": 7953,
      "போக": 7954,
      "பாவங்களிலிருந்து": 7955,
      "arac": 7956,
      "செய்பவர்களாகவும்": 7957,
      "அளிப்பாயாக": 7958,
      "விரும்புகிறான்": 7959,
      "கண்டபோது": 7960,
      "வைப்பான்": 7961,
      "கிரய": 7962,
      "கடுமையாக": 7963,
      "கொண்டிருப்பீராக": 7964,
      "head": 7965,
      "work": 7966,
      "etnam": 7967,
      "சுற்றிக்": 7968,
      "சங்கை": 7969,
      "நேர்வழியைப்": 7970,
      "அன்புடையவன்": 7971,
      "அழித்திருக்கின்றோம்": 7972,
      "புனிதமான": 7973,
      "vietnam": 7974,
      "உள்ளடக்கங்களை": 7975,
      "வேதத்தையுடையோரில்": 7976,
      "காலாவ": 7977,
      "',": 7978,
      "'.": 7979,
      "அற்ற": 7980,
      "ஆக்கவில்லையா": 7981,
      "பத": 7982,
      "பக்": 7983,
      "ரையை": 7984,
      "ல்லி": 7985,
      "முற்ற": 7986,
      "முஹம்": 7987,
      "ுக்குப்": 7988,
      "ாரி": 7989,
      "விடவே": 7990,
      "விடத்தில்": 7991,
      "உங்களுக்குமிடையே": 7992,
      "உள்ளங்கள்": 7993,
      "உள்ளதாகும்": 7994,
      "விடுவோமா": 7995,
      "இருந்தார்களே": 7996,
      "தற்குரிய": 7997,
      "க்கப்பட்டார்கள்": 7998,
      "க்கப்பட்டவராகவும்": 7999,
      "இருப்பிட": 8000,
      "வந்ததா": 8001,
      "உண்மையாகி": 8002,
      "ிருக்கிறார்களோ": 8003,
      "ஏற்படாது": 8004,
      "பெயர்கள்": 8005,
      "உமக்குப்": 8006,
      "அளிக்கின்றான்": 8007,
      "பிறருக்கு": 8008,
      "ஞானமுள்ள": 8009,
      "காலக்க": 8010,
      "செயல்களுக்கு": 8011,
      "அடிமையை": 8012,
      "ரஹ்மான": 8013,
      "எங்களுடன்": 8014,
      "திரும்பிப்": 8015,
      "உதவியை": 8016,
      "வெறுப்பு": 8017,
      "ோரைத்": 8018,
      "வணங்காதீர்கள்": 8019,
      "கணினியில்": 8020,
      "வெளிப்படுத்துகிறான்": 8021,
      "தானியங்கி": 8022,
      "சப்தம்": 8023,
      "அறுவடை": 8024,
      "சின்னம்": 8025,
      "பின்பற்றாதீர்கள்": 8026,
      "ஒருவனே": 8027,
      "தொகையின": 8028,
      "இனத்தாரிடம்": 8029,
      "ages": 8030,
      "எலும்புகளாகவும்": 8031,
      "குளிர்ச்சிய": 8032,
      "குணங்கள்": 8033,
      "ஆலய": 8034,
      "ஹலாலா": 8035,
      "பருகுங்கள்": 8036,
      "முஹம்மது": 8037,
      "Res": 8038,
      "தடைய": 8039,
      "மால்": 8040,
      "வினா": 8041,
      "ானது": 8042,
      "முதன்மை": 8043,
      "வாதா": 8044,
      "ஒருவரையும்": 8045,
      "செய்யப்": 8046,
      "கூறினால்": 8047,
      "தூண்ட": 8048,
      "க்கப்பட்டிருந்தால்": 8049,
      "முன்னுள்ள": 8050,
      "பிரச்சி": 8051,
      "நிராகரிப்பை": 8052,
      "நிராகரிக்கிறார்களோ": 8053,
      "மென்று": 8054,
      "அழிச்சா": 8055,
      "தனக்கென": 8056,
      "சிறப்பான": 8057,
      "செய்பவர்களாக": 8058,
      "ஒவ்வொருவரையும்": 8059,
      "இவர்களையும்": 8060,
      "விதமாக": 8061,
      "ப்படுத்துகிறது": 8062,
      "ஆண்களுக்கு": 8063,
      "உரியவை": 8064,
      "விருப்பத்தை": 8065,
      "கடைசியாக": 8066,
      "எல்லோருக்கும்": 8067,
      "தின்ப": 8068,
      "செய்வதையும்": 8069,
      "செய்கின்றார்களோ": 8070,
      "தீமைகளை": 8071,
      "மக்களைத்": 8072,
      "பயனற்ற": 8073,
      "நிழல": 8074,
      "மர்யமே": 8075,
      "php": 8076,
      "உறவினர்களுக்கும்": 8077,
      "மருந்து": 8078,
      "அவ்விரண்டிலும்": 8079,
      "பேணிக்": 8080,
      "ராஜாவை": 8081,
      "வருவதையோ": 8082,
      "அருமைத்": 8083,
      "பொருட்படுத்த": 8084,
      "நடிகரின்": 8085,
      "பிரச்சினை": 8086,
      "அழிச்சாட்டிய": 8087,
      "AM": 8088,
      "KD": 8089,
      "அரை": 8090,
      "க்கதை": 8091,
      "ர்களிலெல்லாம்": 8092,
      "ட்டல்": 8093,
      "மாதங்கள்": 8094,
      "கொண்டி": 8095,
      "பாட்ட": 8096,
      "ிடமோ": 8097,
      "செய்தேன்": 8098,
      "தேன்": 8099,
      "ப்பிலும்": 8100,
      "கைப்பற்றிக்": 8101,
      "்கிறார்": 8102,
      "சொற": 8103,
      "ine": 8104,
      "சமூகத்தார்களே": 8105,
      "தொட்டி": 8106,
      "ாயோ": 8107,
      "கூறாதீர்கள்": 8108,
      "வெளியேற்றிய": 8109,
      "கிடைக்கவில்லை": 8110,
      "சொல்லவில்லை": 8111,
      "மக்களிடம்": 8112,
      "வைத்திருக்கின்றோம்": 8113,
      "இதற்குக்": 8114,
      "வசனங்களைக்": 8115,
      "வாழ்க்கையை": 8116,
      "பெறுவார்கள்": 8117,
      "மர்யம்": 8118,
      "எவருமே": 8119,
      "see": 8120,
      "உடையவனாகவும்": 8121,
      "குடும்பம்": 8122,
      "நீங்களோ": 8123,
      "அழைத்துச்": 8124,
      "அனுபவிக்கும்": 8125,
      "சுவனபதிகள்": 8126,
      "பூரணமாக": 8127,
      "கூட்டத்தினரும்": 8128,
      "முழமையாக": 8129,
      "கூட்டத்தாருக்கும்": 8130,
      "அலட்சியமாக": 8131,
      "திருப்பொருத்த": 8132,
      "தீவிரமானவன்": 8133,
      "அவ்வாறிருக்க": 8134,
      "மாற்றியமை": 8135,
      "முன்னுரிமை": 8136,
      "நன்கொடைய": 8137,
      "ப்போகிற": 8138,
      "Pr": 8139,
      "cat": 8140,
      "ms": 8141,
      "ஊசலா": 8142,
      "ங்ட": 8143,
      "வாகவும்": 8144,
      "ேர்": 8145,
      "றிந்த": 8146,
      "பிந்த": 8147,
      "களுக்காக": 8148,
      "கொண்டாலும்": 8149,
      "கொண்டார்களா": 8150,
      "பாறை": 8151,
      "வெட்ட": 8152,
      "கள்Name": 8153,
      "விடாதே": 8154,
      "நம்பாது": 8155,
      "செய்யக்கூடிய": 8156,
      "மாட்டார்களா": 8157,
      "கொள்ளக்கூடிய": 8158,
      "...)": 8159,
      "esk": 8160,
      "நாளன்று": 8161,
      "நிராகரிப்பின்": 8162,
      "செலவழி": 8163,
      "கின்றார்கள்": 8164,
      "க்கால": 8165,
      "there": 8166,
      "எண்ணை": 8167,
      "மனிதர்களின்": 8168,
      "கரும": 8169,
      "கொடுத்தார்": 8170,
      "அஞ்சா": 8171,
      "வதைக்": 8172,
      "மேலாக": 8173,
      "மாற்றவும்": 8174,
      "வேதனையைப்": 8175,
      "முறையும்": 8176,
      "பின்னே": 8177,
      "காட்டவும்": 8178,
      "மலக்குகளிடம்": 8179,
      "கட்டுரை": 8180,
      "கட்டுக்கதை": 8181,
      "பெறுவோர்": 8182,
      "சுத்தம்": 8183,
      "மிகைத்தோனும்": 8184,
      "அநியாயக்காரர்களை": 8185,
      "வாய்க்கு": 8186,
      "தயவுசெய்து": 8187,
      "வஹீயாக": 8188,
      "பாதுகாவலர்": 8189,
      "used": 8190,
      "இழப்பு": 8191,
      "முடியாதவாறு": 8192,
      "தங்குவார்கள்": 8193,
      "தடமறி": 8194,
      "வேண்டுமென்ற": 8195,
      "குற்றவாளிகளை": 8196,
      "விவரங்கள்": 8197,
      "அமர்ந்து": 8198,
      "கட்டளையிடப்பட்ட": 8199,
      "அளித்தவற்றிலிருந்து": 8200,
      "லானார்கள்": 8201,
      "சமூகத்தாருக்கும்": 8202,
      "சிக்கல்": 8203,
      "அங்கீ": 8204,
      "proper": 8205,
      "ஆகுக": 8206,
      "வகுப்பு": 8207,
      "சிதற": 8208,
      "திருப்பப்படுகிறீர்கள்": 8209,
      "உலோபி": 8210,
      "நரகவாசிகளே": 8211,
      "வேட்டையா": 8212,
      "சதோதர": 8213,
      "Se": 8214,
      "from": 8215,
      "sion": 8216,
      "top": 8217,
      "அவு": 8218,
      "ந்தை": 8219,
      "செர்": 8220,
      "வேடி": 8221,
      "நாட்டில்": 8222,
      "பாம்பு": 8223,
      "ஒருவராகவும்": 8224,
      "கிறவன்": 8225,
      "பின்வரும்": 8226,
      "வேதங்களை": 8227,
      "இறைவனான": 8228,
      "என்னிடமே": 8229,
      "சாட்சியாள": 8230,
      "வழிகெடு": 8231,
      "வருபவர்": 8232,
      "இறங்க": 8233,
      "க்கின்றானோ": 8234,
      "கெட்டு": 8235,
      "அச்சமற்ற": 8236,
      "நரகவாசிகள்": 8237,
      "அறிவில்லாமல்": 8238,
      "எடுத்துக்கா": 8239,
      "கேட்டில்": 8240,
      "கொள்கின்றனர்": 8241,
      "இருக்கின்றனவா": 8242,
      "தண்டனைய": 8243,
      "சாட்சியத்தை": 8244,
      "பாகத்தை": 8245,
      "முந்தவும்": 8246,
      "அஞ்சுகிறேன்": 8247,
      "சுழற்று": 8248,
      "தருவாயாக": 8249,
      "அருளைத்": 8250,
      "தொலைபேசி": 8251,
      "கூலியையும்": 8252,
      "எப்படியிருந்தது": 8253,
      "பருவ": 8254,
      "அமல்களைச்": 8255,
      "பிந்தவும்": 8256,
      "description": 8257,
      "அபா": 8258,
      "அஜீ": 8259,
      "ஏதா": 8260,
      "மழைய": 8261,
      "றது": 8262,
      "திச": 8263,
      "உங்களிலிருந்தே": 8264,
      "உங்களுக்கிடையில்": 8265,
      "வர்களிலும்": 8266,
      "புழு": 8267,
      "சுற்ற": 8268,
      "ற்றுக்": 8269,
      "தூள்": 8270,
      "ையாதீர்கள்": 8271,
      "ிருப்பினும்": 8272,
      "படைத்துப்": 8273,
      "நோற்க": 8274,
      "வையே": 8275,
      "இயந்திர": 8276,
      "முன்பே": 8277,
      "அளந்து": 8278,
      "இணைவைத்த": 8279,
      "க்காரனாக": 8280,
      "செல்லலாம்": 8281,
      "நாடியதை": 8282,
      "அருளையும்": 8283,
      "பொருந்த": 8284,
      "அர்ப்பணி": 8285,
      "சார்ந்து": 8286,
      "இணையாக": 8287,
      "செய்கின்றாரோ": 8288,
      "amb": 8289,
      "பூமியைப்": 8290,
      "மண்டல": 8291,
      "conf": 8292,
      "பொய்ப்பித்தார்கள்": 8293,
      "காப்பாற்றுவாயாக": 8294,
      "turkey": 8295,
      "கருணையுடையோனாகவும்": 8296,
      "உயிர்களைக்": 8297,
      "ஆணவங்": 8298,
      "பொருத்தமான": 8299,
      "அடிச்சுவடு": 8300,
      "அனந்தர": 8301,
      "கறுப்பு": 8302,
      "செல்லுபடியாகாத": 8303,
      "பணிமேடை": 8304,
      "Open": 8305,
      "PO": 8306,
      "SSL": 8307,
      "XX": 8308,
      "ful": 8309,
      "அக்": 8310,
      "எப்": 8311,
      "கவர்": 8312,
      "புடைய": 8313,
      "படுக்க": 8314,
      "க்கரு": 8315,
      "க்கையில்": 8316,
      "த்தல": 8317,
      "ப்பற்ற": 8318,
      "நிரா": 8319,
      "மாயீ": 8320,
      "டிகிரி": 8321,
      "மிடு": 8322,
      "வரவே": 8323,
      "சிகி": 8324,
      "பாப்": 8325,
      "செய்யக்": 8326,
      "செய்யப்பட்டது": 8327,
      "பயண": 8328,
      "என்னிடமிருந்து": 8329,
      "இவ்வேதத்தில்": 8330,
      "தூதரிடமும்": 8331,
      "நிராகரிக்கிறார்கள்": 8332,
      "கின்றார்களோ": 8333,
      "நினைவுறுத்தும்": 8334,
      "காட்டமாட்டான்": 8335,
      "ஆண்கள": 8336,
      "சென்றனர்": 8337,
      "இஸ்மாயீ": 8338,
      "இறுதிநாள்": 8339,
      "பெரியது": 8340,
      "படுத்துவீராக": 8341,
      "ொருவன்": 8342,
      "செய்வோரின்": 8343,
      "நாளைப்": 8344,
      "விசைகள்": 8345,
      "விவரிக்கின்றோம்": 8346,
      "பாவிகள்": 8347,
      "hoo": 8348,
      "நேர்வழியைக்": 8349,
      "எவனொருவன்": 8350,
      "ஏற்பட்டுள்ளது": 8351,
      "தகவல்கள்": 8352,
      "அடுக்கை": 8353,
      "தூரமான": 8354,
      "வேளையை": 8355,
      "ஆர்டபிள்": 8356,
      "அசையா": 8357,
      "வழிப்படுங்கள்": 8358,
      "fault": 8359,
      "ஆர்டபிள்யூ": 8360,
      "300": 8361,
      "FI": 8362,
      "hint": 8363,
      "அட்": 8364,
      "ஆழ்ந்த": 8365,
      "ஆசியா": 8366,
      "இத்": 8367,
      "கின்": 8368,
      "கத்": 8369,
      "டார்": 8370,
      "தத்தல்": 8371,
      "பவை": 8372,
      "ீட்ட": 8373,
      "ேனே": 8374,
      "ைத்": 8375,
      "்களிலிருந்தும்": 8376,
      "ங்களாகும்": 8377,
      "விழும்": 8378,
      "ற்ச": 8379,
      "நிதி": 8380,
      "வாக்க": 8381,
      "களுடனும்": 8382,
      "கொண்டார்களே": 8383,
      "ஒருங்க": 8384,
      "வீராயின்": 8385,
      "தாங்களும்": 8386,
      "விடப்பட்ட": 8387,
      "பயனும்": 8388,
      "tip": 8389,
      "இறைவனாகவும்": 8390,
      "வழிகாட்ட": 8391,
      "இருந்தவர்களின்": 8392,
      "வரும்படி": 8393,
      "இருப்பவை": 8394,
      "கொள்வேன்": 8395,
      "ப்படுத்தினோம்": 8396,
      "நரகவாதி": 8397,
      "அடைவதற்கு": 8398,
      "கூறவில்லை": 8399,
      "atch": 8400,
      "விஷமம்": 8401,
      "விஷயத்தைப்": 8402,
      "பெறச்": 8403,
      "வீடுகளிலிருந்து": 8404,
      "சிந்திக்கும்": 8405,
      "மலைகளைப்": 8406,
      "பானம்": 8407,
      "இறந்தவர்களை": 8408,
      "தர்மங்கள்": 8409,
      "உண்மையாளர்கள": 8410,
      "மண்ணாகவும்": 8411,
      "பணியா": 8412,
      "இந்நிலையில்": 8413,
      "சங்கையான": 8414,
      "தூதராகிய": 8415,
      "தகவல்களை": 8416,
      "உமக்கும்": 8417,
      "முனாஃபிக்கு": 8418,
      "பிராணிகள்": 8419,
      "ஆன்மாவும்": 8420,
      "SIGHS": 8421,
      "குனிந்து": 8422,
      "1color": 8423,
      "22": 8424,
      "Dr": 8425,
      "அதையும்": 8426,
      "அமானி": 8427,
      "சக": 8428,
      "சும்": 8429,
      "ஹோ": 8430,
      "ாயமாக": 8431,
      "ெடுத்த": 8432,
      "ொன்றும்": 8433,
      "நிச்": 8434,
      "பிடியாக": 8435,
      "புகட்டு": 8436,
      "ற்கால": 8437,
      "தேடல்": 8438,
      "தாமதி": 8439,
      "அறிவார்கள்": 8440,
      "என்னவென்று": 8441,
      "ப்படுதல்": 8442,
      "பொய்": 8443,
      "இணைக்க": 8444,
      "கூறவும்": 8445,
      "படங்கள்": 8446,
      "படத்தை": 8447,
      "காட்டுவான்": 8448,
      "சீட்டை": 8449,
      "விரும்புப": 8450,
      "கொள்கிறேன்": 8451,
      "அனுமதிக்கிறது": 8452,
      "பொய்யர்களில்": 8453,
      "பட்டியல": 8454,
      "சென்றார்": 8455,
      "விரைவான": 8456,
      "கண்ணாடி": 8457,
      "இல்லையோ": 8458,
      "படுத்துகிறான்": 8459,
      "போகிறார்": 8460,
      "மேற்கோ": 8461,
      "போலீஸ்": 8462,
      "தோற்றம்": 8463,
      "விளைவி": 8464,
      "எவ்விதத்": 8465,
      "சூரியனை": 8466,
      "2001": 8467,
      "வல்லமையுடைய": 8468,
      "ஒப்புக்": 8469,
      "தவணையை": 8470,
      "குரல்": 8471,
      "அரியாசன": 8472,
      "Disc": 8473,
      "சிம்லிங்க்": 8474,
      "இஹ்ராம்": 8475,
      "அவனிடத்திலேயே": 8476,
      "ஒருங்கமைப்பு": 8477,
      ":)": 8478,
      "AY": 8479,
      "Mur": 8480,
      "SS": 8481,
      "ஆபர": 8482,
      "இதர": 8483,
      "கையா": 8484,
      "ரண்டு": 8485,
      "றையில்": 8486,
      "ஹாக்": 8487,
      "விண்டோ": 8488,
      "ின்ட்": 8489,
      "நாவு": 8490,
      "மேற்பட்ட": 8491,
      "வர்களாய்": 8492,
      "ினால": 8493,
      "வருவீராக": 8494,
      "வருகிறார்கள்": 8495,
      "தவிர்": 8496,
      "அவ்விடத்தில்": 8497,
      "கோல்": 8498,
      "திருமண": 8499,
      "கொள்வதைத்": 8500,
      "மாரியை": 8501,
      "அதன்பின்": 8502,
      "முஃமின்களிடம்": 8503,
      "கொள்கின்ற": 8504,
      "நிரூ": 8505,
      "விதத்தில்": 8506,
      "வணங்குப": 8507,
      "இணையான": 8508,
      "விரித்து": 8509,
      "ுக்கிடையிலும்": 8510,
      "தேவையு": 8511,
      "செலுத்தமாட்டான்": 8512,
      "இப்றாஹீமின்": 8513,
      "ஒதுக்க": 8514,
      "விரோதம்": 8515,
      "ப்பதற்கான": 8516,
      "சமீபமாக": 8517,
      "பகலும்": 8518,
      "நகலெடுக்க": 8519,
      "இவ்வுலகத்த": 8520,
      "ப்ளூ": 8521,
      "CHUCK": 8522,
      "ஆபரண": 8523,
      "18": 8524,
      "TI": 8525,
      "have": 8526,
      "அழுது": 8527,
      "இனை": 8528,
      "வொ": 8529,
      "வலா": 8530,
      "ென்": 8531,
      "க்குமானால்": 8532,
      "கொண்டோர்": 8533,
      "குவிய": 8534,
      "சிதை": 8535,
      "விட்டாள்": 8536,
      "விடம்": 8537,
      "ont": 8538,
      "னுள்": 8539,
      "மற்றவை": 8540,
      "கொடுப்ப": 8541,
      "நாளுக்காக": 8542,
      "செல்க": 8543,
      "எனக்குச்": 8544,
      "வெளியாக": 8545,
      "ote": 8546,
      "விருக்கும்": 8547,
      "தனால": 8548,
      "அளிக்கிறான்": 8549,
      "குற்றமாகாது": 8550,
      "யூன்": 8551,
      "நாயனை": 8552,
      "தேர்ந்தெடுப்பு": 8553,
      "வேறொன்றும்": 8554,
      "எதிர்பார": 8555,
      "முயன்ற": 8556,
      "அமைப்புகளை": 8557,
      "ரஹ்மத்": 8558,
      "charac": 8559,
      "ஜின்கள்": 8560,
      "செய்கின்றேன்": 8561,
      "குற்றவாளிகளின்": 8562,
      "காற்றுகளை": 8563,
      "அத்தாட்சியாகவும்": 8564,
      "கர்ப்பத்தில்": 8565,
      "வேதத்தையுடையோரே": 8566,
      "பெட்டியை": 8567,
      "நமக்கும்": 8568,
      "ஓய்வு": 8569,
      "பேரிடி": 8570,
      "தோற்கடிக்க": 8571,
      "ஒதுங்குமிடம்": 8572,
      "பலசாலிகளான": 8573,
      "அவுட்": 8574,
      "ஏதாவ": 8575,
      "Murph": 8576,
      "3color": 8577,
      ";).": 8578,
      "Russ": 8579,
      "curr": 8580,
      "dic": 8581,
      "pg": 8582,
      "ஆட்ட": 8583,
      "ஆராய்": 8584,
      "இக்கார": 8585,
      "ஈர்": 8586,
      "கஃப": 8587,
      "னல்": 8588,
      "பவனும்": 8589,
      "பக்குவ": 8590,
      "மகள": 8591,
      "ப்பால்": 8592,
      "செழி": 8593,
      "ரிக்கை": 8594,
      "போதன": 8595,
      "வீதி": 8596,
      "ற்றுப்": 8597,
      "கூறுகிறோம்": 8598,
      "லிடு": 8599,
      "கிழி": 8600,
      "என்றோ": 8601,
      "சத்தியத்திற்கு": 8602,
      "விளக்கிக்": 8603,
      "அல்லாஹ்விடமும்": 8604,
      "babwe": 8605,
      "செல்வோம்": 8606,
      "சேர்ப்போம்": 8607,
      "சமூகத்தாராக": 8608,
      "சமம்": 8609,
      "கலந்த": 8610,
      "தந்தருள்வாயாக": 8611,
      "சந்திப்பை": 8612,
      "ஆயத": 8613,
      "இஸ்ர": 8614,
      "தங்களுக்கே": 8615,
      "விருப்பமா": 8616,
      "துவங்கும்": 8617,
      "பாக்கியமுடையவன்": 8618,
      "ஏற்படுத்தினோம்": 8619,
      "சிறுமை": 8620,
      "நுழைவார்கள்": 8621,
      "இரகசியமாக": 8622,
      "விரோதிய": 8623,
      "உதவியாளர்களாக": 8624,
      "tures": 8625,
      "காதுகளில்": 8626,
      "imbabwe": 8627,
      "பேரீச்ச": 8628,
      "அவ்விரண்டிற்கும்": 8629,
      "play": 8630,
      "விவசாய": 8631,
      "வனாவான்": 8632,
      "புகலிட": 8633,
      "ஒவ்வொன்றும்": 8634,
      "இட்டுக்கட்டிக்": 8635,
      "பந்துக்கள": 8636,
      "அகிலத்தாருக்கெல்லாம்": 8637,
      "சாந்தியும்": 8638,
      "View": 8639,
      "அச்சமயம்": 8640,
      "அணைத்து": 8641,
      "அதிகமதிகம்": 8642,
      "நிஃம": 8643,
      "முட்டாள்": 8644,
      "வலாளி": 8645,
      "Russia": 8646,
      "கஃபத்து": 8647,
      "rain": 8648,
      "டப்பட்ட": 8649,
      "நன்ன": 8650,
      "பஞ்ச": 8651,
      "அவங்க": 8652,
      "ோருடைய": 8653,
      "நீர": 8654,
      "றிக்": 8655,
      "இருமுறை": 8656,
      "குப்புற": 8657,
      "வரப்படுவார்கள்": 8658,
      "ிடமிருந்தும்": 8659,
      "செய்திருக்கிறோம்": 8660,
      "வீர": 8661,
      "சுகி": 8662,
      "அல்லஹ்": 8663,
      "கொள்ளவில்லையா": 8664,
      "லிப்": 8665,
      "இறக்கினோம்": 8666,
      "ப்படுபவன்": 8667,
      "வணங்கும்": 8668,
      "ப்பாடு": 8669,
      "கோள": 8670,
      "பொலி": 8671,
      "எண்ணெ": 8672,
      "நகரும்": 8673,
      "சரிபார்க்கவும்": 8674,
      "காணப்படவில்லை": 8675,
      "கேட்டிலேயே": 8676,
      "மக்களாக": 8677,
      "ிருக்கலாம்": 8678,
      "வைத்தல்": 8679,
      "கவனமாக": 8680,
      "பொய்ப்பித்து": 8681,
      "பெற்றவர்கள்": 8682,
      "இஸ்ஹாக்": 8683,
      "உருவாக்கும்": 8684,
      "தன்னிய": 8685,
      "நன்கறிந்தவனாகவும்": 8686,
      "வாயை": 8687,
      "கேடாகும்": 8688,
      "வெறுத்து": 8689,
      "நபிக்கும்": 8690,
      "பிடிக்காது": 8691,
      "இரகசியமாகவும்": 8692,
      "மூதாதையர்கள்": 8693,
      "த்தாரின்": 8694,
      "சந்தேகமில்லை": 8695,
      "மேற்குத்": 8696,
      "உண்டாக்குகிறான்": 8697,
      "க்கோடு": 8698,
      "உடன்படிக்கையை": 8699,
      "தவ்ராத்தையும்": 8700,
      "சுவனபதியின்": 8701,
      "அடக்கியாள": 8702,
      "பிறிதொரு": 8703,
      "republic": 8704,
      "TD": 8705,
      "lot": 8706,
      "umb": 8707,
      "ஆப": 8708,
      "ஓவிய": 8709,
      "நரம்": 8710,
      "மண்": 8711,
      "ற்கள்": 8712,
      "ஷெ": 8713,
      "ருமை": 8714,
      "ண்டொ": 8715,
      "நீட்டி": 8716,
      "ங்கொண்டு": 8717,
      "வரப்படுவீர்கள்": 8718,
      "செய்வேன்": 8719,
      "இருக்கின்றன்": 8720,
      "இவ்வளவு": 8721,
      "ஞ்சி": 8722,
      "உயர": 8723,
      "க்கியது": 8724,
      "அமைக்கும்": 8725,
      "இயங்க": 8726,
      "கோப்புக்களை": 8727,
      "இணைவை": 8728,
      "வற்றைப்": 8729,
      "உருவரை": 8730,
      "பாவங்கள்": 8731,
      "முடித்து": 8732,
      "புறம்": 8733,
      "எதிலும்": 8734,
      "ாளர்": 8735,
      "க்கினார்": 8736,
      "பொறுத்துக்": 8737,
      "சீமான": 8738,
      "சீரா": 8739,
      "விஷயத்தை": 8740,
      "கொள்கிறாரோ": 8741,
      "பொருளின்": 8742,
      "வைப்பவர்கள்": 8743,
      "எங்களைக்": 8744,
      "நேர்வழிக்கு": 8745,
      "பட்டியலாக": 8746,
      "ஆகிவிடாதீர்கள்": 8747,
      "கூறியதையும்": 8748,
      "அவ்விருவரில்": 8749,
      "நன்மாராயமாக": 8750,
      "மதிப்புகள்": 8751,
      "அறியாதவர்களாக": 8752,
      "2000": 8753,
      "low": 8754,
      "ஒதுங்கி": 8755,
      "வழங்கப்பட்ட": 8756,
      "எளிதான": 8757,
      "இத்தூ": 8758,
      "மருட்டி": 8759,
      "முனாஃபிக்குகள்": 8760,
      "உருவத்தை": 8761,
      "தட்டழிந்து": 8762,
      "சகோதரிகளும்": 8763,
      "தாவூதுக்கு": 8764,
      "மூழ்கிக்கிட": 8765,
      "Admin": 8766,
      "இஸ்ஹாக்கையும்": 8767,
      "சனிக்கிழமைய": 8768,
      "தகுந்த": 8769,
      "வெற்றியடைவீர்கள்": 8770,
      "சாக்ர": 8771,
      "help": 8772,
      "புற்பூண்டு": 8773,
      "மகள்களையும்": 8774,
      "நன்மாராயமாகவும்": 8775,
      "Man": 8776,
      "ak": 8777,
      "பியா": 8778,
      "மரம்": 8779,
      "லன்": 8780,
      "வள்": 8781,
      "ீராயின்": 8782,
      "ர்களிலிருந்து": 8783,
      "செல்லாதீர்கள்": 8784,
      "நீரைப்": 8785,
      "வாள்": 8786,
      "உங்களுக்கிடையே": 8787,
      "வழங்கும்": 8788,
      "விட்டீர்களா": 8789,
      "மானிட": 8790,
      "சுவை": 8791,
      "விடாமல்": 8792,
      "வேதமாகும்": 8793,
      "க்கிறீர்களா": 8794,
      "சாந்திய": 8795,
      "விடுவதில்லை": 8796,
      "பேதம்": 8797,
      "inte": 8798,
      "இருப்பதற்காகவும்": 8799,
      "வந்திருக்கிறேன்": 8800,
      "மெண்டொ": 8801,
      "அமைத்த": 8802,
      "உண்மையையே": 8803,
      "முஃமினாக": 8804,
      "சூதா": 8805,
      "மலையை": 8806,
      "வாழ்த்து": 8807,
      "கவனம்": 8808,
      "ப்படுத்துவான்": 8809,
      "கூறியது": 8810,
      "ப்து": 8811,
      "உதவிய": 8812,
      "உன்னதமான": 8813,
      "தெய்வங்கள": 8814,
      "மகத்தான்": 8815,
      "சேமிப்பு": 8816,
      "நன்மையையும்": 8817,
      "வெற்றியடைய": 8818,
      "தங்கியிருக்க": 8819,
      "பணிய": 8820,
      "form": 8821,
      "தேர்ந்தெடுத்தால்": 8822,
      "சோதிக்கப்பட்டிருந்தால்": 8823,
      "ர்டு": 8824,
      "யோசனை": 8825,
      "மனைவியைத்": 8826,
      "value": 8827,
      "நீள்வட்ட": 8828,
      "முதன்மையான": 8829,
      "பிற்காலத்த": 8830,
      "சாக்ரமெண்டொ": 8831,
      "90": 8832,
      "ds": 8833,
      "அம்பு": 8834,
      "ஆய்": 8835,
      "ஆனா": 8836,
      "ஊதிய": 8837,
      "ஏது": 8838,
      "ஏமாற்று": 8839,
      "சான": 8840,
      "ஜக்கா": 8841,
      "மஃ": 8842,
      "லஸ்": 8843,
      "ஹர்": 8844,
      "ுவையில்": 8845,
      "ப்பீர்கள்": 8846,
      "ந்தம்": 8847,
      "சென்றிரு": 8848,
      "முர்": 8849,
      "வாயி": 8850,
      "அவர்களுக்கே": 8851,
      "காஃபிரான": 8852,
      "சிக": 8853,
      "வர்களோ": 8854,
      "ஒருங்கி": 8855,
      "போர்க்": 8856,
      "சுவையுங்கள்": 8857,
      "விடக்கூடிய": 8858,
      "அறிவீர்களா": 8859,
      "பயனுள்ள": 8860,
      "ண்டுகள்": 8861,
      "கொள்ளுமாறு": 8862,
      "திருக்": 8863,
      "த்தாள்": 8864,
      "நல்லோர்": 8865,
      "கொடுக்கின்றான்": 8866,
      "பலமுள்ள": 8867,
      "நோற்ப": 8868,
      "edu": 8869,
      "உண்மையுடன்": 8870,
      "உறுமல்": 8871,
      "நரகில்": 8872,
      "பிடிப்பு": 8873,
      "ர்களைப்": 8874,
      "வடிகட்ட": 8875,
      "சீஸ்": 8876,
      "கேட்கமாட்டார்கள்": 8877,
      "அறிந்திருந்தால்": 8878,
      "ாலன்றி": 8879,
      "acke": 8880,
      "எண்ணிக்கொண்ட": 8881,
      "சுமக்க": 8882,
      "சொந்தமானது": 8883,
      "dev": 8884,
      "எப்பொழுதும்": 8885,
      "நண்பன்": 8886,
      "நிறைவேறும்": 8887,
      "இரகசியங்களை": 8888,
      "துதித்து": 8889,
      "கப்பல்கள்": 8890,
      "நல்லடியார்": 8891,
      "கட்டுப்பாட்டு": 8892,
      "சொடுக்கு": 8893,
      "ஒளியின்": 8894,
      "துக்கத்தால்": 8895,
      "கைப்பற்றும்": 8896,
      "முஸ்லீம்களாக": 8897,
      "ஐரோப்பா": 8898,
      "சிகிச்சை": 8899,
      "integer": 8900,
      "CL": 8901,
      "GR": 8902,
      "KP": 8903,
      "RW": 8904,
      "Sy": 8905,
      "jan": 8906,
      "ஆரா": 8907,
      "சமாக": 8908,
      "சரா": 8909,
      "நடுத்த": 8910,
      "பில்": 8911,
      "ட்டுக்கு": 8912,
      "க்யூ": 8913,
      "நாட்டின்": 8914,
      "கொண்டானோ": 8915,
      "காயம்": 8916,
      "போர்க": 8917,
      "ப்புகளை": 8918,
      "செய்திருக்கின்றோம்": 8919,
      "ட்பு": 8920,
      "ட்ஸ்": 8921,
      "கார்கோ": 8922,
      "ஞ்சை": 8923,
      "படைகளும்": 8924,
      "lar": 8925,
      "கொள்வதற்கு": 8926,
      "மறுபெயரிடு": 8927,
      "அந்தச்": 8928,
      "குறிப்பாக": 8929,
      "இயக்கம்": 8930,
      "ப்படுத்தினான்": 8931,
      "விரட்டி": 8932,
      "பெருக்க": 8933,
      "அடிக்க": 8934,
      "மார்க்கத்தைப்": 8935,
      "stem": 8936,
      "குறைக்க": 8937,
      "பெறவும்": 8938,
      "பரக்க": 8939,
      "அறியமாட்டேன்": 8940,
      "களாகி": 8941,
      "பின்பற்றுவோ": 8942,
[...]
